<unk>	0
<s>	0
</s>	0
▁t	-0
▁a	-1
he	-2
in	-3
re	-4
▁w	-5
ou	-6
▁s	-7
▁the	-8
on	-9
▁I	-10
▁c	-11
▁m	-12
er	-13
is	-14
▁to	-15
▁b	-16
an	-17
at	-18
니다	-19
▁f	-20
or	-21
▁p	-22
en	-23
it	-24
ing	-25
▁"	-26
▁y	-27
▁d	-28
."	-29
▁you	-30
▁h	-31
le	-32
▁o	-33
▁th	-34
ed	-35
es	-36
▁an	-37
ll	-38
as	-39
▁in	-40
ar	-41
▁있	-42
▁l	-43
▁g	-44
▁그	-45
om	-46
▁of	-47
ve	-48
▁is	-49
▁이	-50
습니다	-51
▁and	-52
▁n	-53
▁be	-54
▁나	-55
us	-56
ic	-57
ay	-58
▁e	-59
▁re	-60
ot	-61
al	-62
ion	-63
ow	-64
▁T	-65
et	-66
ent	-67
▁사	-68
▁ha	-69
▁수	-70
어요	-71
▁it	-72
▁for	-73
ct	-74
▁가	-75
ro	-76
▁on	-77
ld	-78
im	-79
ce	-80
▁we	-81
▁것	-82
ke	-83
▁당	-84
▁that	-85
▁나는	-86
▁우	-87
▁내	-88
▁당신	-89
▁me	-90
▁W	-91
id	-92
ly	-93
oo	-94
am	-95
ch	-96
ith	-97
▁st	-98
st	-99
▁with	-100
ill	-101
에서	-102
▁my	-103
▁아	-104
▁우리	-105
gh	-106
ver	-107
ri	-108
▁have	-109
ter	-110
으로	-111
▁하	-112
▁보	-113
▁저	-114
ore	-115
ut	-116
▁The	-117
if	-118
▁are	-119
▁he	-120
un	-121
▁can	-122
▁다	-123
ad	-124
▁wh	-125
out	-126
▁S	-127
ation	-128
입니다	-129
ir	-130
end	-131
▁will	-132
ant	-133
합니다	-134
▁주	-135
▁pro	-136
▁li	-137
▁do	-138
▁this	-139
se	-140
▁오	-141
ould	-142
▁as	-143
▁was	-144
ur	-145
▁대	-146
▁at	-147
▁your	-148
▁일	-149
▁ne	-150
▁so	-151
her	-152
pp	-153
▁어	-154
▁해	-155
▁제	-156
▁com	-157
▁시	-158
use	-159
▁go	-160
▁지	-161
▁좋	-162
▁A	-163
▁sh	-164
▁한	-165
▁con	-166
op	-167
▁1	-168
▁not	-169
▁기	-170
▁저는	-171
▁H	-172
▁않	-173
▁때	-174
il	-175
all	-176
하는	-177
▁se	-178
▁생	-179
ck	-180
▁여	-181
ght	-182
에게	-183
▁ab	-184
ase	-185
ge	-186
▁ex	-187
▁M	-188
▁너	-189
▁거	-190
▁wor	-191
하고	-192
est	-193
▁P	-194
▁자	-195
▁k	-196
▁We	-197
▁C	-198
ra	-199
▁It	-200
▁있습니다	-201
hen	-202
el	-203
▁없	-204
rom	-205
ul	-206
▁ch	-207
▁like	-208
day	-209
▁만	-210
▁want	-211
▁전	-212
에요	-213
ate	-214
▁bec	-215
세요	-216
▁ma	-217
▁le	-218
▁정	-219
ble	-220
▁많	-221
▁같	-222
▁2	-223
▁바	-224
ers	-225
du	-226
▁내가	-227
th	-228
ime	-229
▁v	-230
our	-231
ause	-232
▁부	-233
▁모	-234
ood	-235
▁K	-236
ment	-237
ure	-238
▁from	-239
ong	-240
▁am	-241
oun	-242
art	-243
▁싶	-244
ust	-245
lease	-246
▁al	-247
▁D	-248
▁or	-249
▁마	-250
▁되	-251
▁위	-252
ink	-253
▁사람	-254
qu	-255
ss	-256
ome	-257
▁time	-258
▁알	-259
ive	-260
이에요	-261
▁pl	-262
ess	-263
▁인	-264
▁about	-265
▁by	-266
▁우리는	-267
▁Th	-268
and	-269
▁있는	-270
▁중	-271
▁영	-272
▁de	-273
ice	-274
ort	-275
▁Y	-276
one	-277
▁us	-278
ol	-279
해요	-280
▁but	-281
ig	-282
▁말	-283
ry	-284
very	-285
▁mo	-286
now	-287
▁생각	-288
▁su	-289
ard	-290
▁when	-291
▁if	-292
▁B	-293
▁because	-294
▁there	-295
▁get	-296
ain	-297
▁안	-298
▁j	-299
▁공	-300
▁work	-301
ook	-302
ist	-303
▁te	-304
▁un	-305
ud	-306
▁comp	-307
▁know	-308
any	-309
up	-310
▁think	-311
▁잘	-312
▁고	-313
ity	-314
pe	-315
▁오늘	-316
나요	-317
fter	-318
해서	-319
▁할	-320
▁더	-321
▁ta	-322
▁E	-323
▁도	-324
▁Wh	-325
ame	-326
ren	-327
ally	-328
der	-329
했어요	-330
▁has	-331
▁Kore	-332
um	-333
ast	-334
▁당신이	-335
ie	-336
ish	-337
▁친	-338
▁cl	-339
duct	-340
▁상	-341
red	-342
▁day	-343
▁don	-344
▁fe	-345
▁문	-346
ous	-347
▁연	-348
▁3	-349
▁비	-350
하지	-351
▁방	-352
▁소	-353
riend	-354
?"	-355
▁lo	-356
fe	-357
▁You	-358
▁요	-359
▁pre	-360
▁그녀	-361
▁때문	-362
▁예	-363
들이	-364
니까	-365
▁r	-366
▁product	-367
다고	-368
들은	-369
▁good	-370
ind	-371
▁받	-372
ide	-373
▁미	-374
▁would	-375
▁있어요	-376
▁all	-377
▁after	-378
▁스	-379
▁up	-380
eop	-381
▁who	-382
eople	-383
If	-384
▁당신은	-385
▁무	-386
ther	-387
▁out	-388
ven	-389
em	-390
▁선	-391
ight	-392
었습니다	-393
▁경	-394
ough	-395
▁Please	-396
▁좋아	-397
▁있어	-398
▁관	-399
os	-400
age	-401
▁친구	-402
▁한국	-403
했습니다	-404
ang	-405
▁들	-406
▁못	-407
▁서	-408
▁our	-409
하게	-410
ack	-411
▁This	-412
▁합니다	-413
▁any	-414
▁int	-415
ac	-416
ies	-417
▁people	-418
▁cont	-419
▁ad	-420
▁J	-421
▁동	-422
▁He	-423
▁보내	-424
▁ar	-425
▁먹	-426
ass	-427
▁계	-428
▁발	-429
▁배	-430
▁매	-431
▁유	-432
▁ag	-433
▁조	-434
so	-435
ear	-436
에는	-437
▁friend	-438
▁im	-439
▁more	-440
▁one	-441
▁L	-442
다면	-443
▁need	-444
per	-445
00	-446
▁원	-447
ace	-448
지만	-449
iv	-450
act	-451
▁sa	-452
겠습니다	-453
ip	-454
▁필	-455
▁시간	-456
▁make	-457
ep	-458
▁남	-459
▁집	-460
으면	-461
▁today	-462
▁going	-463
▁그는	-464
▁확	-465
▁건	-466
ich	-467
▁세	-468
cc	-469
▁did	-470
ount	-471
▁po	-472
here	-473
까지	-474
아요	-475
ile	-476
ine	-477
▁send	-478
▁stud	-479
▁사용	-480
▁che	-481
▁other	-482
▁학	-483
▁G	-484
▁app	-485
리고	-486
▁en	-487
▁should	-488
port	-489
ult	-490
are	-491
▁진	-492
iz	-493
▁결	-494
ue	-495
▁구	-496
▁네	-497
▁tr	-498
▁해요	-499
▁제품	-500
ak	-501
ci	-502
▁res	-503
하여	-504
▁당신의	-505
▁번	-506
하면	-507
▁lot	-508
ng	-509
라고	-510
하기	-511
ach	-512
irst	-513
row	-514
ag	-515
▁been	-516
ound	-517
ool	-518
▁Korea	-519
▁co	-520
ated	-521
orm	-522
way	-523
▁많이	-524
▁게	-525
xt	-526
▁물	-527
▁회	-528
▁신	-529
ign	-530
▁What	-531
▁의	-532
▁개	-533
▁now	-534
able	-535
ap	-536
ite	-537
▁F	-538
▁것이	-539
적인	-540
▁pr	-541
ance	-542
▁통	-543
▁많은	-544
ber	-545
▁후	-546
▁than	-547
▁had	-548
▁감	-549
▁필요	-550
▁왜	-551
다는	-552
▁some	-553
▁could	-554
부터	-555
▁take	-556
▁qu	-557
▁just	-558
ick	-559
▁하는	-560
▁There	-561
▁what	-562
▁노	-563
ans	-564
▁they	-565
▁which	-566
ings	-567
▁것을	-568
▁My	-569
▁5	-570
▁작	-571
ress	-572
▁look	-573
▁part	-574
▁year	-575
▁적	-576
che	-577
▁see	-578
ail	-579
▁그것	-580
rent	-581
▁N	-582
▁난	-583
기를	-584
▁happ	-585
▁too	-586
▁음	-587
▁너무	-588
▁가지	-589
lo	-590
▁위해	-591
ade	-592
▁재	-593
▁pers	-594
▁것입니다	-595
▁행	-596
▁sp	-597
▁well	-598
▁확인	-599
▁feel	-600
▁O	-601
▁장	-602
예요	-603
▁성	-604
▁불	-605
ater	-606
▁dif	-607
▁Do	-608
alk	-609
▁다른	-610
▁이것	-611
▁때문에	-612
▁also	-613
ince	-614
ek	-615
ily	-616
▁many	-617
▁no	-618
▁함	-619
▁살	-620
vel	-621
었어요	-622
▁두	-623
▁입	-624
▁them	-625
▁her	-626
▁날	-627
▁ro	-628
▁use	-629
▁person	-630
▁지금	-631
▁추	-632
▁very	-633
▁가장	-634
▁only	-635
▁every	-636
chool	-637
▁meet	-638
들을	-639
▁check	-640
▁언	-641
▁bet	-642
ition	-643
▁bus	-644
▁사진	-645
ict	-646
ning	-647
fore	-648
▁dis	-649
mor	-650
요일	-651
▁4	-652
lish	-653
ving	-654
▁bu	-655
▁first	-656
▁off	-657
▁She	-658
▁메	-659
▁new	-660
▁mu	-661
▁그녀는	-662
ary	-663
▁드	-664
▁또	-665
▁bo	-666
▁were	-667
▁좋은	-668
▁실	-669
▁please	-670
led	-671
▁가능	-672
▁함께	-673
▁ph	-674
▁next	-675
▁school	-676
▁교	-677
주세요	-678
ence	-679
▁company	-680
▁Eng	-681
▁다음	-682
는데	-683
lf	-684
▁문제	-685
▁반	-686
▁알려	-687
▁week	-688
▁here	-689
ents	-690
ree	-691
ction	-692
▁fam	-693
▁much	-694
▁우리가	-695
적으로	-696
▁하고	-697
▁let	-698
ark	-699
▁대한	-700
get	-701
▁그리고	-702
▁다시	-703
right	-704
form	-705
▁줄	-706
가요	-707
ild	-708
▁his	-709
▁있을	-710
ope	-711
▁again	-712
ife	-713
ious	-714
됩니다	-715
▁How	-716
▁English	-717
▁long	-718
▁따	-719
other	-720
▁차	-721
The	-722
▁come	-723
▁열	-724
▁네가	-725
해야	-726
▁운	-727
▁최	-728
▁정말	-729
▁파	-730
▁새	-731
ple	-732
▁att	-733
▁걸	-734
▁tra	-735
▁em	-736
lp	-737
nd	-738
▁아이	-739
▁만들	-740
▁gr	-741
reat	-742
▁설	-743
▁피	-744
▁영어	-745
▁직	-746
▁del	-747
▁exp	-748
▁help	-749
▁hope	-750
▁분	-751
▁Is	-752
▁이번	-753
▁acc	-754
▁got	-755
▁아니	-756
ved	-757
vie	-758
ab	-759
▁made	-760
pt	-761
▁give	-762
까요	-763
▁even	-764
▁spe	-765
ange	-766
ought	-767
rough	-768
▁since	-769
ank	-770
▁나의	-771
▁프	-772
▁달	-773
립니다	-774
▁how	-775
▁hard	-776
▁올	-777
ting	-778
▁back	-779
▁man	-780
▁20	-781
▁그래	-782
▁여행	-783
▁sm	-784
ec	-785
ave	-786
▁wr	-787
▁외	-788
▁준	-789
ible	-790
▁tw	-791
▁갈	-792
▁does	-793
▁얼	-794
hing	-795
도록	-796
ire	-797
▁right	-798
▁영화	-799
▁under	-800
▁love	-801
ouse	-802
▁등	-803
▁their	-804
▁좀	-805
▁Can	-806
▁inc	-807
▁사랑	-808
▁될	-809
▁rece	-810
▁R	-811
▁br	-812
었어	-813
▁대해	-814
▁10	-815
▁eat	-816
▁him	-817
▁play	-818
▁place	-819
▁through	-820
▁어떻	-821
▁per	-822
▁ask	-823
ose	-824
▁U	-825
▁Ch	-826
▁포	-827
▁she	-828
▁most	-829
▁내일	-830
▁화	-831
▁food	-832
▁jo	-833
▁home	-834
ason	-835
blem	-836
▁단	-837
▁friends	-838
▁life	-839
▁회사	-840
▁way	-841
▁show	-842
습니까	-843
▁requ	-844
▁problem	-845
▁거예요	-846
라는	-847
vers	-848
erv	-849
▁vis	-850
▁Korean	-851
▁어떻게	-852
omet	-853
▁des	-854
▁tell	-855
▁들어	-856
ff	-857
▁강	-858
▁went	-859
ory	-860
▁class	-861
▁order	-862
▁before	-863
▁여기	-864
▁rec	-865
▁diffe	-866
od	-867
▁talk	-868
▁찾	-869
▁days	-870
icture	-871
▁누	-872
▁과	-873
▁느	-874
▁col	-875
▁tri	-876
▁같아	-877
▁음식	-878
▁over	-879
▁참	-880
▁picture	-881
보다	-882
▁점	-883
네요	-884
랍니다	-885
int	-886
▁있나요	-887
▁했	-888
ful	-889
morrow	-890
▁변	-891
▁tomorrow	-892
Th	-893
▁편	-894
▁책	-895
▁출	-896
▁마음	-897
▁sent	-898
▁타	-899
▁같이	-900
▁진행	-901
▁항	-902
▁bel	-903
ect	-904
itt	-905
▁맞	-906
▁것이에요	-907
▁really	-908
▁바랍니다	-909
ens	-910
▁ke	-911
▁않았	-912
▁last	-913
▁add	-914
▁싶습니다	-915
atch	-916
▁것은	-917
▁현	-918
▁study	-919
▁these	-920
In	-921
▁reg	-922
▁거야	-923
▁say	-924
▁연락	-925
ways	-926
▁제가	-927
▁things	-928
▁didn	-929
▁어떤	-930
ations	-931
ial	-932
▁여자	-933
▁start	-934
▁sc	-935
iness	-936
▁힘	-937
▁two	-938
들의	-939
▁fin	-940
▁데	-941
▁모든	-942
kes	-943
▁house	-944
▁won	-945
▁주세요	-946
▁카	-947
les	-948
▁book	-949
we	-950
▁act	-951
oney	-952
king	-953
▁rel	-954
▁car	-955
▁언제	-956
▁곳	-957
og	-958
어서	-959
▁그러	-960
▁pay	-961
▁보고	-962
ather	-963
▁plan	-964
▁gu	-965
▁always	-966
려고	-967
▁Why	-968
ond	-969
▁목	-970
▁버	-971
▁rep	-972
ise	-973
▁poss	-974
▁공부	-975
▁best	-976
ell	-977
av	-978
▁6	-979
▁약	-980
렇게	-981
▁rest	-982
▁pa	-983
▁fl	-984
▁간	-985
▁즐	-986
▁같은	-987
▁이유	-988
리는	-989
▁처	-990
▁char	-991
▁family	-992
▁try	-993
▁요청	-994
▁금	-995
지를	-996
▁inter	-997
▁돌	-998
▁each	-999
▁부탁	-1000
▁count	-1001
▁They	-1002
▁happy	-1003
▁sk	-1004
▁했어요	-1005
들과	-1006
It	-1007
▁cons	-1008
▁visit	-1009
▁dr	-1010
▁사람이	-1011
▁somet	-1012
게요	-1013
▁남자	-1014
igh	-1015
▁그래서	-1016
stand	-1017
arn	-1018
▁시작	-1019
▁행복	-1020
ical	-1021
▁자신	-1022
▁into	-1023
▁used	-1024
▁reason	-1025
▁products	-1026
ied	-1027
▁앞	-1028
▁num	-1029
▁inform	-1030
▁만나	-1031
▁better	-1032
▁무엇	-1033
▁학교	-1034
▁표	-1035
▁money	-1036
▁mon	-1037
▁fo	-1038
▁나에게	-1039
스트	-1040
▁In	-1041
▁where	-1042
ester	-1043
▁싶어요	-1044
self	-1045
ia	-1046
▁이것은	-1047
▁여러	-1048
▁준비	-1049
▁오늘은	-1050
ere	-1051
thing	-1052
pect	-1053
ru	-1054
▁주문	-1055
한테	-1056
hed	-1057
▁request	-1058
▁가족	-1059
▁possible	-1060
▁수업	-1061
▁호	-1062
oy	-1063
ub	-1064
▁그들은	-1065
▁몇	-1066
cess	-1067
▁갔	-1068
이트	-1069
gether	-1070
▁모두	-1071
▁알고	-1072
▁same	-1073
ream	-1074
ustom	-1075
▁'	-1076
▁하나	-1077
▁돈	-1078
스를	-1079
▁매우	-1080
▁exper	-1081
▁끝	-1082
▁일을	-1083
▁Let	-1084
▁while	-1085
cial	-1086
▁why	-1087
▁ra	-1088
▁kind	-1089
겠어요	-1090
▁read	-1091
ions	-1092
▁buy	-1093
▁thought	-1094
리를	-1095
▁식	-1096
ample	-1097
▁같아요	-1098
▁당신에게	-1099
▁imp	-1100
▁import	-1101
ract	-1102
mer	-1103
▁된	-1104
▁맛	-1105
te	-1106
▁온	-1107
▁different	-1108
▁movie	-1109
▁명	-1110
▁없습니다	-1111
▁dec	-1112
▁본	-1113
▁얼마	-1114
▁call	-1115
▁together	-1116
시면	-1117
▁conf	-1118
ake	-1119
▁업	-1120
read	-1121
As	-1122
▁child	-1123
own	-1124
되어	-1125
▁fun	-1126
▁판	-1127
hes	-1128
▁프로	-1129
▁room	-1130
▁So	-1131
ors	-1132
▁볼	-1133
▁손	-1134
▁큰	-1135
ffe	-1136
▁custom	-1137
ord	-1138
▁이야	-1139
000	-1140
▁감사	-1141
▁understand	-1142
▁특	-1143
▁완	-1144
▁새로	-1145
드립니다	-1146
ecause	-1147
▁취	-1148
imes	-1149
gr	-1150
▁가지고	-1151
▁number	-1152
▁great	-1153
▁왔	-1154
▁price	-1155
▁trans	-1156
▁국	-1157
▁Se	-1158
▁중요	-1159
▁됩니다	-1160
ft	-1161
uring	-1162
ipp	-1163
ize	-1164
▁너는	-1165
이나	-1166
▁dep	-1167
iss	-1168
▁고객	-1169
ces	-1170
처럼	-1171
▁이용	-1172
▁keep	-1173
▁inv	-1174
▁care	-1175
▁디	-1176
▁hand	-1177
▁전화	-1178
▁싶어	-1179
▁live	-1180
▁일이	-1181
▁환	-1182
▁business	-1183
Al	-1184
▁아직	-1185
▁종	-1186
▁around	-1187
urn	-1188
▁방법	-1189
하세요	-1190
ems	-1191
▁시간이	-1192
는지	-1193
▁rem	-1194
▁와	-1195
▁노력	-1196
▁만약	-1197
ually	-1198
▁7	-1199
orry	-1200
았습니다	-1201
ye	-1202
▁귀	-1203
▁said	-1204
일을	-1205
▁잠	-1206
▁job	-1207
▁put	-1208
▁어제	-1209
▁리	-1210
▁정도	-1211
▁And	-1212
▁치	-1213
▁change	-1214
▁list	-1215
▁pass	-1216
기가	-1217
▁op	-1218
▁어디	-1219
ner	-1220
지는	-1221
▁world	-1222
▁검	-1223
▁도착	-1224
▁supp	-1225
▁ear	-1226
▁met	-1227
▁month	-1228
▁그런	-1229
▁또한	-1230
들에게	-1231
▁가격	-1232
ased	-1233
이야	-1234
▁이제	-1235
▁역	-1236
▁ent	-1237
▁따라	-1238
▁쓰	-1239
▁있다	-1240
▁high	-1241
▁예정	-1242
▁find	-1243
▁통해	-1244
▁근	-1245
▁당신을	-1246
▁전에	-1247
▁learn	-1248
▁soon	-1249
▁이해	-1250
▁눈	-1251
erest	-1252
▁experi	-1253
▁크	-1254
▁inst	-1255
면서	-1256
학교	-1257
ves	-1258
▁That	-1259
▁너의	-1260
▁않아	-1261
에도	-1262
▁내용	-1263
▁pres	-1264
해주	-1265
▁hot	-1266
▁interest	-1267
▁cal	-1268
▁체	-1269
▁돼	-1270
▁without	-1271
joy	-1272
▁항상	-1273
▁sche	-1274
▁놀	-1275
ert	-1276
▁집에	-1277
esterday	-1278
▁design	-1279
▁being	-1280
▁came	-1281
lic	-1282
▁해야	-1283
▁엄	-1284
▁contact	-1285
ried	-1286
When	-1287
▁schedu	-1288
▁wa	-1289
▁아래	-1290
하겠습니다	-1291
▁V	-1292
▁ref	-1293
였습니다	-1294
ating	-1295
▁information	-1296
▁초	-1297
▁chang	-1298
▁night	-1299
▁빨	-1300
▁var	-1301
▁활	-1302
▁still	-1303
▁years	-1304
▁something	-1305
▁comm	-1306
▁using	-1307
▁pur	-1308
ph	-1309
ib	-1310
▁prep	-1311
ific	-1312
▁sub	-1313
▁such	-1314
▁bl	-1315
ines	-1316
▁then	-1317
▁enjoy	-1318
▁경우	-1319
▁fore	-1320
▁wom	-1321
▁trip	-1322
▁8	-1323
정을	-1324
ments	-1325
나는	-1326
▁big	-1327
▁important	-1328
aut	-1329
ung	-1330
▁길	-1331
▁요즘	-1332
▁속	-1333
에서는	-1334
▁arri	-1335
ired	-1336
▁없어요	-1337
▁커	-1338
ward	-1339
▁답	-1340
▁양	-1341
▁그것은	-1342
▁watch	-1343
▁모르	-1344
ivers	-1345
ne	-1346
▁우리의	-1347
▁mark	-1348
▁동안	-1349
ork	-1350
ject	-1351
▁sle	-1352
velop	-1353
▁새로운	-1354
▁stay	-1355
▁yesterday	-1356
We	-1357
▁꼭	-1358
wn	-1359
▁에	-1360
▁있었	-1361
▁air	-1362
▁eas	-1363
▁ins	-1364
▁않습니다	-1365
▁name	-1366
이라	-1367
ced	-1368
▁sorry	-1369
▁serv	-1370
▁빠	-1371
,000	-1372
▁country	-1373
apan	-1374
▁sy	-1375
▁become	-1376
▁담	-1377
대로	-1378
▁wait	-1379
ities	-1380
▁able	-1381
▁부분	-1382
ittle	-1383
lect	-1384
▁심	-1385
hip	-1386
▁down	-1387
▁꿈	-1388
▁학생	-1389
ever	-1390
cu	-1391
▁없어	-1392
▁9	-1393
▁테	-1394
장을	-1395
▁end	-1396
▁phot	-1397
요일에	-1398
▁Japan	-1399
▁다양	-1400
ual	-1401
▁201	-1402
▁했습니다	-1403
기에	-1404
▁test	-1405
ull	-1406
ween	-1407
▁sec	-1408
▁돌아	-1409
▁조금	-1410
▁dream	-1411
▁travel	-1412
not	-1413
▁cle	-1414
▁좋아하는	-1415
▁little	-1416
▁먼	-1417
ility	-1418
▁월	-1419
▁develop	-1420
이고	-1421
사를	-1422
▁beaut	-1423
ons	-1424
▁between	-1425
▁기다	-1426
▁prov	-1427
▁않는	-1428
oth	-1429
▁보여	-1430
▁during	-1431
vent	-1432
▁이미	-1433
▁위해서	-1434
▁도움	-1435
▁나를	-1436
ys	-1437
리가	-1438
▁mor	-1439
▁cannot	-1440
▁sample	-1441
▁disc	-1442
▁working	-1443
▁하지	-1444
▁mus	-1445
▁must	-1446
ty	-1447
▁되어	-1448
Also	-1449
irm	-1450
▁schedule	-1451
ont	-1452
ient	-1453
▁water	-1454
▁일본	-1455
▁couldn	-1456
▁평	-1457
▁receiv	-1458
▁ind	-1459
▁판매	-1460
▁its	-1461
ared	-1462
▁old	-1463
▁아무	-1464
▁docu	-1465
▁late	-1466
▁및	-1467
▁옷	-1468
▁구매	-1469
▁싶은	-1470
▁정보	-1471
▁sho	-1472
▁Are	-1473
▁doesn	-1474
▁태	-1475
▁운동	-1476
▁있으	-1477
▁sit	-1478
▁email	-1479
▁real	-1480
▁ac	-1481
▁않아요	-1482
▁각	-1483
There	-1484
▁미국	-1485
▁휴	-1486
▁det	-1487
▁샘	-1488
▁morning	-1489
▁산	-1490
▁이상	-1491
gg	-1492
▁그가	-1493
alth	-1494
▁늦	-1495
▁바로	-1496
▁저녁	-1497
▁mom	-1498
▁iss	-1499
▁계속	-1500
ieve	-1501
▁배송	-1502
▁gir	-1503
ered	-1504
▁높	-1505
▁축	-1506
▁혼	-1507
▁아침	-1508
▁deli	-1509
arm	-1510
ready	-1511
▁team	-1512
fic	-1513
▁never	-1514
▁만들어	-1515
▁doing	-1516
▁계획	-1517
▁예약	-1518
llow	-1519
▁제품을	-1520
▁sleep	-1521
▁due	-1522
▁바라	-1523
▁있어서	-1524
▁may	-1525
▁already	-1526
▁청	-1527
res	-1528
duce	-1529
ident	-1530
▁충	-1531
심히	-1532
▁makes	-1533
▁관련	-1534
▁샘플	-1535
ower	-1536
▁mind	-1537
▁경험	-1538
▁먼저	-1539
▁phone	-1540
▁이름	-1541
이라고	-1542
이는	-1543
일에	-1544
til	-1545
▁처음	-1546
▁번째	-1547
ian	-1548
▁St	-1549
After	-1550
▁various	-1551
▁below	-1552
ok	-1553
ular	-1554
▁토	-1555
▁대해서	-1556
▁str	-1557
lud	-1558
▁sur	-1559
ove	-1560
▁없는	-1561
지막	-1562
▁작업	-1563
ae	-1564
겠어	-1565
되는	-1566
▁drink	-1567
▁30	-1568
atter	-1569
▁생각합니다	-1570
▁그의	-1571
oday	-1572
erm	-1573
▁하루	-1574
This	-1575
▁market	-1576
▁가는	-1577
▁때문입니다	-1578
▁읽	-1579
▁왜냐	-1580
▁추가	-1581
▁thing	-1582
▁다양한	-1583
▁힘들	-1584
▁mod	-1585
▁set	-1586
▁이야기	-1587
자인	-1588
▁열심히	-1589
ten	-1590
▁once	-1591
▁라	-1592
▁meeting	-1593
oul	-1594
인가요	-1595
▁그것을	-1596
oice	-1597
▁한국에	-1598
ided	-1599
iversity	-1600
iful	-1601
▁process	-1602
▁그곳	-1603
▁mess	-1604
▁service	-1605
▁사이	-1606
▁bad	-1607
▁comple	-1608
▁상황	-1609
au	-1610
▁머	-1611
인지	-1612
▁빨리	-1613
▁free	-1614
▁follow	-1615
▁another	-1616
ars	-1617
▁물건	-1618
ates	-1619
▁left	-1620
ature	-1621
▁wish	-1622
iday	-1623
▁intro	-1624
▁until	-1625
▁sim	-1626
▁cost	-1627
▁밤	-1628
▁위한	-1629
▁called	-1630
있는	-1631
cy	-1632
olog	-1633
als	-1634
▁상품	-1635
cept	-1636
▁away	-1637
▁찍	-1638
▁코	-1639
▁있습니까	-1640
ics	-1641
▁fr	-1642
▁나도	-1643
▁result	-1644
▁sol	-1645
ational	-1646
omm	-1647
▁발생	-1648
▁아주	-1649
▁students	-1650
▁방문	-1651
▁Because	-1652
▁결과	-1653
▁clot	-1654
rents	-1655
▁선택	-1656
▁갑	-1657
ized	-1658
▁김	-1659
▁세계	-1660
▁""	-1661
▁med	-1662
▁문제가	-1663
▁얘	-1664
하시	-1665
▁ho	-1666
▁사진을	-1667
▁시간을	-1668
▁되었습니다	-1669
았어요	-1670
줍니다	-1671
거나	-1672
▁store	-1673
▁존	-1674
▁외국	-1675
ficult	-1676
aur	-1677
▁wanted	-1678
▁received	-1679
▁beautiful	-1680
▁difficult	-1681
▁12	-1682
▁같습니다	-1683
생님	-1684
▁절	-1685
▁health	-1686
▁children	-1687
▁알아	-1688
ath	-1689
▁looking	-1690
▁부모	-1691
▁서로	-1692
▁건강	-1693
▁Thank	-1694
▁experience	-1695
▁엄마	-1696
▁fact	-1697
▁호텔	-1698
▁소개	-1699
▁마지막	-1700
▁이렇게	-1701
▁present	-1702
""	-1703
시에	-1704
▁않고	-1705
▁제공	-1706
▁ret	-1707
▁ser	-1708
▁궁	-1709
▁이런	-1710
▁있었습니다	-1711
▁모습	-1712
For	-1713
▁가능한	-1714
aring	-1715
oon	-1716
▁game	-1717
▁took	-1718
기는	-1719
atur	-1720
▁having	-1721
▁복	-1722
▁생각해요	-1723
▁로	-1724
기로	-1725
▁sell	-1726
▁min	-1727
▁뭐	-1728
▁art	-1729
인이	-1730
its	-1731
▁받아	-1732
ceed	-1733
▁cult	-1734
▁이곳	-1735
▁parents	-1736
▁나라	-1737
▁ship	-1738
▁채	-1739
▁mar	-1740
▁conc	-1741
aterial	-1742
▁av	-1743
▁word	-1744
▁receive	-1745
▁순	-1746
ted	-1747
fort	-1748
▁Seoul	-1749
▁speak	-1750
▁합	-1751
▁cor	-1752
▁때문이에요	-1753
▁office	-1754
▁서울	-1755
▁cur	-1756
▁필요한	-1757
▁봐	-1758
▁foreign	-1759
▁디자인	-1760
▁getting	-1761
▁앞으로	-1762
리겠습니다	-1763
괜찮	-1764
상을	-1765
ffect	-1766
▁case	-1767
▁봤	-1768
▁용	-1769
ative	-1770
▁anything	-1771
▁But	-1772
aurant	-1773
▁애	-1774
▁게임	-1775
acher	-1776
▁music	-1777
▁color	-1778
oup	-1779
▁변경	-1780
▁yet	-1781
ister	-1782
▁told	-1783
▁myself	-1784
화를	-1785
▁서비	-1786
dy	-1787
▁관심	-1788
▁Could	-1789
▁겁	-1790
정이	-1791
land	-1792
▁mean	-1793
▁병	-1794
었다	-1795
▁purch	-1796
▁material	-1797
▁독	-1798
▁잡	-1799
▁confirm	-1800
ix	-1801
▁adv	-1802
▁When	-1803
▁miss	-1804
페이	-1805
▁미안	-1806
ality	-1807
▁three	-1808
▁배우	-1809
▁결혼	-1810
gram	-1811
▁includ	-1812
▁restaurant	-1813
▁몸	-1814
▁부탁드립니다	-1815
▁갖	-1816
▁노래	-1817
▁아름	-1818
▁해결	-1819
avor	-1820
▁prom	-1821
▁intern	-1822
view	-1823
▁박	-1824
▁주시	-1825
▁직접	-1826
▁후에	-1827
해주세요	-1828
▁might	-1829
▁괜찮	-1830
▁현재	-1831
▁당신과	-1832
uation	-1833
▁clothes	-1834
▁Sh	-1835
▁fut	-1836
▁own	-1837
그램	-1838
▁seems	-1839
▁넣	-1840
▁뒤	-1841
▁그렇	-1842
▁기억	-1843
ness	-1844
▁알려주	-1845
▁heard	-1846
러한	-1847
▁sure	-1848
iet	-1849
▁도와	-1850
▁왜냐하면	-1851
▁일어	-1852
ries	-1853
▁사람들이	-1854
arch	-1855
▁그렇게	-1856
▁싫	-1857
▁몰	-1858
▁색	-1859
air	-1860
und	-1861
▁말을	-1862
▁open	-1863
▁syst	-1864
식을	-1865
osp	-1866
▁있으면	-1867
▁memor	-1868
▁future	-1869
fer	-1870
▁얼마나	-1871
▁걱	-1872
전에	-1873
▁times	-1874
▁선생님	-1875
▁기분	-1876
▁설명	-1877
ages	-1878
▁bre	-1879
▁hour	-1880
▁often	-1881
▁young	-1882
▁않을	-1883
▁hum	-1884
▁resp	-1885
▁loc	-1886
ately	-1887
▁date	-1888
▁되는	-1889
▁인터	-1890
▁dire	-1891
▁믿	-1892
ital	-1893
▁hotel	-1894
▁Did	-1895
▁형	-1896
서를	-1897
▁bir	-1898
▁궁금	-1899
▁해서	-1900
▁teacher	-1901
▁사실	-1902
▁expect	-1903
▁program	-1904
▁키	-1905
▁누구	-1906
하며	-1907
▁중국	-1908
자가	-1909
▁thank	-1910
▁레	-1911
ost	-1912
▁찾아	-1913
▁것으로	-1914
▁Don	-1915
▁making	-1916
▁partic	-1917
▁돈을	-1918
▁떠	-1919
다가	-1920
▁브	-1921
▁시험	-1922
장이	-1923
▁nice	-1924
▁쉬	-1925
ering	-1926
▁gl	-1927
▁여행을	-1928
기도	-1929
▁있고	-1930
▁shipp	-1931
▁듣	-1932
▁증	-1933
ues	-1934
▁그녀가	-1935
▁ed	-1936
▁amount	-1937
이를	-1938
ished	-1939
▁express	-1940
▁저희	-1941
▁though	-1942
▁잘못	-1943
▁ago	-1944
하지만	-1945
▁아니라	-1946
▁done	-1947
mb	-1948
물을	-1949
이가	-1950
▁대학	-1951
ently	-1952
▁cook	-1953
▁ty	-1954
ense	-1955
lain	-1956
▁near	-1957
▁삶	-1958
▁보내주	-1959
▁prof	-1960
▁승	-1961
가는	-1962
▁재미	-1963
지가	-1964
▁이유는	-1965
▁those	-1966
▁vac	-1967
ier	-1968
▁100	-1969
▁친구가	-1970
하였습니다	-1971
▁유명	-1972
▁build	-1973
▁small	-1974
▁가서	-1975
▁비용	-1976
▁changed	-1977
▁얻	-1978
▁asked	-1979
itional	-1980
▁ext	-1981
트를	-1982
▁사람은	-1983
▁Fr	-1984
▁이러한	-1985
▁win	-1986
▁나와	-1987
▁Mon	-1988
▁않은	-1989
▁val	-1990
▁벌	-1991
▁송	-1992
사가	-1993
ese	-1994
▁early	-1995
How	-1996
▁saw	-1997
▁system	-1998
어를	-1999
▁부모님	-2000
▁happen	-2001
▁별	-2002
▁listen	-2003
▁second	-2004
▁special	-2005
저는	-2006
▁pol	-2007
▁첨	-2008
▁음악	-2009
▁account	-2010
▁쉽	-2011
You	-2012
▁그녀의	-2013
▁우리에게	-2014
▁favor	-2015
자를	-2016
▁제일	-2017
line	-2018
▁멋	-2019
▁한국에서	-2020
되었습니다	-2021
▁혼자	-2022
▁few	-2023
ew	-2024
▁중에	-2025
▁19	-2026
▁베	-2027
▁생활	-2028
▁자주	-2029
▁술	-2030
▁file	-2031
▁vide	-2032
▁break	-2033
▁enough	-2034
▁접	-2035
▁서류	-2036
▁그러나	-2037
cheon	-2038
성을	-2039
▁그냥	-2040
▁이메	-2041
▁Un	-2042
▁din	-2043
▁men	-2044
▁whe	-2045
▁point	-2046
▁reply	-2047
▁someone	-2048
▁cam	-2049
시간	-2050
인을	-2051
▁수도	-2052
▁질	-2053
▁11	-2054
▁heart	-2055
▁leave	-2056
less	-2057
artment	-2058
uc	-2059
ute	-2060
ener	-2061
ited	-2062
▁죽	-2063
▁어느	-2064
▁ob	-2065
▁먹고	-2066
셔서	-2067
▁famous	-2068
▁card	-2069
▁광	-2070
ger	-2071
▁오래	-2072
▁sum	-2073
▁매일	-2074
▁ord	-2075
▁사회	-2076
▁birth	-2077
▁found	-2078
케이	-2079
▁pop	-2080
▁later	-2081
▁others	-2082
▁incre	-2083
▁quest	-2084
▁가고	-2085
▁있도록	-2086
▁wrong	-2087
▁글	-2088
보고	-2089
▁sing	-2090
▁cr	-2091
▁이건	-2092
▁exam	-2093
▁song	-2094
▁패	-2095
▁효	-2096
력을	-2097
ommend	-2098
▁너에게	-2099
▁15	-2100
▁야	-2101
라도	-2102
▁cour	-2103
▁Where	-2104
▁은	-2105
▁첫	-2106
▁아닌	-2107
▁프로그램	-2108
▁중요한	-2109
▁너희	-2110
work	-2111
▁받을	-2112
▁bro	-2113
▁pain	-2114
▁impro	-2115
▁깨	-2116
rib	-2117
▁기회	-2118
▁있는지	-2119
▁document	-2120
elt	-2121
▁charge	-2122
▁gave	-2123
▁하겠습니다	-2124
▁charact	-2125
▁doll	-2126
▁skin	-2127
▁recommend	-2128
▁Kim	-2129
▁dri	-2130
▁train	-2131
▁Monday	-2132
▁la	-2133
▁되고	-2134
▁어려	-2135
▁face	-2136
▁창	-2137
▁영어를	-2138
▁started	-2139
▁busy	-2140
▁비행	-2141
입니까	-2142
▁became	-2143
▁walk	-2144
▁bit	-2145
▁첨부	-2146
▁sending	-2147
▁delivery	-2148
드를	-2149
ash	-2150
▁없이	-2151
▁Our	-2152
▁팀	-2153
▁무슨	-2154
▁행동	-2155
▁May	-2156
First	-2157
▁겁니다	-2158
▁taking	-2159
▁향	-2160
ret	-2161
▁commun	-2162
▁pictures	-2163
▁하면	-2164
▁pos	-2165
However	-2166
Yes	-2167
▁아마	-2168
▁perform	-2169
시다	-2170
▁한번	-2171
▁음식을	-2172
▁cold	-2173
▁tired	-2174
▁attend	-2175
▁숙	-2176
▁sl	-2177
▁그림	-2178
▁felt	-2179
▁proceed	-2180
iting	-2181
ution	-2182
▁appro	-2183
ju	-2184
인데	-2185
▁tast	-2186
▁message	-2187
▁메일	-2188
▁eff	-2189
▁grad	-2190
▁living	-2191
▁활동	-2192
▁form	-2193
▁contin	-2194
▁sw	-2195
ched	-2196
▁vacation	-2197
리에	-2198
장에	-2199
▁걱정	-2200
▁표현	-2201
augh	-2202
▁move	-2203
ead	-2204
▁보냈	-2205
▁dinner	-2206
▁particip	-2207
워요	-2208
ata	-2209
▁ca	-2210
rence	-2211
▁issue	-2212
▁얘기	-2213
▁dist	-2214
ention	-2215
▁effect	-2216
▁ans	-2217
당신	-2218
시오	-2219
▁수정	-2220
ording	-2221
▁aut	-2222
▁body	-2223
▁생산	-2224
▁head	-2225
▁있을까요	-2226
▁포함	-2227
unch	-2228
▁run	-2229
▁believe	-2230
▁약속	-2231
▁photo	-2232
ailable	-2233
하신	-2234
▁지내	-2235
▁책을	-2236
장에서	-2237
ember	-2238
▁알려주세요	-2239
▁student	-2240
▁예정입니다	-2241
▁everything	-2242
▁면	-2243
▁계약	-2244
▁의미	-2245
▁원하는	-2246
▁thinking	-2247
원이	-2248
▁가져	-2249
▁boy	-2250
▁Your	-2251
▁lead	-2252
마다	-2253
▁An	-2254
▁culture	-2255
적이	-2256
했던	-2257
app	-2258
되지	-2259
밖에	-2260
▁자기	-2261
▁clean	-2262
▁contract	-2263
부분	-2264
소를	-2265
▁있다면	-2266
▁post	-2267
▁matter	-2268
▁payment	-2269
▁적이	-2270
ached	-2271
▁consid	-2272
가지	-2273
▁지난	-2274
ination	-2275
▁introduce	-2276
▁개발	-2277
▁말씀	-2278
▁인천	-2279
osed	-2280
▁hur	-2281
▁아름다	-2282
▁ap	-2283
▁사람들은	-2284
▁이루	-2285
▁즐거	-2286
lock	-2287
▁customer	-2288
▁있다고	-2289
▁woman	-2290
pl	-2291
▁넘	-2292
했어	-2293
▁tour	-2294
▁women	-2295
▁studying	-2296
▁requested	-2297
▁situation	-2298
▁너를	-2299
▁fil	-2300
▁past	-2301
▁available	-2302
제를	-2303
▁답변	-2304
십시오	-2305
▁girl	-2306
▁side	-2307
▁quick	-2308
▁협	-2309
았어	-2310
▁나오	-2311
▁오후	-2312
▁occ	-2313
▁pub	-2314
So	-2315
하다고	-2316
itive	-2317
력이	-2318
oc	-2319
▁투	-2320
▁수가	-2321
▁cent	-2322
▁grow	-2323
▁줘	-2324
료를	-2325
▁정확	-2326
ised	-2327
tern	-2328
▁전달	-2329
▁Today	-2330
▁mother	-2331
raw	-2332
중에	-2333
ote	-2334
▁있게	-2335
▁지원	-2336
▁pack	-2337
▁front	-2338
▁address	-2339
▁사업	-2340
▁full	-2341
치를	-2342
▁사항	-2343
side	-2344
▁among	-2345
▁stand	-2346
▁생각해	-2347
▁planning	-2348
▁떨	-2349
chn	-2350
ike	-2351
▁집에서	-2352
▁밥	-2353
▁교육	-2354
▁pret	-2355
▁whether	-2356
ety	-2357
▁cert	-2358
▁rain	-2359
▁Incheon	-2360
▁해주	-2361
▁sign	-2362
▁turn	-2363
▁light	-2364
▁spend	-2365
▁기대	-2366
▁연구	-2367
아서	-2368
▁추천	-2369
▁coming	-2370
uss	-2371
▁wonder	-2372
▁station	-2373
▁customers	-2374
려면	-2375
▁부족	-2376
▁사람을	-2377
icket	-2378
pping	-2379
▁both	-2380
▁cond	-2381
▁return	-2382
사의	-2383
원에	-2384
▁문화	-2385
하면서	-2386
meric	-2387
▁data	-2388
▁university	-2389
스러	-2390
▁ass	-2391
▁영화를	-2392
▁bag	-2393
▁story	-2394
ts	-2395
▁잊	-2396
ina	-2397
▁model	-2398
angu	-2399
▁Have	-2400
▁event	-2401
▁video	-2402
▁main	-2403
ee	-2404
gan	-2405
이라는	-2406
▁finish	-2407
▁summer	-2408
▁support	-2409
az	-2410
으며	-2411
▁regard	-2412
▁먹을	-2413
▁여름	-2414
▁필요합니다	-2415
▁relations	-2416
▁개인	-2417
▁bor	-2418
▁direct	-2419
▁클	-2420
품을	-2421
time	-2422
▁삼	-2423
머니	-2424
하려고	-2425
▁ey	-2426
▁서비스	-2427
▁그럼	-2428
▁flo	-2429
▁늘	-2430
레이	-2431
이기	-2432
▁메시	-2433
▁상태	-2434
▁ide	-2435
▁법	-2436
드는	-2437
▁선적	-2438
igin	-2439
▁answ	-2440
ric	-2441
▁transl	-2442
▁문의	-2443
▁size	-2444
To	-2445
▁Ph	-2446
▁발송	-2447
▁Sun	-2448
▁gre	-2449
▁bring	-2450
▁works	-2451
▁giv	-2452
▁Americ	-2453
▁origin	-2454
한다면	-2455
▁problems	-2456
해도	-2457
icy	-2458
icious	-2459
▁pract	-2460
▁sister	-2461
▁birthday	-2462
▁oper	-2463
동안	-2464
어야	-2465
▁건가요	-2466
▁인터넷	-2467
▁city	-2468
▁colle	-2469
▁favorite	-2470
▁됐	-2471
▁되었	-2472
▁report	-2473
▁usually	-2474
▁핸	-2475
▁여러분	-2476
▁project	-2477
▁interested	-2478
지고	-2479
▁hosp	-2480
▁langu	-2481
▁컴	-2482
▁mail	-2483
▁brother	-2484
▁무엇을	-2485
▁하나요	-2486
므로	-2487
▁est	-2488
▁maj	-2489
수를	-2490
ird	-2491
▁타고	-2492
ene	-2493
▁수업을	-2494
▁educ	-2495
Because	-2496
▁explain	-2497
▁가게	-2498
▁ticket	-2499
성이	-2500
▁Then	-2501
▁옆	-2502
den	-2503
erc	-2504
▁적용	-2505
▁top	-2506
▁techn	-2507
▁current	-2508
▁영향	-2509
▁이후	-2510
mber	-2511
▁살아	-2512
▁일찍	-2513
▁페이	-2514
▁alone	-2515
▁bought	-2516
▁기술	-2517
▁인해	-2518
ency	-2519
▁opp	-2520
fect	-2521
▁apply	-2522
▁딸	-2523
ames	-2524
▁condition	-2525
br	-2526
ask	-2527
▁exc	-2528
▁kid	-2529
▁도움이	-2530
▁comes	-2531
ken	-2532
ices	-2533
▁mid	-2534
▁bank	-2535
▁최고	-2536
▁거에요	-2537
▁그런데	-2538
▁stop	-2539
▁쇼	-2540
▁업무	-2541
▁겨	-2542
▁견	-2543
ock	-2544
▁날씨	-2545
▁더욱	-2546
▁놓	-2547
rol	-2548
uck	-2549
▁env	-2550
▁자신의	-2551
▁easy	-2552
ctions	-2553
일이	-2554
urs	-2555
▁오랜	-2556
▁box	-2557
▁여기서	-2558
▁short	-2559
▁relationship	-2560
지도	-2561
plo	-2562
▁eyes	-2563
▁trying	-2564
군요	-2565
▁수량	-2566
▁father	-2567
▁letter	-2568
선을	-2569
▁looks	-2570
감을	-2571
되고	-2572
▁TV	-2573
▁자동	-2574
gy	-2575
이터	-2576
▁성공	-2577
▁완료	-2578
▁인생	-2579
▁테스트	-2580
시는	-2581
▁피부	-2582
utes	-2583
▁이것을	-2584
▁course	-2585
가를	-2586
▁activ	-2587
▁communic	-2588
▁기능	-2589
▁우선	-2590
aces	-2591
▁팔	-2592
iron	-2593
▁좋아요	-2594
▁character	-2595
▁beh	-2596
▁reserv	-2597
▁strong	-2598
▁스트	-2599
▁weather	-2600
▁tried	-2601
▁decided	-2602
스로	-2603
▁좋을	-2604
▁가야	-2605
▁요리	-2606
▁제품은	-2607
▁ever	-2608
▁less	-2609
▁appre	-2610
▁attached	-2611
▁돼요	-2612
▁그들이	-2613
▁arrive	-2614
▁허	-2615
▁Friday	-2616
▁lots	-2617
▁floor	-2618
▁특별	-2619
▁New	-2620
▁far	-2621
▁좋겠어요	-2622
▁takes	-2623
▁hospital	-2624
▁선물	-2625
▁appreci	-2626
▁안에	-2627
friend	-2628
▁haven	-2629
▁delicious	-2630
▁가까	-2631
▁주는	-2632
▁핸드	-2633
more	-2634
▁write	-2635
▁규	-2636
▁것에	-2637
▁직업	-2638
▁저에게	-2639
cture	-2640
▁좋아해요	-2641
▁exerc	-2642
▁eating	-2643
▁웃	-2644
자의	-2645
▁주말	-2646
ffee	-2647
▁가능합니다	-2648
래요	-2649
▁물어	-2650
▁comfort	-2651
▁prepare	-2652
랜드	-2653
▁번호	-2654
▁살고	-2655
▁되면	-2656
▁제작	-2657
iled	-2658
▁hours	-2659
▁만날	-2660
ides	-2661
▁cell	-2662
▁easily	-2663
▁flight	-2664
▁forward	-2665
▁둘	-2666
▁막	-2667
데요	-2668
▁tou	-2669
▁provide	-2670
▁한국의	-2671
▁opin	-2672
▁close	-2673
aughter	-2674
▁금액	-2675
▁일정	-2676
등학교	-2677
▁dog	-2678
ically	-2679
▁human	-2680
▁waiting	-2681
▁곧	-2682
sel	-2683
▁모델	-2684
▁얼굴	-2685
▁words	-2686
ug	-2687
val	-2688
▁참여	-2689
oose	-2690
uter	-2691
▁공부를	-2692
▁있다는	-2693
▁party	-2694
친구	-2695
▁다니	-2696
▁보면	-2697
▁마음을	-2698
▁anim	-2699
▁weekend	-2700
▁홍	-2701
었던	-2702
▁가르	-2703
▁관계	-2704
lied	-2705
▁Would	-2706
▁months	-2707
by	-2708
리핀	-2709
hod	-2710
▁자세	-2711
▁coffee	-2712
▁detail	-2713
ior	-2714
▁받고	-2715
▁pri	-2716
▁moment	-2717
▁슬	-2718
점을	-2719
▁번역	-2720
outh	-2721
▁warm	-2722
▁invoice	-2723
▁popular	-2724
▁골	-2725
▁trad	-2726
▁빌	-2727
년에	-2728
▁떨어	-2729
하도록	-2730
▁필리핀	-2731
be	-2732
▁sea	-2733
▁학교에	-2734
▁스타	-2735
▁equ	-2736
▁items	-2737
▁purchase	-2738
▁watching	-2739
▁능	-2740
▁말고	-2741
▁자연	-2742
Even	-2743
사에	-2744
으니	-2745
▁와서	-2746
▁기분이	-2747
▁되나요	-2748
▁않았습니다	-2749
▁깊	-2750
▁캐	-2751
겠다	-2752
스가	-2753
퓨터	-2754
▁그때	-2755
▁method	-2756
pr	-2757
▁지역	-2758
▁컴퓨터	-2759
He	-2760
▁근처	-2761
▁커피	-2762
▁품	-2763
▁결정	-2764
▁보낼	-2765
▁정보를	-2766
▁pick	-2767
▁친구들과	-2768
금을	-2769
자는	-2770
▁있기	-2771
▁group	-2772
▁Be	-2773
▁대부분	-2774
리지	-2775
▁도시	-2776
▁related	-2777
▁임	-2778
해보	-2779
▁꿈을	-2780
▁안전	-2781
▁충분	-2782
▁web	-2783
▁백	-2784
And	-2785
ott	-2786
▁좋겠어	-2787
▁major	-2788
▁감사합니다	-2789
▁profess	-2790
▁공항	-2791
▁대화	-2792
▁인간	-2793
▁cre	-2794
▁based	-2795
▁cance	-2796
▁gener	-2797
▁shipping	-2798
▁Mr	-2799
▁하기	-2800
에서도	-2801
rect	-2802
▁핸드폰	-2803
드리겠습니다	-2804
▁public	-2805
▁Japanese	-2806
▁computer	-2807
ai	-2808
▁목표	-2809
▁item	-2810
▁sales	-2811
▁착	-2812
ism	-2813
▁겨울	-2814
▁주에	-2815
ield	-2816
oint	-2817
▁fre	-2818
gin	-2819
졌습니다	-2820
ccess	-2821
▁memb	-2822
▁rese	-2823
▁emplo	-2824
원을	-2825
▁우리나	-2826
▁checked	-2827
▁컨	-2828
ases	-2829
▁const	-2830
▁effort	-2831
▁낮	-2832
▁el	-2833
▁케이	-2834
릅니다	-2835
▁있었어요	-2836
▁reservation	-2837
▁죄	-2838
시고	-2839
▁sad	-2840
▁sat	-2841
▁될까요	-2842
though	-2843
▁airport	-2844
▁members	-2845
▁잔	-2846
▁천	-2847
▁풀	-2848
리스	-2849
스템	-2850
▁50	-2851
▁사는	-2852
▁아파	-2853
▁cap	-2854
▁These	-2855
▁compet	-2856
사는	-2857
▁나한테	-2858
ology	-2859
▁hair	-2860
▁다녀	-2861
ration	-2862
co	-2863
도를	-2864
스럽	-2865
시기	-2866
월에	-2867
dle	-2868
▁If	-2869
▁작은	-2870
▁tem	-2871
▁building	-2872
isf	-2873
▁Je	-2874
▁fa	-2875
▁담당	-2876
ival	-2877
▁news	-2878
되었	-2879
▁마음이	-2880
▁quickly	-2881
▁트	-2882
치는	-2883
▁Phil	-2884
▁park	-2885
▁quant	-2886
▁chance	-2887
▁everyone	-2888
▁긴	-2889
상이	-2890
전히	-2891
▁미래	-2892
▁발표	-2893
▁스케	-2894
▁옷을	-2895
▁책임	-2896
▁tax	-2897
▁becom	-2898
▁learned	-2899
▁뉴	-2900
하였	-2901
▁보이	-2902
▁fee	-2903
▁메일을	-2904
▁Does	-2905
▁area	-2906
▁lives	-2907
▁hands	-2908
▁winter	-2909
era	-2910
▁것도	-2911
▁싫어	-2912
▁isn	-2913
▁above	-2914
▁means	-2915
▁smart	-2916
대한	-2917
번호	-2918
▁US	-2919
▁먹는	-2920
▁manage	-2921
어가	-2922
▁느끼	-2923
▁재미있	-2924
▁talking	-2925
▁daughter	-2926
con	-2927
▁그를	-2928
▁유명한	-2929
▁answer	-2930
On	-2931
▁희	-2932
▁은행	-2933
▁sal	-2934
▁생각을	-2935
▁minutes	-2936
▁respons	-2937
Therefore	-2938
▁consider	-2939
▁department	-2940
▁존재	-2941
닙니다	-2942
▁외국인	-2943
Since	-2944
▁exch	-2945
▁pretty	-2946
▁environ	-2947
▁설치	-2948
▁신청	-2949
ouble	-2950
▁countries	-2951
uri	-2952
▁power	-2953
▁necess	-2954
마트	-2955
▁ve	-2956
▁끝나	-2957
▁되지	-2958
▁환경	-2959
▁mil	-2960
▁사용할	-2961
▁이메일	-2962
▁nothing	-2963
▁티	-2964
스는	-2965
▁때는	-2966
▁bed	-2967
▁vol	-2968
▁mist	-2969
르게	-2970
ling	-2971
ients	-2972
▁arrived	-2973
▁outside	-2974
▁following	-2975
ift	-2976
▁고마	-2977
▁일주	-2978
▁피곤	-2979
▁inf	-2980
▁share	-2981
▁playing	-2982
▁success	-2983
▁보는	-2984
▁체크	-2985
▁snow	-2986
▁블	-2987
▁풍	-2988
했을	-2989
▁이거	-2990
▁proper	-2991
ined	-2992
▁프로젝	-2993
▁China	-2994
▁Sunday	-2995
주는	-2996
iew	-2997
▁너와	-2998
▁어린	-2999
used	-3000
▁seen	-3001
▁좋아합니다	-3002
aturday	-3003
ibility	-3004
▁졸	-3005
들도	-3006
▁ok	-3007
ills	-3008
▁나중에	-3009
▁wear	-3010
▁worried	-3011
▁Saturday	-3012
▁remember	-3013
▁지나	-3014
▁취소	-3015
▁manag	-3016
▁꽃	-3017
ium	-3018
nam	-3019
▁line	-3020
▁rice	-3021
▁spec	-3022
▁lunch	-3023
▁Philipp	-3024
▁improve	-3025
▁씨	-3026
▁응	-3027
▁결제	-3028
▁기간	-3029
▁운전	-3030
▁마세요	-3031
ressed	-3032
▁finished	-3033
▁experien	-3034
려요	-3035
▁요구	-3036
집니다	-3037
phone	-3038
pri	-3039
▁관리	-3040
▁사고	-3041
▁올해	-3042
▁좋습니다	-3043
▁example	-3044
▁등을	-3045
▁만든	-3046
▁쉽게	-3047
ring	-3048
▁smo	-3049
▁그들의	-3050
▁시스템	-3051
ience	-3052
▁enter	-3053
▁말해	-3054
▁주고	-3055
▁All	-3056
▁받았습니다	-3057
▁뿐	-3058
eng	-3059
▁보낸	-3060
▁장소	-3061
▁이야기를	-3062
▁within	-3063
▁싸	-3064
시아	-3065
장은	-3066
par	-3067
veral	-3068
▁ordered	-3069
▁language	-3070
▁boyfriend	-3071
io	-3072
▁군	-3073
com	-3074
▁가면	-3075
▁아버	-3076
▁지불	-3077
▁필요해요	-3078
▁People	-3079
▁discuss	-3080
▁자유	-3081
▁효과	-3082
▁cat	-3083
▁도움을	-3084
▁fall	-3085
▁hist	-3086
▁view	-3087
▁saying	-3088
▁according	-3089
cle	-3090
▁등록	-3091
band	-3092
▁친구와	-3093
lfriend	-3094
▁environment	-3095
자기	-3096
▁거의	-3097
▁없을	-3098
aster	-3099
ising	-3100
▁review	-3101
▁플	-3102
가가	-3103
▁pat	-3104
▁있는데	-3105
겠습니까	-3106
▁goes	-3107
▁shop	-3108
oliday	-3109
▁instead	-3110
▁development	-3111
do	-3112
▁급	-3113
▁스트레	-3114
▁soci	-3115
▁exist	-3116
▁field	-3117
▁저의	-3118
▁social	-3119
▁넌	-3120
점이	-3121
▁가방	-3122
▁어렵	-3123
▁종류	-3124
로부터	-3125
▁seem	-3126
▁delay	-3127
▁맡	-3128
▁As	-3129
load	-3130
▁그것이	-3131
▁sport	-3132
▁권	-3133
▁꾸	-3134
▁헤	-3135
▁공간	-3136
▁Bus	-3137
▁ach	-3138
▁hold	-3139
▁taste	-3140
▁satisf	-3141
▁quantity	-3142
리아	-3143
▁그건	-3144
▁발전	-3145
▁son	-3146
▁wants	-3147
▁applic	-3148
▁several	-3149
▁민	-3150
▁왕	-3151
▁총	-3152
cing	-3153
▁appear	-3154
▁worked	-3155
스에	-3156
▁주변	-3157
▁느낌	-3158
▁갑니다	-3159
▁물건을	-3160
▁feeling	-3161
▁잃	-3162
지에	-3163
▁성격	-3164
inese	-3165
▁center	-3166
▁education	-3167
▁Philippines	-3168
de	-3169
let	-3170
yle	-3171
▁대신	-3172
▁또는	-3173
duced	-3174
▁books	-3175
▁whole	-3176
▁holiday	-3177
▁materials	-3178
▁girlfriend	-3179
수님	-3180
▁보통	-3181
▁있지	-3182
reet	-3183
렸습니다	-3184
ization	-3185
▁shopping	-3186
함을	-3187
▁생각이	-3188
▁친구를	-3189
▁true	-3190
▁혹	-3191
▁18	-3192
▁제안	-3193
vert	-3194
▁맛있는	-3195
ision	-3196
▁fine	-3197
▁lost	-3198
▁type	-3199
▁wind	-3200
▁allow	-3201
▁accept	-3202
▁yourself	-3203
ape	-3204
iod	-3205
▁만났	-3206
▁의견	-3207
usband	-3208
▁sound	-3209
▁production	-3210
ush	-3211
▁검토	-3212
ortun	-3213
▁refund	-3214
▁appreciate	-3215
gu	-3216
▁연결	-3217
vies	-3218
▁fast	-3219
▁gets	-3220
▁needs	-3221
ays	-3222
▁관광	-3223
▁mach	-3224
▁term	-3225
▁space	-3226
▁teach	-3227
▁quality	-3228
▁shipment	-3229
▁북	-3230
든지	-3231
▁aw	-3232
ably	-3233
▁along	-3234
▁forget	-3235
▁Chinese	-3236
▁correct	-3237
iqu	-3238
▁높은	-3239
ilar	-3240
▁choose	-3241
▁뜻	-3242
하길	-3243
우리는	-3244
ator	-3245
noon	-3246
▁image	-3247
▁침	-3248
▁누군	-3249
▁동물	-3250
▁쇼핑	-3251
ored	-3252
ified	-3253
▁husband	-3254
My	-3255
bod	-3256
▁맛있	-3257
▁카메	-3258
▁separ	-3259
▁season	-3260
▁afternoon	-3261
▁대표	-3262
▁따뜻	-3263
▁점심	-3264
였어요	-3265
▁prot	-3266
▁아닙니다	-3267
▁period	-3268
min	-3269
▁전문	-3270
▁Every	-3271
▁movies	-3272
▁applied	-3273
▁contain	-3274
▁prepared	-3275
▁sometimes	-3276
▁운영	-3277
▁대학교	-3278
▁hear	-3279
▁아름다운	-3280
▁받은	-3281
▁파티	-3282
room	-3283
▁ele	-3284
▁lar	-3285
▁safe	-3286
▁우리나라	-3287
▁touch	-3288
이어	-3289
err	-3290
▁아빠	-3291
▁처리	-3292
정적인	-3293
ming	-3294
▁문제를	-3295
icken	-3296
▁positive	-3297
했고	-3298
▁광고	-3299
▁cou	-3300
▁swe	-3301
▁draw	-3302
▁text	-3303
▁brand	-3304
estival	-3305
▁opinion	-3306
eb	-3307
▁불가	-3308
▁bas	-3309
▁ton	-3310
▁meal	-3311
▁clear	-3312
▁conven	-3313
▁middle	-3314
▁similar	-3315
ification	-3316
▁documents	-3317
▁difference	-3318
만에	-3319
ully	-3320
▁norm	-3321
▁okay	-3322
▁드립니다	-3323
▁writing	-3324
▁울	-3325
▁흥	-3326
▁화장	-3327
냅니다	-3328
ural	-3329
▁treat	-3330
▁places	-3331
▁college	-3332
▁널	-3333
▁쪽	-3334
▁거기	-3335
▁세상	-3336
▁사이즈	-3337
▁월요일	-3338
otion	-3339
Please	-3340
Wh	-3341
음을	-3342
의를	-3343
▁거래	-3344
▁사무	-3345
▁스마트	-3346
▁원합니다	-3347
▁compan	-3348
▁inside	-3349
▁necessary	-3350
▁즐겁	-3351
mail	-3352
▁ann	-3353
▁meaning	-3354
▁만족	-3355
▁guys	-3356
▁natur	-3357
드릴	-3358
▁따라서	-3359
이며	-3360
ins	-3361
▁가끔	-3362
▁제출	-3363
rist	-3364
▁관심이	-3365
▁sold	-3366
▁organ	-3367
▁ready	-3368
▁anymore	-3369
▁논	-3370
▁측	-3371
▁콘	-3372
▁transfer	-3373
▁대로	-3374
▁받지	-3375
▁위에	-3376
▁200	-3377
▁있지만	-3378
Today	-3379
▁유지	-3380
▁확인해	-3381
▁questions	-3382
ned	-3383
uro	-3384
▁오는	-3385
▁항공	-3386
▁deal	-3387
▁fish	-3388
▁왔습니다	-3389
atched	-3390
▁convers	-3391
go	-3392
▁납	-3393
▁솔	-3394
수가	-3395
ify	-3396
▁공급	-3397
▁남편	-3398
▁부산	-3399
nect	-3400
▁low	-3401
▁아니면	-3402
▁일어나	-3403
▁performance	-3404
증을	-3405
▁늦게	-3406
▁해당	-3407
ants	-3408
body	-3409
▁dev	-3410
▁begin	-3411
ountain	-3412
▁rather	-3413
▁samples	-3414
▁interesting	-3415
어도	-3416
▁불편	-3417
Then	-3418
ctor	-3419
▁다음에	-3420
▁needed	-3421
▁respect	-3422
▁멋진	-3423
▁age	-3424
▁goal	-3425
▁paid	-3426
▁않았어요	-3427
▁Which	-3428
▁Intern	-3429
▁긍	-3430
또한	-3431
▁빠른	-3432
ones	-3433
▁방법을	-3434
▁영향을	-3435
asure	-3436
▁offic	-3437
▁좋겠습니다	-3438
ale	-3439
▁업체	-3440
▁작성	-3441
▁죄송	-3442
▁cut	-3443
▁glo	-3444
▁들어가	-3445
ggest	-3446
▁중입니다	-3447
▁photos	-3448
▁regarding	-3449
▁$	-3450
▁똑	-3451
▁갖고	-3452
▁기업	-3453
▁fix	-3454
▁black	-3455
▁expens	-3456
▁street	-3457
▁complete	-3458
▁exchange	-3459
▁completed	-3460
▁고민	-3461
iding	-3462
ption	-3463
▁paper	-3464
ny	-3465
▁강아	-3466
▁많아	-3467
▁소중	-3468
▁알게	-3469
ball	-3470
▁모습을	-3471
▁아침에	-3472
▁않으면	-3473
conom	-3474
▁Christ	-3475
▁located	-3476
▁suggest	-3477
▁expected	-3478
▁써	-3479
▁기존	-3480
▁수영	-3481
▁실제	-3482
▁여성	-3483
pped	-3484
▁trust	-3485
▁붙	-3486
▁위험	-3487
vious	-3488
개의	-3489
aka	-3490
▁pe	-3491
▁내용을	-3492
▁parts	-3493
▁공유	-3494
▁예상	-3495
▁전통	-3496
▁집중	-3497
▁마지막으로	-3498
▁dollars	-3499
▁contents	-3500
▁범	-3501
▁나가	-3502
▁생겼	-3503
▁grand	-3504
▁reading	-3505
▁exercise	-3506
▁interview	-3507
▁additional	-3508
서는	-3509
▁몰라	-3510
▁환불	-3511
▁club	-3512
▁healthy	-3513
개월	-3514
라인	-3515
omp	-3516
▁연습	-3517
▁red	-3518
▁없어서	-3519
▁자동차	-3520
▁agree	-3521
▁control	-3522
▁employe	-3523
▁0	-3524
▁드라	-3525
▁일은	-3526
▁지급	-3527
겠지만	-3528
▁def	-3529
▁사용하는	-3530
▁exact	-3531
▁press	-3532
▁봉	-3533
bal	-3534
▁견적	-3535
▁나타	-3536
▁Busan	-3537
▁shows	-3538
▁chicken	-3539
▁continu	-3540
▁농	-3541
테이	-3542
▁13	-3543
▁관한	-3544
▁우린	-3545
most	-3546
▁스케줄	-3547
▁제품이	-3548
▁companies	-3549
▁기본	-3550
▁메뉴	-3551
▁fac	-3552
▁quite	-3553
▁camera	-3554
도가	-3555
▁졸업	-3556
▁이루어	-3557
▁self	-3558
ob	-3559
치가	-3560
▁그만	-3561
▁받았	-3562
▁주소	-3563
었는데	-3564
할게요	-3565
▁leg	-3566
▁Park	-3567
▁function	-3568
▁굉	-3569
old	-3570
▁경기	-3571
▁느껴	-3572
▁추억	-3573
▁해도	-3574
book	-3575
▁exh	-3576
▁왔어요	-3577
▁줍니다	-3578
itten	-3579
거든	-3580
하러	-3581
▁da	-3582
▁경제	-3583
▁굉장	-3584
▁입고	-3585
▁dam	-3586
▁카메라	-3587
fully	-3588
▁많습니다	-3589
▁goods	-3590
ex	-3591
스크	-3592
트에	-3593
▁di	-3594
▁말이	-3595
▁hon	-3596
▁제품의	-3597
▁society	-3598
▁traditional	-3599
식이	-3600
▁날짜	-3601
▁변화	-3602
▁glad	-3603
▁고등학교	-3604
▁level	-3605
▁repres	-3606
▁밀	-3607
▁청소	-3608
iven	-3609
▁imm	-3610
▁deep	-3611
▁kids	-3612
▁prin	-3613
▁original	-3614
▁Q	-3615
로는	-3616
지지	-3617
▁전체	-3618
▁foc	-3619
▁그에게	-3620
▁연락을	-3621
▁happened	-3622
▁뛰	-3623
주의	-3624
▁기준	-3625
▁진짜	-3626
ances	-3627
▁sick	-3628
▁kinds	-3629
▁극	-3630
구를	-3631
물이	-3632
▁만큼	-3633
▁질문	-3634
▁자신이	-3635
▁그리	-3636
▁직원	-3637
resh	-3638
▁여기에	-3639
▁film	-3640
▁value	-3641
chi	-3642
mit	-3643
▁ev	-3644
▁비가	-3645
▁생일	-3646
했는데	-3647
▁Who	-3648
▁원해요	-3649
▁connect	-3650
▁University	-3651
보이	-3652
없이	-3653
▁40	-3654
▁De	-3655
▁가진	-3656
하나요	-3657
하다면	-3658
ists	-3659
▁바라요	-3660
▁있었어	-3661
▁worry	-3662
▁invest	-3663
▁미팅	-3664
▁순간	-3665
▁해외	-3666
한다고	-3667
▁이번에	-3668
▁hurt	-3669
▁econom	-3670
▁deliver	-3671
na	-3672
▁앉	-3673
분에	-3674
▁25	-3675
▁어때	-3676
▁참고	-3677
왔습니다	-3678
asing	-3679
▁덕	-3680
▁식당	-3681
▁일반	-3682
▁잠을	-3683
road	-3684
▁이것이	-3685
▁오랜만에	-3686
▁table	-3687
▁married	-3688
비를	-3689
▁마치	-3690
▁사이트	-3691
▁elect	-3692
▁history	-3693
ams	-3694
ane	-3695
oud	-3696
원에서	-3697
▁사람의	-3698
ivered	-3699
▁games	-3700
▁16	-3701
이었어요	-3702
yeong	-3703
▁anal	-3704
▁idea	-3705
하니	-3706
ump	-3707
졌어요	-3708
▁bab	-3709
▁갑자기	-3710
▁사무실	-3711
▁flow	-3712
▁equip	-3713
▁solve	-3714
▁disapp	-3715
▁sports	-3716
스터	-3717
▁미리	-3718
▁바다	-3719
▁상대	-3720
▁좋지	-3721
▁지하	-3722
▁마음에	-3723
▁만드는	-3724
▁Will	-3725
▁gift	-3726
arning	-3727
▁machine	-3728
No	-3729
▁그게	-3730
렸어요	-3731
▁eng	-3732
▁law	-3733
ories	-3734
▁four	-3735
▁weeks	-3736
▁opportun	-3737
▁눈이	-3738
▁한다고	-3739
where	-3740
▁delivered	-3741
도에	-3742
ross	-3743
▁시간에	-3744
▁특별한	-3745
▁wasn	-3746
▁occur	-3747
▁personal	-3748
ude	-3749
ffic	-3750
gest	-3751
▁else	-3752
▁site	-3753
▁research	-3754
어나	-3755
ged	-3756
▁ce	-3757
▁공연	-3758
▁참석	-3759
▁tot	-3760
▁held	-3761
▁estim	-3762
▁택	-3763
내가	-3764
인은	-3765
▁친절	-3766
합니까	-3767
▁그래도	-3768
▁대하여	-3769
▁rate	-3770
▁wife	-3771
▁perfect	-3772
▁presentation	-3773
ze	-3774
디오	-3775
▁역할	-3776
raph	-3777
▁upd	-3778
▁최선을	-3779
▁‘	-3780
▁비슷	-3781
▁오면	-3782
▁카드	-3783
ding	-3784
▁abs	-3785
▁ate	-3786
▁neg	-3787
▁데이터	-3788
▁행복한	-3789
▁simple	-3790
라면	-3791
하자	-3792
▁자료	-3793
하는데	-3794
▁운동을	-3795
▁weight	-3796
▁question	-3797
▁activities	-3798
주에	-3799
▁국가	-3800
▁기계	-3801
▁발견	-3802
▁역시	-3803
dden	-3804
over	-3805
▁갔어요	-3806
▁factory	-3807
▁including	-3808
▁고양	-3809
▁듣고	-3810
▁송금	-3811
▁bar	-3812
▁final	-3813
▁sudden	-3814
▁comfortable	-3815
At	-3816
님이	-3817
▁원래	-3818
▁전공	-3819
▁희망	-3820
▁pie	-3821
▁stock	-3822
▁depend	-3823
▁played	-3824
mp	-3825
▁폭	-3826
amp	-3827
▁es	-3828
▁이동	-3829
▁굉장히	-3830
astic	-3831
▁hate	-3832
▁poor	-3833
▁giving	-3834
▁앱	-3835
움을	-3836
인의	-3837
▁구성	-3838
▁나서	-3839
▁사과	-3840
▁있니	-3841
▁금요일	-3842
▁최고의	-3843
▁ener	-3844
ission	-3845
▁ability	-3846
▁악	-3847
시키	-3848
But	-3849
▁정리	-3850
▁즐거운	-3851
▁reasons	-3852
▁serious	-3853
▁equipment	-3854
▁익	-3855
하기를	-3856
▁Her	-3857
▁ple	-3858
▁하는데	-3859
▁webs	-3860
▁grade	-3861
▁탈	-3862
▁방학	-3863
보세요	-3864
▁ste	-3865
▁아이템	-3866
▁영화는	-3867
▁맥	-3868
달러	-3869
ats	-3870
▁차를	-3871
▁div	-3872
▁것처럼	-3873
▁아래와	-3874
▁영어로	-3875
▁일정을	-3876
▁최대한	-3877
cious	-3878
▁dest	-3879
▁rele	-3880
▁watched	-3881
▁끼	-3882
도로	-3883
르는	-3884
ton	-3885
▁14	-3886
▁누가	-3887
▁재밌	-3888
▁mis	-3889
▁pen	-3890
anger	-3891
▁드리겠습니다	-3892
▁festival	-3893
▁멀	-3894
alf	-3895
▁간단	-3896
▁과정	-3897
▁관해	-3898
▁옆에	-3899
▁흥미	-3900
▁sun	-3901
▁swim	-3902
▁creat	-3903
▁achieve	-3904
려서	-3905
▁24	-3906
▁의사	-3907
데이트	-3908
ying	-3909
▁Ind	-3910
ively	-3911
▁skills	-3912
▁evening	-3913
▁subject	-3914
▁tonight	-3915
▁application	-3916
ets	-3917
▁못한	-3918
하시면	-3919
▁almost	-3920
▁changes	-3921
mm	-3922
▁밝	-3923
▁sn	-3924
▁개의	-3925
▁보니	-3926
▁식사	-3927
▁오더	-3928
▁축제	-3929
스러운	-3930
akes	-3931
orth	-3932
▁된다면	-3933
▁dish	-3934
▁기다리고	-3935
▁cause	-3936
▁checking	-3937
▁discount	-3938
20	-3939
▁버스	-3940
▁술을	-3941
▁업데이트	-3942
▁guest	-3943
▁memories	-3944
▁happiness	-3945
▁욕	-3946
por	-3947
▁내게	-3948
▁분석	-3949
▁출발	-3950
▁확실	-3951
ique	-3952
▁dem	-3953
▁샘플을	-3954
▁road	-3955
▁America	-3956
▁content	-3957
▁visited	-3958
▁written	-3959
생활	-3960
won	-3961
▁회신	-3962
▁Air	-3963
▁details	-3964
관에	-3965
rap	-3966
▁바람	-3967
▁분야	-3968
ivid	-3969
▁tre	-3970
▁인보이	-3971
▁중에서	-3972
▁inqu	-3973
▁중이에요	-3974
idence	-3975
selves	-3976
▁known	-3977
▁directly	-3978
▁터	-3979
만의	-3980
워서	-3981
▁조건	-3982
▁hig	-3983
▁회사에	-3984
▁passed	-3985
▁wearing	-3986
▁움	-3987
그래	-3988
어로	-3989
어버	-3990
점은	-3991
케팅	-3992
nes	-3993
ral	-3994
▁시에	-3995
▁파일	-3996
fact	-3997
▁cool	-3998
▁사랑하는	-3999
▁looked	-4000
▁stress	-4001
▁mention	-4002
▁protect	-4003
감이	-4004
동생	-4005
uly	-4006
▁사건	-4007
▁어울	-4008
ches	-4009
▁typ	-4010
웠습니다	-4011
▁clos	-4012
▁갔습니다	-4013
▁fresh	-4014
▁taken	-4015
▁advert	-4016
▁increase	-4017
sh	-4018
une	-4019
▁위치	-4020
▁재고	-4021
▁Euro	-4022
▁addition	-4023
대에	-4024
되면	-4025
▁주로	-4026
듭니다	-4027
▁lab	-4028
▁경험을	-4029
▁그러면	-4030
▁일하고	-4031
▁white	-4032
▁anyone	-4033
▁prevent	-4034
▁previous	-4035
▁샀	-4036
▁17	-4037
▁ru	-4038
▁드릴	-4039
▁rev	-4040
▁크리스	-4041
▁advance	-4042
경을	-4043
면을	-4044
학년	-4045
▁아프	-4046
▁하는지	-4047
▁scre	-4048
▁colors	-4049
▁learning	-4050
▁traveling	-4051
10	-4052
ax	-4053
uk	-4054
▁컬	-4055
셔야	-4056
줘서	-4057
▁고려	-4058
▁엄청	-4059
▁정상	-4060
하고자	-4061
▁때부터	-4062
econd	-4063
▁월요일에	-4064
▁smile	-4065
▁attach	-4066
▁어떠	-4067
▁올라	-4068
▁저를	-4069
으세요	-4070
▁Wed	-4071
▁하지만	-4072
ufact	-4073
▁sens	-4074
▁회사에서	-4075
▁helps	-4076
▁regist	-4077
▁participate	-4078
▁뭔	-4079
▁철	-4080
포츠	-4081
▁결국	-4082
더라도	-4083
▁위해서는	-4084
▁gradu	-4085
▁refer	-4086
▁marketing	-4087
▁Al	-4088
▁선수	-4089
▁일에	-4090
▁했어	-4091
▁lim	-4092
▁기회가	-4093
▁menu	-4094
▁ones	-4095
▁large	-4096
것도	-4097
▁안내	-4098
▁정신	-4099
▁mot	-4100
▁날씨가	-4101
▁언제나	-4102
ables	-4103
▁stru	-4104
▁메시지를	-4105
▁match	-4106
▁style	-4107
▁indust	-4108
▁impress	-4109
▁website	-4110
▁practice	-4111
었고	-4112
▁곳이	-4113
▁맞는	-4114
▁영국	-4115
▁게임을	-4116
!"	-4117
..	-4118
▁짐	-4119
▁교환	-4120
▁소비	-4121
▁작품	-4122
▁포기	-4123
pose	-4124
▁Now	-4125
▁ang	-4126
▁key	-4127
▁pot	-4128
▁입니다	-4129
▁주시기	-4130
gress	-4131
▁vers	-4132
ruction	-4133
▁select	-4134
▁install	-4135
By	-4136
드시	-4137
잖아	-4138
지의	-4139
▁인형	-4140
심으로	-4141
▁여자가	-4142
▁camp	-4143
▁forg	-4144
▁hang	-4145
▁repl	-4146
▁older	-4147
▁sense	-4148
▁client	-4149
▁regret	-4150
▁mountain	-4151
▁whenever	-4152
fra	-4153
▁건물	-4154
▁부담	-4155
▁움직	-4156
▁힘든	-4157
adem	-4158
ives	-4159
just	-4160
▁통해서	-4161
nesday	-4162
▁shoes	-4163
▁online	-4164
▁manufact	-4165
다니	-4166
라서	-4167
▁삶을	-4168
▁영상	-4169
▁불가능	-4170
▁어디에	-4171
▁생각하는	-4172
▁remain	-4173
▁Wednesday	-4174
▁represent	-4175
▁홈	-4176
르고	-4177
▁보러	-4178
▁분위	-4179
▁크게	-4180
잖아요	-4181
▁Han	-4182
▁교수님	-4183
▁그녀를	-4184
▁있어야	-4185
▁그녀에게	-4186
▁abroad	-4187
▁prefer	-4188
▁listening	-4189
▁management	-4190
▁났	-4191
▁고맙	-4192
▁내부	-4193
▁지켜	-4194
▁근처에	-4195
▁어디서	-4196
▁스마트폰	-4197
▁센	-4198
기의	-4199
▁동일	-4200
▁절대	-4201
으로써	-4202
lebr	-4203
▁그곳에	-4204
▁반드시	-4205
▁bott	-4206
▁사람들에게	-4207
▁가요	-4208
▁국제	-4209
▁돈이	-4210
▁완벽	-4211
셨어요	-4212
come	-4213
▁Che	-4214
▁bra	-4215
▁마케팅	-4216
▁Germ	-4217
Although	-4218
▁animals	-4219
▁standard	-4220
▁currently	-4221
▁끊	-4222
며칠	-4223
당신이	-4224
▁남자는	-4225
▁너한테	-4226
▁때까지	-4227
▁보내고	-4228
▁집으로	-4229
▁ways	-4230
▁depos	-4231
ilities	-4232
▁energy	-4233
기와	-4234
▁길을	-4235
▁싶지	-4236
▁카페	-4237
▁표시	-4238
▁음악을	-4239
▁있으며	-4240
▁land	-4241
▁concer	-4242
▁record	-4243
▁developed	-4244
▁technology	-4245
▁빈	-4246
워크	-4247
ery	-4248
man	-4249
▁활용	-4250
▁아직도	-4251
▁자신을	-4252
▁즐겁게	-4253
▁사람들을	-4254
urther	-4255
▁mistake	-4256
▁conversation	-4257
je	-4258
들에	-4259
으러	-4260
▁받는	-4261
▁성장	-4262
fraid	-4263
▁baby	-4264
▁born	-4265
▁afraid	-4266
▁들을	-4267
▁무료	-4268
▁언니	-4269
▁집을	-4270
▁최근	-4271
했지만	-4272
From	-4273
▁sem	-4274
▁많아요	-4275
▁지하철	-4276
▁Many	-4277
ulation	-4278
▁subway	-4279
▁accident	-4280
▁줬	-4281
촬영	-4282
mas	-4283
▁별로	-4284
▁제외	-4285
▁Jan	-4286
▁arm	-4287
▁ren	-4288
▁브랜드	-4289
▁오늘도	-4290
▁요청한	-4291
ither	-4292
ously	-4293
▁ball	-4294
▁fire	-4295
▁suit	-4296
▁못했어요	-4297
▁veget	-4298
▁보내주세요	-4299
▁consum	-4300
▁specific	-4301
▁빛	-4302
▁퇴	-4303
트가	-4304
▁느낄	-4305
▁밤에	-4306
▁방식	-4307
▁비교	-4308
▁아니야	-4309
▁stat	-4310
▁아무것도	-4311
▁학교에서	-4312
▁least	-4313
▁celebr	-4314
▁memory	-4315
▁seeing	-4316
▁natural	-4317
로운	-4318
사와	-4319
션을	-4320
수록	-4321
주고	-4322
uff	-4323
▁Am	-4324
▁입금	-4325
사에서	-4326
clock	-4327
igure	-4328
▁phys	-4329
▁extra	-4330
▁doctor	-4331
▁temper	-4332
▁녹	-4333
ext	-4334
upp	-4335
▁거짓	-4336
▁동생	-4337
▁먹어	-4338
▁찾고	-4339
▁Feb	-4340
▁dom	-4341
▁가격이	-4342
▁가까운	-4343
▁없다고	-4344
▁이름은	-4345
▁이름을	-4346
▁Hong	-4347
▁meat	-4348
▁focus	-4349
▁sweet	-4350
▁못했습니다	-4351
▁points	-4352
▁careful	-4353
▁틀	-4354
위를	-4355
져서	-4356
지와	-4357
▁No	-4358
▁개선	-4359
▁계산	-4360
▁그걸	-4361
▁도전	-4362
▁떠나	-4363
▁며칠	-4364
▁수행	-4365
▁전혀	-4366
겠다고	-4367
으로는	-4368
▁His	-4369
▁err	-4370
▁않았어	-4371
Thank	-4372
▁save	-4373
▁weak	-4374
▁likes	-4375
▁access	-4376
▁cancel	-4377
▁except	-4378
▁internet	-4379
라이	-4380
보는	-4381
▁ur	-4382
▁근무	-4383
▁오른	-4384
▁토요일	-4385
▁says	-4386
▁지금까지	-4387
▁volun	-4388
▁Europe	-4389
NS	-4390
aw	-4391
▁밖	-4392
pos	-4393
▁것과	-4394
▁내려	-4395
▁느꼈	-4396
▁단지	-4397
▁일부	-4398
▁형태	-4399
▁Man	-4400
▁가르쳐	-4401
▁드라마	-4402
▁스스로	-4403
▁서비스를	-4404
▁maint	-4405
▁manager	-4406
▁studied	-4407
▁빼	-4408
량을	-4409
이에	-4410
학생	-4411
▁축하	-4412
▁war	-4413
▁친구들이	-4414
▁asking	-4415
▁trouble	-4416
ama	-4417
▁Sp	-4418
▁lu	-4419
▁물론	-4420
▁촬영	-4421
▁cir	-4422
▁via	-4423
▁사진은	-4424
으로부터	-4425
▁South	-4426
▁daily	-4427
▁death	-4428
▁gover	-4429
개를	-4430
께서	-4431
렸을	-4432
명이	-4433
ked	-4434
tle	-4435
▁모양	-4436
▁못할	-4437
▁벌써	-4438
적이고	-4439
▁전화를	-4440
▁보냅니다	-4441
▁apolog	-4442
▁becomes	-4443
▁individ	-4444
▁thoughts	-4445
▁Christmas	-4446
lu	-4447
거야	-4448
로서	-4449
롭게	-4450
학을	-4451
▁경찰	-4452
▁컬러	-4453
▁ing	-4454
▁노래를	-4455
▁음식은	-4456
▁earn	-4457
urious	-4458
▁예정이에요	-4459
▁global	-4460
▁longer	-4461
▁results	-4462
▁confirmed	-4463
▁팬	-4464
즈니	-4465
▁나머	-4466
▁나무	-4467
▁회의	-4468
▁휴대	-4469
▁사랑을	-4470
▁서류를	-4471
▁작업을	-4472
▁passion	-4473
▁mentioned	-4474
▁opportunity	-4475
만약	-4476
해줄	-4477
▁et	-4478
▁보호	-4479
▁주인	-4480
▁지속	-4481
▁하게	-4482
▁cop	-4483
▁cup	-4484
▁기다려	-4485
▁일요일	-4486
▁지내고	-4487
▁했는데	-4488
▁base	-4489
ursday	-4490
▁beach	-4491
▁cream	-4492
▁provided	-4493
▁쓸	-4494
대를	-4495
디어	-4496
aff	-4497
▁주실	-4498
▁Lee	-4499
▁mag	-4500
▁돌아가	-4501
▁비행기	-4502
▁않아서	-4503
▁사람에게	-4504
▁state	-4505
▁academ	-4506
oke	-4507
oss	-4508
▁Ex	-4509
▁각각	-4510
▁경쟁	-4511
▁곳에	-4512
▁출근	-4513
▁가격을	-4514
▁리스트	-4515
▁스포츠	-4516
itted	-4517
ruary	-4518
▁cred	-4519
▁five	-4520
▁role	-4521
▁normal	-4522
▁Thursday	-4523
▁starting	-4524
▁foreigners	-4525
to	-4526
▁육	-4527
관이	-4528
ili	-4529
set	-4530
▁날이	-4531
▁포장	-4532
자에게	-4533
fast	-4534
urch	-4535
▁Tell	-4536
▁task	-4537
Second	-4538
▁basic	-4539
▁adjust	-4540
▁couple	-4541
▁island	-4542
▁classes	-4543
▁delayed	-4544
▁숨	-4545
▁습	-4546
정한	-4547
new	-4548
▁헤어	-4549
하거나	-4550
▁fit	-4551
▁lose	-4552
▁medic	-4553
▁training	-4554
▁똑같	-4555
▁방송	-4556
스럽게	-4557
amed	-4558
reng	-4559
▁God	-4560
▁배우고	-4561
▁일하는	-4562
aving	-4563
▁ride	-4564
▁gives	-4565
▁guess	-4566
▁dishes	-4567
▁govern	-4568
▁February	-4569
ef	-4570
여행	-4571
▁23	-4572
▁말한	-4573
▁신발	-4574
▁혹시	-4575
They	-4576
uary	-4577
aking	-4578
▁given	-4579
▁recently	-4580
▁required	-4581
▁탄	-4582
iol	-4583
▁달라	-4584
▁들은	-4585
▁예술	-4586
ello	-4587
▁Pro	-4588
▁필요가	-4589
ional	-4590
▁대부분의	-4591
▁streng	-4592
▁require	-4593
▁z	-4594
▁싱	-4595
것은	-4596
만큼	-4597
트는	-4598
ron	-4599
▁약간	-4600
sing	-4601
▁dro	-4602
▁어머니	-4603
▁door	-4604
▁그곳에서	-4605
▁크리스마	-4606
▁nature	-4607
▁toward	-4608
▁version	-4609
▁넓	-4610
드리	-4611
스타	-4612
았다	-4613
카오	-4614
hor	-4615
▁Or	-4616
▁나누	-4617
▁입학	-4618
cast	-4619
pril	-4620
▁말하는	-4621
▁보내준	-4622
▁생각에	-4623
Hello	-4624
▁glass	-4625
▁들었습니다	-4626
▁ingred	-4627
BC	-4628
▁웹	-4629
▁캠	-4630
문을	-4631
스토	-4632
아야	-4633
일까지	-4634
▁One	-4635
▁step	-4636
▁progress	-4637
관을	-4638
구나	-4639
듯이	-4640
시피	-4641
해를	-4642
▁이게	-4643
▁인상	-4644
▁티켓	-4645
▁ice	-4646
▁방법이	-4647
▁저녁에	-4648
▁회사의	-4649
녕하세요	-4650
▁half	-4651
cially	-4652
▁against	-4653
▁엔	-4654
▁텐	-4655
서에	-4656
하실	-4657
▁21	-4658
▁그날	-4659
▁따로	-4660
▁바쁘	-4661
▁입력	-4662
▁프랑	-4663
▁Dae	-4664
▁fru	-4665
▁정확한	-4666
adays	-4667
▁Jeju	-4668
▁lack	-4669
▁여자친구	-4670
▁super	-4671
▁total	-4672
ability	-4673
▁single	-4674
▁supply	-4675
▁cooking	-4676
▁communication	-4677
bo	-4678
계를	-4679
시길	-4680
시를	-4681
imb	-4682
▁넣어	-4683
▁바꾸	-4684
▁싶다	-4685
▁완성	-4686
▁이걸	-4687
▁증가	-4688
거든요	-4689
lier	-4690
▁이곳은	-4691
▁cake	-4692
▁page	-4693
action	-4694
ground	-4695
▁March	-4696
▁danger	-4697
▁police	-4698
▁feelings	-4699
▁position	-4700
▁transport	-4701
그러	-4702
오는	-4703
irt	-4704
▁깨끗	-4705
▁밖에	-4706
▁아는	-4707
▁장비	-4708
▁편안	-4709
▁후회	-4710
겠네요	-4711
▁blo	-4712
▁충분히	-4713
▁boss	-4714
▁soft	-4715
▁남자친구	-4716
▁보입니다	-4717
▁liked	-4718
▁media	-4719
▁upload	-4720
▁January	-4721
▁appoint	-4722
▁breakfast	-4723
▁temperature	-4724
임을	-4725
ots	-4726
ume	-4727
▁PO	-4728
▁hu	-4729
▁pm	-4730
▁국내	-4731
▁수입	-4732
▁유럽	-4733
▁만들고	-4734
▁하면서	-4735
있습니다	-4736
bably	-4737
izing	-4738
▁priv	-4739
▁April	-4740
▁surpr	-4741
▁younger	-4742
▁individual	-4743
도는	-4744
uce	-4745
▁보기	-4746
▁잊지	-4747
랫동안	-4748
십니까	-4749
onse	-4750
▁차이가	-4751
itary	-4752
▁North	-4753
▁lived	-4754
▁offer	-4755
▁plans	-4756
▁stick	-4757
pection	-4758
▁figure	-4759
▁thanks	-4760
▁만난	-4761
▁목적	-4762
▁제주	-4763
▁해줄	-4764
erve	-4765
ured	-4766
▁관련된	-4767
▁부분이	-4768
▁지금은	-4769
▁회사는	-4770
▁Some	-4771
▁join	-4772
▁mass	-4773
▁behav	-4774
▁biggest	-4775
▁finally	-4776
▁expensive	-4777
었을	-4778
이드	-4779
▁기차	-4780
▁놀러	-4781
▁보관	-4782
▁점이	-4783
▁최종	-4784
▁third	-4785
▁사람이에요	-4786
ference	-4787
▁certific	-4788
▁professor	-4789
▁international	-4790
rd	-4791
하려	-4792
▁나랑	-4793
하다는	-4794
▁하세요	-4795
illion	-4796
▁spent	-4797
▁personality	-4798
심을	-4799
▁말할	-4800
▁신경	-4801
▁청구	-4802
▁덕분에	-4803
▁만약에	-4804
▁상품을	-4805
▁합니까	-4806
ailed	-4807
istic	-4808
▁beer	-4809
▁cute	-4810
▁오랫동안	-4811
▁carry	-4812
▁engine	-4813
ccer	-4814
▁dad	-4815
▁나오는	-4816
▁때마다	-4817
▁이유가	-4818
▁제품에	-4819
▁viol	-4820
▁아니에요	-4821
me	-4822
▁샤	-4823
자와	-4824
ogn	-4825
▁교통	-4826
▁분명	-4827
▁오전	-4828
▁자체	-4829
옵니다	-4830
왔어요	-4831
imin	-4832
▁결과를	-4833
▁않아도	-4834
▁제대로	-4835
▁주말에	-4836
▁친구는	-4837
▁Kaka	-4838
▁bene	-4839
▁들었어요	-4840
uesday	-4841
▁broad	-4842
▁loved	-4843
▁common	-4844
▁decide	-4845
▁drinking	-4846
▁supposed	-4847
명을	-4848
우리	-4849
전거	-4850
회에	-4851
ney	-4852
▁Re	-4853
▁과거	-4854
▁방금	-4855
▁이를	-4856
▁이탈	-4857
▁품질	-4858
▁lic	-4859
▁그대로	-4860
▁그동안	-4861
▁Ital	-4862
▁gain	-4863
▁deposit	-4864
▁lecture	-4865
▁national	-4866
▁precious	-4867
▁understanding	-4868
▁responsibility	-4869
▁갔다	-4870
▁기념	-4871
▁도서	-4872
▁밥을	-4873
▁의해	-4874
▁자격	-4875
▁조심	-4876
보다는	-4877
시나요	-4878
웠어요	-4879
like	-4880
▁귀사의	-4881
▁생각하고	-4882
▁soccer	-4883
▁unique	-4884
▁Tuesday	-4885
▁experiences	-4886
▁짜	-4887
bok	-4888
▁운송	-4889
에서의	-4890
했으면	-4891
▁oil	-4892
▁계획을	-4893
▁보세요	-4894
▁어렸을	-4895
ledge	-4896
light	-4897
▁fell	-4898
▁frequ	-4899
▁lower	-4900
▁choice	-4901
▁talked	-4902
▁shipped	-4903
▁Internet	-4904
지요	-4905
▁왔어	-4906
었지만	-4907
iter	-4908
▁cra	-4909
▁tea	-4910
▁문제는	-4911
▁여전히	-4912
▁block	-4913
▁shape	-4914
▁honest	-4915
▁issues	-4916
▁promise	-4917
▁volunte	-4918
▁퍼	-4919
업을	-4920
장의	-4921
▁소통	-4922
▁솔직	-4923
▁찾을	-4924
이지만	-4925
한다는	-4926
icle	-4927
ocol	-4928
▁par	-4929
▁달라고	-4930
▁보이는	-4931
▁페이스	-4932
ooper	-4933
▁angry	-4934
▁exhib	-4935
▁Island	-4936
▁certain	-4937
▁액	-4938
원은	-4939
▁바뀌	-4940
▁하여	-4941
ober	-4942
▁bur	-4943
▁net	-4944
▁관심을	-4945
▁있을까	-4946
▁luck	-4947
▁spicy	-4948
▁없었습니다	-4949
▁attention	-4950
Un	-4951
▁독일	-4952
▁상처	-4953
▁실수	-4954
▁전시	-4955
oung	-4956
▁ill	-4957
▁답변을	-4958
▁milk	-4959
▁influ	-4960
▁궁금합니다	-4961
▁부탁합니다	-4962
▁medical	-4963
▁running	-4964
▁actually	-4965
wan	-4966
▁On	-4967
▁앞에	-4968
▁즐길	-4969
▁찍은	-4970
이라도	-4971
▁경험이	-4972
▁기회를	-4973
▁아래의	-4974
▁Gang	-4975
▁decision	-4976
cer	-4977
edi	-4978
▁Su	-4979
▁그와	-4980
▁된다	-4981
▁바꿔	-4982
▁제시	-4983
▁취미	-4984
었으면	-4985
▁Min	-4986
▁hit	-4987
▁사람들	-4988
▁시간은	-4989
itude	-4990
▁해주세요	-4991
▁dress	-4992
▁모르겠어요	-4993
▁죄송합니다	-4994
ctually	-4995
▁credit	-4996
▁purpose	-4997
▁apologize	-4998
▁government	-4999
▁translation	-5000
▁쌓	-5001
els	-5002
▁머리	-5003
▁부드	-5004
▁쓰레	-5005
▁요금	-5006
▁통화	-5007
하기로	-5008
▁etc	-5009
▁mix	-5010
▁선물을	-5011
▁자료를	-5012
▁할머니	-5013
▁recogn	-5014
▁concent	-5015
▁regular	-5016
▁convenient	-5017
였어	-5018
이랑	-5019
주를	-5020
▁이벤	-5021
갑니다	-5022
▁누군가	-5023
▁상황을	-5024
▁온라인	-5025
▁이유로	-5026
▁dead	-5027
▁imag	-5028
▁port	-5029
ashion	-5030
▁moved	-5031
▁inspection	-5032
▁페	-5033
기고	-5034
▁내년	-5035
▁일단	-5036
▁SNS	-5037
▁wed	-5038
▁무엇이	-5039
▁활동을	-5040
▁aren	-5041
▁pray	-5042
▁fight	-5043
▁preparing	-5044
oh	-5045
▁옮	-5046
만을	-5047
▁구조	-5048
▁마을	-5049
▁맞춰	-5050
▁방향	-5051
▁점점	-5052
▁거짓말	-5053
▁알려줄	-5054
▁선생님이	-5055
▁church	-5056
▁spring	-5057
▁homework	-5058
sc	-5059
스의	-5060
전을	-5061
지로	-5062
san	-5063
▁Ar	-5064
▁남아	-5065
▁에너	-5066
▁하러	-5067
fety	-5068
▁sci	-5069
▁자전거	-5070
ential	-5071
▁chall	-5072
▁foods	-5073
▁scene	-5074
▁bright	-5075
다음	-5076
▁감동	-5077
▁너랑	-5078
▁물을	-5079
▁비밀	-5080
▁주제	-5081
▁ess	-5082
▁방법은	-5083
▁사진이	-5084
▁있으니	-5085
▁cover	-5086
▁competition	-5087
30	-5088
▁겪	-5089
▁망	-5090
▁봄	-5091
▁기뻐	-5092
▁남은	-5093
▁뉴욕	-5094
▁사라	-5095
▁자고	-5096
▁잠시	-5097
대학교	-5098
▁봤어요	-5099
▁주문을	-5100
riage	-5101
▁submit	-5102
▁included	-5103
zy	-5104
▁꽤	-5105
▁가득	-5106
▁검사	-5107
▁뛰어	-5108
▁상관	-5109
▁제게	-5110
▁지키	-5111
▁chat	-5112
▁added	-5113
▁staff	-5114
▁요청합니다	-5115
▁surger	-5116
▁American	-5117
▁compared	-5118
▁continue	-5119
Be	-5120
ah	-5121
부를	-5122
Now	-5123
ony	-5124
▁더는	-5125
▁설정	-5126
▁이전	-5127
dong	-5128
▁따뜻한	-5129
▁만나서	-5130
▁못해서	-5131
▁빠르게	-5132
▁일주일	-5133
났습니다	-5134
useum	-5135
▁Cont	-5136
▁visa	-5137
▁가족들과	-5138
▁보내주신	-5139
▁사람들의	-5140
▁assign	-5141
▁wedding	-5142
50	-5143
▁년	-5144
하셨	-5145
▁시도	-5146
▁없다	-5147
▁화가	-5148
▁한국인	-5149
▁York	-5150
▁soup	-5151
▁페이스북	-5152
▁한국으로	-5153
▁drive	-5154
▁local	-5155
▁conduct	-5156
▁섬	-5157
심이	-5158
▁담배	-5159
▁뒤에	-5160
▁불량	-5161
▁성적	-5162
▁쓰는	-5163
▁파트	-5164
▁하며	-5165
까지는	-5166
▁가족과	-5167
▁병원에	-5168
▁어떠한	-5169
▁하려고	-5170
▁member	-5171
▁package	-5172
▁swimming	-5173
▁communicate	-5174
Of	-5175
▁빵	-5176
▁나쁜	-5177
▁무서	-5178
▁오지	-5179
▁오직	-5180
그리고	-5181
점에서	-5182
▁hob	-5183
▁나머지	-5184
▁어때요	-5185
▁오후에	-5186
▁주문한	-5187
▁mine	-5188
▁긍정적인	-5189
▁stuff	-5190
▁voice	-5191
▁cooper	-5192
▁screen	-5193
▁collect	-5194
▁뿌	-5195
▁좌	-5196
번째	-5197
▁가기	-5198
▁장난	-5199
▁판단	-5200
omen	-5201
▁atm	-5202
▁bal	-5203
▁dra	-5204
▁많아서	-5205
▁사람과	-5206
house	-5207
▁2015	-5208
▁blue	-5209
▁프로그램을	-5210
▁advant	-5211
▁search	-5212
▁detailed	-5213
▁operation	-5214
할게	-5215
hol	-5216
▁Go	-5217
▁달에	-5218
▁와이	-5219
▁Oct	-5220
▁오른쪽	-5221
▁주시면	-5222
▁카카오	-5223
▁libr	-5224
▁받았어요	-5225
▁이메일을	-5226
▁이탈리아	-5227
▁catch	-5228
▁guide	-5229
▁생각했어요	-5230
▁helped	-5231
▁higher	-5232
▁license	-5233
▁감사하겠습니다	-5234
▁changing	-5235
▁maintain	-5236
▁military	-5237
▁official	-5238
▁beginning	-5239
▁즉	-5240
권을	-5241
▁교체	-5242
▁예전	-5243
▁있던	-5244
으면서	-5245
back	-5246
▁eye	-5247
▁gra	-5248
▁아마도	-5249
▁우리를	-5250
▁파일을	-5251
▁autom	-5252
▁costs	-5253
▁feels	-5254
▁sauce	-5255
▁flowers	-5256
▁medicine	-5257
▁뭘	-5258
▁벗	-5259
▁챙	-5260
뿐만	-5261
산을	-5262
으나	-5263
▁Ye	-5264
▁계좌	-5265
▁동의	-5266
▁때가	-5267
▁오빠	-5268
▁인정	-5269
▁자재	-5270
▁전쟁	-5271
▁조용	-5272
▁테니	-5273
▁할인	-5274
십니다	-5275
▁곳에서	-5276
▁소중한	-5277
▁아이디	-5278
▁harm	-5279
▁buyer	-5280
▁moist	-5281
▁무엇인가요	-5282
▁atmosp	-5283
▁author	-5284
▁fashion	-5285
▁staying	-5286
▁surgery	-5287
▁semester	-5288
ps	-5289
▁흔	-5290
그는	-5291
erg	-5292
oid	-5293
▁Pl	-5294
▁그거	-5295
▁아르	-5296
aper	-5297
▁arr	-5298
▁ten	-5299
▁싶은데	-5300
▁Viet	-5301
▁expl	-5302
▁suff	-5303
▁스트레스를	-5304
mission	-5305
▁driving	-5306
▁strength	-5307
▁암	-5308
나게	-5309
터를	-5310
학과	-5311
avy	-5312
▁쓰고	-5313
▁적응	-5314
▁전해	-5315
▁축구	-5316
iety	-5317
▁mob	-5318
▁내용은	-5319
▁아름답	-5320
▁주인공	-5321
▁확인하고	-5322
▁earth	-5323
▁finan	-5324
▁Thanks	-5325
▁behind	-5326
▁response	-5327
▁smartphone	-5328
▁transportation	-5329
▁꺼	-5330
명의	-5331
소에	-5332
ada	-5333
▁ri	-5334
▁가을	-5335
▁기록	-5336
▁배울	-5337
▁영업	-5338
▁인도	-5339
▁편리	-5340
▁힘이	-5341
rely	-5342
ster	-5343
▁비용을	-5344
▁스타일	-5345
▁않도록	-5346
▁여기는	-5347
▁편지를	-5348
▁하나의	-5349
▁rent	-5350
▁adult	-5351
▁types	-5352
▁either	-5353
Actually	-5354
▁Vietnam	-5355
▁attract	-5356
▁probably	-5357
▁advertise	-5358
▁satisfied	-5359
▁construction	-5360
Ex	-5361
실을	-5362
이크	-5363
bit	-5364
met	-5365
▁ID	-5366
▁기도	-5367
▁불러	-5368
▁수술	-5369
▁하늘	-5370
이트를	-5371
Last	-5372
cent	-5373
▁고객이	-5374
▁부분을	-5375
▁의견을	-5376
▁행복하게	-5377
▁가능한가요	-5378
▁window	-5379
pecially	-5380
▁X	-5381
▁압	-5382
민국	-5383
장님	-5384
ley	-5385
umb	-5386
unk	-5387
▁27	-5388
▁Hy	-5389
▁나아	-5390
▁되기	-5391
▁언어	-5392
▁지연	-5393
▁남자가	-5394
▁huge	-5395
▁프로젝트	-5396
▁estimate	-5397
▁released	-5398
▁렌	-5399
▁왼	-5400
이면	-5401
책을	-5402
ilt	-5403
▁않게	-5404
▁우유	-5405
▁했던	-5406
▁약속을	-5407
▁nood	-5408
▁board	-5409
▁bread	-5410
▁safety	-5411
▁enjoyed	-5412
▁selling	-5413
▁realized	-5414
▁sleeping	-5415
▁solution	-5416
▁atmosphere	-5417
느라	-5418
번에	-5419
트남	-5420
▁갔어	-5421
▁나이	-5422
▁대단	-5423
▁대체	-5424
▁바이	-5425
▁에이	-5426
▁할지	-5427
상으로	-5428
ures	-5429
▁gen	-5430
▁완전히	-5431
epend	-5432
▁Face	-5433
▁error	-5434
▁agency	-5435
▁moving	-5436
▁October	-5437
▁becoming	-5438
▁representative	-5439
MS	-5440
▁훌	-5441
인가	-5442
▁이어	-5443
▁cry	-5444
▁jud	-5445
▁모르는	-5446
▁못해요	-5447
▁번째로	-5448
▁code	-5449
▁금요일에	-5450
▁green	-5451
▁handle	-5452
▁감사드립니다	-5453
▁employees	-5454
▁Z	-5455
▁듯	-5456
우는	-5457
bor	-5458
▁다르	-5459
▁대중	-5460
▁몰랐	-5461
▁반대	-5462
▁전부	-5463
▁제거	-5464
납니다	-5465
봅니다	-5466
aves	-5467
▁urg	-5468
▁베트남	-5469
▁얘기를	-5470
▁추가로	-5471
alled	-5472
ences	-5473
▁앞으로도	-5474
illage	-5475
▁fault	-5476
▁score	-5477
▁active	-5478
▁forever	-5479
▁measure	-5480
▁knowledge	-5481
▁뜨	-5482
료가	-5483
점에	-5484
줘요	-5485
▁"1	-5486
▁곳은	-5487
▁글을	-5488
▁소녀	-5489
▁없고	-5490
▁이슈	-5491
▁주지	-5492
▁하니	-5493
▁역할을	-5494
▁연락이	-5495
▁정도로	-5496
▁주셔서	-5497
cohol	-5498
▁Should	-5499
▁concert	-5500
▁library	-5501
▁Facebook	-5502
▁cultural	-5503
▁register	-5504
▁certificate	-5505
▁걷	-5506
▁냉	-5507
▁짧	-5508
▁흐	-5509
사항	-5510
상의	-5511
연히	-5512
▁가정	-5513
▁꾸준	-5514
▁명의	-5515
▁여유	-5516
▁인사	-5517
▁차가	-5518
▁태어	-5519
되어야	-5520
스토랑	-5521
▁sky	-5522
▁있었다	-5523
▁준비를	-5524
alent	-5525
▁그렇다면	-5526
▁대해서는	-5527
▁주십시오	-5528
▁users	-5529
▁vegetables	-5530
▁러	-5531
ept	-5532
▁들고	-5533
▁생기	-5534
▁수는	-5535
ship	-5536
▁Isn	-5537
▁hor	-5538
▁고마워	-5539
▁요리를	-5540
▁케이크	-5541
▁comb	-5542
▁town	-5543
▁사람들과	-5544
▁chose	-5545
▁wrote	-5546
▁action	-5547
▁beauty	-5548
▁broken	-5549
▁damage	-5550
▁depart	-5551
▁immedi	-5552
▁object	-5553
▁reduce	-5554
▁ingredients	-5555
그럼	-5556
izz	-5557
▁22	-5558
▁PC	-5559
▁심각	-5560
▁주면	-5561
▁주의	-5562
tain	-5563
▁Day	-5564
▁enc	-5565
▁그림을	-5566
▁대화를	-5567
▁미안해	-5568
▁음식이	-5569
ining	-5570
▁feed	-5571
▁gone	-5572
▁그러므로	-5573
▁모르겠어	-5574
▁좋아하지	-5575
▁customs	-5576
▁marriage	-5577
▁president	-5578
▁춤	-5579
가고	-5580
거리	-5581
고를	-5582
졌어	-5583
▁골프	-5584
▁예쁘	-5585
▁체험	-5586
▁500	-5587
▁만나는	-5588
▁모습이	-5589
▁비즈니	-5590
▁수업이	-5591
▁어려운	-5592
▁없나요	-5593
▁이곳에	-5594
▁저희가	-5595
▁그들에게	-5596
▁필리핀에	-5597
▁benef	-5598
▁shown	-5599
ossible	-5600
▁Germany	-5601
▁earlier	-5602
▁벽	-5603
▁폐	-5604
스와	-5605
▁Ad	-5606
▁두고	-5607
▁목소	-5608
▁손을	-5609
▁이사	-5610
▁주신	-5611
▁aud	-5612
▁non	-5613
▁sex	-5614
▁unf	-5615
▁만나고	-5616
▁자세한	-5617
▁미안해요	-5618
▁일주일에	-5619
▁mobile	-5620
▁curious	-5621
▁walking	-5622
▁purchased	-5623
hy	-5624
▁짓	-5625
년이	-5626
제가	-5627
▁다행	-5628
▁손님	-5629
▁신뢰	-5630
▁실험	-5631
▁자리	-5632
▁위하여	-5633
iment	-5634
onven	-5635
▁것이라고	-5636
▁되었어요	-5637
▁레스토랑	-5638
▁일요일에	-5639
▁진심으로	-5640
▁cases	-5641
▁grandm	-5642
▁entered	-5643
▁i	-5644
▁참가	-5645
▁최소	-5646
ters	-5647
▁이유를	-5648
▁인터뷰	-5649
시겠어요	-5650
▁kept	-5651
▁사용하지	-5652
▁fried	-5653
▁girls	-5654
▁ident	-5655
▁songs	-5656
▁spread	-5657
▁status	-5658
ccording	-5659
▁inconven	-5660
▁industry	-5661
▁suddenly	-5662
▁appointment	-5663
▁냄	-5664
수는	-5665
증이	-5666
▁다가	-5667
▁몸이	-5668
▁주차	-5669
▁치킨	-5670
됩니까	-5671
Well	-5672
ises	-5673
ners	-5674
▁그것에	-5675
▁보내줄	-5676
▁한다는	-5677
▁dele	-5678
▁seat	-5679
▁stra	-5680
▁taxi	-5681
▁핸드폰을	-5682
▁가능하다면	-5683
▁미안하지만	-5684
▁United	-5685
▁showed	-5686
▁distrib	-5687
▁impossible	-5688
ns	-5689
▁워	-5690
리기	-5691
실에	-5692
uth	-5693
▁끝내	-5694
▁동영	-5695
▁부품	-5696
▁생겨	-5697
▁제조	-5698
▁좋았	-5699
▁특히	-5700
▁훌륭	-5701
번호를	-5702
▁egg	-5703
▁sto	-5704
▁거기에	-5705
▁내용이	-5706
▁도와주	-5707
▁됐어요	-5708
▁주소를	-5709
inite	-5710
under	-5711
▁Here	-5712
▁Sams	-5713
▁coun	-5714
▁fill	-5715
▁wall	-5716
▁twice	-5717
▁caused	-5718
▁turned	-5719
▁structure	-5720
▁appearance	-5721
▁exhibition	-5722
오늘	-5723
지게	-5724
xim	-5725
▁1,	-5726
▁경영	-5727
▁상상	-5728
▁시절	-5729
▁실패	-5730
▁자랑	-5731
▁정부	-5732
▁존경	-5733
▁포인	-5734
하시는	-5735
▁log	-5736
▁끝나고	-5737
▁당신도	-5738
▁시험을	-5739
▁있었던	-5740
▁bath	-5741
▁hung	-5742
▁대한민국	-5743
▁없었어요	-5744
▁quiet	-5745
▁snack	-5746
▁worth	-5747
▁button	-5748
▁chocol	-5749
▁flower	-5750
▁traffic	-5751
▁especially	-5752
여서	-5753
자에	-5754
회를	-5755
lus	-5756
▁등의	-5757
▁봉사	-5758
▁이에	-5759
That	-5760
atic	-5761
▁flu	-5762
▁ver	-5763
▁그녀와	-5764
▁못하는	-5765
▁예전에	-5766
estic	-5767
▁copy	-5768
▁dark	-5769
▁knew	-5770
▁생각하지	-5771
ograph	-5772
▁create	-5773
▁proced	-5774
▁receip	-5775
▁happens	-5776
▁speaking	-5777
리의	-5778
이니	-5779
치고	-5780
eth	-5781
▁곳을	-5782
▁매력	-5783
▁언젠	-5784
▁장면	-5785
신가요	-5786
장으로	-5787
iest	-5788
▁보내는	-5789
▁않는다	-5790
▁종류의	-5791
ugust	-5792
▁July	-5793
▁rich	-5794
▁slow	-5795
▁plane	-5796
▁alcohol	-5797
▁helpful	-5798
▁private	-5799
▁treatment	-5800
▁confirmation	-5801
Am	-5802
PS	-5803
TA	-5804
▁닭	-5805
수욕	-5806
아니	-5807
▁동아	-5808
▁말은	-5809
▁영원	-5810
했다고	-5811
With	-5812
airs	-5813
▁엄마가	-5814
▁2017	-5815
▁사용하고	-5816
▁언제든지	-5817
cember	-5818
▁effic	-5819
▁smell	-5820
▁terms	-5821
▁track	-5822
▁forgot	-5823
▁ground	-5824
ometimes	-5825
▁sentence	-5826
▁wonderful	-5827
▁삭	-5828
란다	-5829
▁가치	-5830
▁맛이	-5831
▁절차	-5832
▁향상	-5833
당신은	-5834
hood	-5835
▁메일로	-5836
▁잘못된	-5837
▁저녁을	-5838
inder	-5839
▁unit	-5840
▁가능해요	-5841
▁States	-5842
▁double	-5843
▁smooth	-5844
▁starts	-5845
▁academy	-5846
.5	-5847
구가	-5848
나다	-5849
만이	-5850
▁ow	-5851
▁인기	-5852
는데요	-5853
▁거라고	-5854
▁것들을	-5855
▁너무나	-5856
▁도착할	-5857
▁생활을	-5858
▁아르바	-5859
▁어린이	-5860
▁언제쯤	-5861
▁여동생	-5862
▁amaz	-5863
▁exce	-5864
▁관련하여	-5865
▁말했어요	-5866
▁카카오톡	-5867
▁accur	-5868
▁estab	-5869
▁feature	-5870
▁partner	-5871
▁variety	-5872
▁December	-5873
▁location	-5874
▁properly	-5875
▁염	-5876
▁옛	-5877
▁잤	-5878
드가	-5879
음이	-5880
ued	-5881
▁그중	-5882
▁나온	-5883
▁눈을	-5884
▁적극	-5885
으니까	-5886
yeon	-5887
▁emb	-5888
▁가족은	-5889
▁것인지	-5890
▁fail	-5891
▁tend	-5892
▁affect	-5893
▁produce	-5894
According	-5895
▁곡	-5896
▁푸	-5897
▁흡	-5898
끄러	-5899
서가	-5900
하우	-5901
▁너도	-5902
▁바탕	-5903
▁수준	-5904
▁예쁜	-5905
▁특징	-5906
▁효율	-5907
이라서	-5908
ysis	-5909
▁같아서	-5910
▁것보다	-5911
▁못하고	-5912
▁받아야	-5913
verse	-5914
▁wake	-5915
mitted	-5916
▁August	-5917
▁묻	-5918
멤버	-5919
성에	-5920
정에	-5921
하던	-5922
aim	-5923
cul	-5924
ury	-5925
▁단순	-5926
▁연주	-5927
▁치료	-5928
▁퇴근	-5929
▁패션	-5930
▁휴가	-5931
▁guy	-5932
▁않나요	-5933
▁캐나다	-5934
드릴게요	-5935
▁토요일에	-5936
istics	-5937
▁보냈습니다	-5938
comfort	-5939
▁nearby	-5940
▁wouldn	-5941
▁produced	-5942
▁financial	-5943
ds	-5944
of	-5945
어진	-5946
Don	-5947
▁맞추	-5948
▁미술	-5949
▁받으	-5950
▁에어	-5951
▁위로	-5952
▁작동	-5953
▁중간	-5954
▁착용	-5955
하려면	-5956
leep	-5957
year	-5958
▁ABC	-5959
▁fab	-5960
▁tar	-5961
▁게스트	-5962
▁번호를	-5963
Third	-5964
oting	-5965
▁2016	-5966
▁Take	-5967
▁golf	-5968
▁tree	-5969
atever	-5970
▁broke	-5971
▁lesson	-5972
▁policy	-5973
▁Samsung	-5974
▁exactly	-5975
▁physical	-5976
▁straight	-5977
▁apartment	-5978
▁dangerous	-5979
▁themselves	-5980
었기	-5981
제품	-5982
해가	-5983
She	-5984
▁버전	-5985
▁적당	-5986
하는지	-5987
ache	-5988
izes	-5989
▁Hot	-5990
▁가격은	-5991
▁들었어	-5992
▁Aust	-5993
▁bill	-5994
▁cafe	-5995
▁mult	-5996
▁pork	-5997
▁stom	-5998
▁아이들이	-5999
▁주시겠어요	-6000
▁overse	-6001
▁brought	-6002
comfortable	-6003
▁continuously	-6004
▁훨	-6005
텐츠	-6006
ato	-6007
▁건축	-6008
▁리더	-6009
▁버튼	-6010
▁이는	-6011
▁홍보	-6012
구하고	-6013
word	-6014
▁Wor	-6015
▁deg	-6016
▁몰라요	-6017
▁비슷한	-6018
▁상황이	-6019
▁원하지	-6020
▁이름이	-6021
ended	-6022
▁이메일로	-6023
rences	-6024
▁Kakao	-6025
▁heavy	-6026
▁throw	-6027
▁shower	-6028
▁created	-6029
▁negative	-6030
▁uncomfortable	-6031
▁괴	-6032
▁쿠	-6033
대의	-6034
소가	-6035
져요	-6036
apt	-6037
ply	-6038
▁26	-6039
▁거로	-6040
▁기타	-6041
▁마시	-6042
▁정해	-6043
▁훨씬	-6044
관에서	-6045
aged	-6046
▁미국에	-6047
▁파트너	-6048
▁한다면	-6049
antly	-6050
▁Just	-6051
inally	-6052
▁secret	-6053
▁general	-6054
▁stomach	-6055
▁completely	-6056
▁엘	-6057
방을	-6058
이란	-6059
지면	-6060
콜릿	-6061
화가	-6062
rit	-6063
▁마무	-6064
▁봤어	-6065
▁읽고	-6066
시까지	-6067
iced	-6068
omed	-6069
▁squ	-6070
▁모두가	-6071
▁소개해	-6072
▁소식을	-6073
▁여자는	-6074
▁행복해	-6075
adium	-6076
▁Sept	-6077
▁foot	-6078
idered	-6079
▁moder	-6080
▁reach	-6081
▁사람입니다	-6082
▁어렵습니다	-6083
▁compon	-6084
▁demand	-6085
▁dreams	-6086
▁behavior	-6087
▁complain	-6088
▁immediately	-6089
▁값	-6090
▁땅	-6091
▁찬	-6092
가락	-6093
르면	-6094
트로	-6095
arr	-6096
▁넣고	-6097
▁단계	-6098
▁멤버	-6099
▁발주	-6100
▁북한	-6101
▁홍콩	-6102
head	-6103
▁pan	-6104
▁되었어	-6105
▁힘들어	-6106
▁attra	-6107
▁print	-6108
▁device	-6109
▁drawing	-6110
▁낙	-6111
많은	-6112
rim	-6113
umn	-6114
▁돌려	-6115
▁면접	-6116
▁바빠	-6117
▁배려	-6118
▁병원	-6119
▁색깔	-6120
▁수학	-6121
▁종일	-6122
▁지구	-6123
▁책은	-6124
▁텐데	-6125
rate	-6126
▁lay	-6127
▁물건이	-6128
▁서울에	-6129
▁실제로	-6130
▁행동을	-6131
eared	-6132
▁desc	-6133
▁entr	-6134
▁fair	-6135
▁drama	-6136
▁safely	-6137
▁Koreans	-6138
▁include	-6139
▁receipt	-6140
▁approval	-6141
면에	-6142
목을	-6143
성은	-6144
▁가입	-6145
▁그룹	-6146
▁대답	-6147
▁어른	-6148
▁초대	-6149
itor	-6150
▁문제에	-6151
▁비용이	-6152
▁싶어서	-6153
▁진행할	-6154
Every	-6155
▁desk	-6156
▁dise	-6157
▁tren	-6158
▁wine	-6159
ension	-6160
▁cheer	-6161
▁raise	-6162
▁leaving	-6163
▁tourist	-6164
▁September	-6165
▁confidence	-6166
▁considered	-6167
▁separately	-6168
▁런	-6169
과의	-6170
도의	-6171
림픽	-6172
통을	-6173
▁과학	-6174
▁구경	-6175
▁상담	-6176
▁수출	-6177
▁쉬는	-6178
▁스페	-6179
▁응원	-6180
▁치즈	-6181
aced	-6182
ateg	-6183
▁Mar	-6184
▁joy	-6185
▁rad	-6186
▁예약을	-6187
▁좋아해	-6188
▁확인할	-6189
ieved	-6190
iliar	-6191
▁불구하고	-6192
▁친구에게	-6193
▁cross	-6194
▁drank	-6195
▁driver	-6196
▁딱	-6197
정은	-6198
acy	-6199
ram	-6200
▁등이	-6201
▁라이	-6202
▁맞지	-6203
▁범죄	-6204
▁서버	-6205
▁아쉬	-6206
▁얻을	-6207
▁현실	-6208
lymp	-6209
rage	-6210
▁fan	-6211
▁가족이	-6212
▁기억에	-6213
▁문화를	-6214
▁부분은	-6215
▁비디오	-6216
▁일정이	-6217
▁초콜릿	-6218
▁해수욕	-6219
▁친구들을	-6220
▁instru	-6221
▁singer	-6222
▁painting	-6223
▁broadcast	-6224
내는	-6225
더니	-6226
어는	-6227
이지	-6228
종일	-6229
▁당시	-6230
▁반응	-6231
▁봐요	-6232
▁산업	-6233
▁승인	-6234
▁연기	-6235
이것은	-6236
이라면	-6237
하시고	-6238
▁sil	-6239
▁동시에	-6240
▁버스를	-6241
▁왜냐면	-6242
셨습니다	-6243
iling	-6244
▁2014	-6245
▁nerv	-6246
▁먹었어요	-6247
▁좋아하고	-6248
▁처음으로	-6249
안녕하세요	-6250
ducing	-6251
▁cheap	-6252
▁dance	-6253
▁resol	-6254
▁shall	-6255
▁Kimchi	-6256
▁network	-6257
▁thankful	-6258
▁increased	-6259
▁떡	-6260
사람	-6261
이와	-6262
▁28	-6263
▁Cl	-6264
▁귀여	-6265
▁네트	-6266
▁다운	-6267
▁세탁	-6268
▁스티	-6269
▁어릴	-6270
▁저렴	-6271
▁파악	-6272
cket	-6273
wang	-6274
▁die	-6275
▁마시고	-6276
▁업무를	-6277
▁여자를	-6278
▁줄게요	-6279
갔습니다	-6280
▁Maybe	-6281
▁Olymp	-6282
▁fixed	-6283
▁limit	-6284
▁named	-6285
▁concept	-6286
▁follows	-6287
▁existing	-6288
▁overseas	-6289
리면	-6290
식에	-6291
장과	-6292
att	-6293
▁못해	-6294
▁선호	-6295
▁역사	-6296
▁집은	-6297
▁태국	-6298
▁테이	-6299
izza	-6300
uses	-6301
▁기능을	-6302
▁됩니까	-6303
▁수업에	-6304
▁하루에	-6305
Among	-6306
▁June	-6307
▁Most	-6308
▁firm	-6309
▁재미있는	-6310
▁built	-6311
Finally	-6312
▁repair	-6313
▁consult	-6314
▁analysis	-6315
▁provides	-6316
▁services	-6317
무를	-6318
우고	-6319
ief	-6320
▁거죠	-6321
▁건지	-6322
▁글로	-6323
▁늦어	-6324
▁대통	-6325
▁명이	-6326
▁브라	-6327
드려요	-6328
Next	-6329
▁가방을	-6330
▁다음과	-6331
▁바란다	-6332
▁보면서	-6333
▁알아요	-6334
▁pool	-6335
▁roll	-6336
▁surf	-6337
ertain	-6338
▁round	-6339
▁actual	-6340
▁events	-6341
▁misunder	-6342
▁멈	-6343
량이	-6344
리로	-6345
일은	-6346
eal	-6347
nel	-6348
▁DH	-6349
▁규칙	-6350
▁근데	-6351
▁속에	-6352
▁자꾸	-6353
▁주기	-6354
▁중인	-6355
▁줘서	-6356
▁학습	-6357
하기에	-6358
ging	-6359
▁ant	-6360
▁dut	-6361
▁eld	-6362
▁데이트	-6363
▁이전에	-6364
▁정확히	-6365
iform	-6366
itory	-6367
▁proud	-6368
▁보았습니다	-6369
▁determ	-6370
▁million	-6371
▁domestic	-6372
▁direction	-6373
▁successful	-6374
▁convenience	-6375
▁responsible	-6376
▁칼	-6377
렸어	-6378
복을	-6379
시켜	-6380
왔어	-6381
gar	-6382
▁외부	-6383
▁왼쪽	-6384
▁일상	-6385
▁제한	-6386
▁캐릭	-6387
▁평가	-6388
▁힘을	-6389
▁aff	-6390
▁cos	-6391
▁것들이	-6392
▁대통령	-6393
▁수량을	-6394
▁이용해	-6395
inary	-6396
▁circ	-6397
▁diet	-6398
▁link	-6399
▁spot	-6400
▁고마워요	-6401
▁이용하여	-6402
▁invent	-6403
▁opened	-6404
▁although	-6405
▁employee	-6406
▁chocolate	-6407
▁installed	-6408
▁x	-6409
표를	-6410
▁Te	-6411
▁거니	-6412
▁깊은	-6413
▁데려	-6414
▁만한	-6415
▁방을	-6416
▁삭제	-6417
▁영수	-6418
▁올려	-6419
▁장애	-6420
▁조사	-6421
rict	-6422
▁nut	-6423
▁경우가	-6424
▁능력을	-6425
▁사업을	-6426
▁앞에서	-6427
▁우리도	-6428
▁이용할	-6429
▁자세히	-6430
▁콘텐츠	-6431
▁했지만	-6432
▁Sing	-6433
▁gold	-6434
▁quit	-6435
Before	-6436
urance	-6437
verage	-6438
▁hobby	-6439
▁relax	-6440
▁occurs	-6441
▁orders	-6442
▁pieces	-6443
▁himself	-6444
▁planned	-6445
▁reflect	-6446
▁programs	-6447
▁confident	-6448
▁conditions	-6449
▁끌	-6450
받을	-6451
분이	-6452
예를	-6453
arb	-6454
▁60	-6455
▁냄새	-6456
▁빨간	-6457
▁스크	-6458
▁예를	-6459
▁우편	-6460
▁잠깐	-6461
▁짐을	-6462
▁협의	-6463
angh	-6464
idge	-6465
play	-6466
▁lie	-6467
▁그들을	-6468
erved	-6469
▁hasn	-6470
▁부모님은	-6471
▁테스트를	-6472
▁decre	-6473
▁sight	-6474
▁하였습니다	-6475
▁bigger	-6476
▁bottom	-6477
▁leader	-6478
▁patter	-6479
▁update	-6480
▁entrance	-6481
▁passport	-6482
▁depending	-6483
ym	-6484
아버	-6485
위에	-6486
▁Gu	-6487
▁구체	-6488
▁그저	-6489
▁반품	-6490
▁오픈	-6491
▁허락	-6492
셨나요	-6493
으려고	-6494
vant	-6495
▁관계를	-6496
▁먹으면	-6497
▁식사를	-6498
▁없었어	-6499
▁편하게	-6500
▁pian	-6501
▁mouth	-6502
▁speed	-6503
▁truth	-6504
▁Canada	-6505
▁server	-6506
▁uniform	-6507
▁receiving	-6508
▁registered	-6509
▁examination	-6510
▁쓴	-6511
림을	-6512
▁ut	-6513
▁시켜	-6514
▁신용	-6515
▁재료	-6516
▁즐기	-6517
스에서	-6518
▁cau	-6519
▁dig	-6520
▁그렇기	-6521
▁꾸준히	-6522
▁상황에	-6523
▁친구들은	-6524
▁학생들이	-6525
▁analy	-6526
▁rooms	-6527
▁France	-6528
▁museum	-6529
standing	-6530
ulations	-6531
▁amazing	-6532
▁emotion	-6533
▁further	-6534
▁replace	-6535
▁economic	-6536
▁improved	-6537
▁visiting	-6538
▁effective	-6539
▁increasing	-6540
kg	-6541
su	-6542
상은	-6543
이의	-6544
인과	-6545
100	-6546
Due	-6547
▁70	-6548
▁국민	-6549
▁긍정	-6550
▁새벽	-6551
▁샤워	-6552
▁설계	-6553
▁어떨	-6554
▁투자	-6555
▁해보	-6556
하네요	-6557
▁fat	-6558
▁obs	-6559
▁내년에	-6560
▁되는지	-6561
▁이해할	-6562
▁휴대폰	-6563
anced	-6564
▁heat	-6565
▁king	-6566
▁whom	-6567
▁다릅니다	-6568
▁바탕으로	-6569
▁itself	-6570
▁appropri	-6571
▁independ	-6572
▁nowadays	-6573
▁connected	-6574
▁characters	-6575
▁frequently	-6576
St	-6577
▁홀	-6578
질을	-6579
했기	-6580
lla	-6581
▁능력	-6582
▁돼서	-6583
▁때도	-6584
▁바닥	-6585
▁반영	-6586
▁스키	-6587
▁유치	-6588
▁일할	-6589
ware	-6590
▁300	-6591
▁dry	-6592
▁fem	-6593
▁다니고	-6594
▁목요일	-6595
▁배우는	-6596
▁속에서	-6597
▁수요일	-6598
▁회사를	-6599
stood	-6600
▁못합니다	-6601
Lastly	-6602
▁owner	-6603
▁무엇입니까	-6604
▁시작했어요	-6605
▁borrow	-6606
▁player	-6607
▁stayed	-6608
▁towards	-6609
▁messages	-6610
▁깔	-6611
▁흘	-6612
님의	-6613
만한	-6614
비가	-6615
원의	-6616
iry	-6617
rel	-6618
▁강화	-6619
▁따른	-6620
▁문자	-6621
▁반복	-6622
▁시설	-6623
uted	-6624
▁궁금한	-6625
▁노력을	-6626
▁사실을	-6627
▁솔직히	-6628
▁잃어버	-6629
▁중학교	-6630
▁Dong	-6631
▁Song	-6632
▁star	-6633
▁till	-6634
▁만듭니다	-6635
▁방법으로	-6636
▁않는다면	-6637
▁claim	-6638
▁주었습니다	-6639
Through	-6640
duction	-6641
▁solved	-6642
▁useful	-6643
▁England	-6644
▁efforts	-6645
▁village	-6646
▁contains	-6647
▁considering	-6648
cm	-6649
yo	-6650
로를	-6651
웠어	-6652
▁간호	-6653
▁기재	-6654
▁동료	-6655
▁듣는	-6656
▁생긴	-6657
▁우울	-6658
▁DHL	-6659
▁ign	-6660
▁교육을	-6661
▁사항이	-6662
▁안에서	-6663
▁직업을	-6664
▁커피를	-6665
▁Nove	-6666
▁dogs	-6667
Thanks	-6668
▁sheet	-6669
▁simply	-6670
▁realize	-6671
▁November	-6672
▁pressure	-6673
▁experienced	-6674
ho	-6675
▁닮	-6676
수의	-6677
isk	-6678
vey	-6679
▁문을	-6680
▁배가	-6681
▁찾는	-6682
▁체육	-6683
그래서	-6684
만으로	-6685
▁App	-6686
▁opt	-6687
▁다이어	-6688
▁없으면	-6689
▁영화의	-6690
▁점심을	-6691
urity	-6692
▁고객에게	-6693
▁World	-6694
▁avoid	-6695
▁pizza	-6696
▁allowed	-6697
▁reality	-6698
▁shouldn	-6699
▁promised	-6700
▁destination	-6701
고에	-6702
비는	-6703
아노	-6704
우선	-6705
하다	-6706
▁IT	-6707
▁걸어	-6708
▁그럴	-6709
▁길이	-6710
▁두려	-6711
▁멀리	-6712
▁상당	-6713
▁우체	-6714
▁bes	-6715
▁bow	-6716
▁나라의	-6717
▁마무리	-6718
▁추천해	-6719
▁uses	-6720
omeday	-6721
▁1,000	-6722
▁fully	-6723
▁marry	-6724
▁asleep	-6725
▁생각했습니다	-6726
▁release	-6727
▁workers	-6728
▁attitude	-6729
▁돕	-6730
▁밑	-6731
▁샌	-6732
단을	-6733
로드	-6734
리와	-6735
받고	-6736
성과	-6737
셔도	-6738
일로	-6739
젯밤	-6740
▁강한	-6741
▁달러	-6742
▁머물	-6743
▁무시	-6744
▁의료	-6745
▁읽어	-6746
▁전자	-6747
▁증명	-6748
▁타입	-6749
▁프린	-6750
식으로	-6751
역에서	-6752
enty	-6753
▁말하고	-6754
▁비용은	-6755
▁엄마는	-6756
▁인기가	-6757
▁화요일	-6758
▁Year	-6759
▁jobs	-6760
▁user	-6761
▁Asian	-6762
▁neigh	-6763
▁stage	-6764
▁waste	-6765
▁크리스마스	-6766
▁caught	-6767
▁stories	-6768
▁telling	-6769
▁surprised	-6770
▁슈	-6771
▁픽	-6772
대가	-6773
실이	-6774
움이	-6775
ara	-6776
ges	-6777
▁검색	-6778
▁발급	-6779
▁발행	-6780
▁오류	-6781
▁조절	-6782
▁차이	-6783
amen	-6784
bers	-6785
cean	-6786
▁그곳은	-6787
▁도와줄	-6788
▁아무리	-6789
▁올림픽	-6790
▁요청을	-6791
▁인간의	-6792
▁잘하는	-6793
▁홈페이	-6794
ental	-6795
onely	-6796
▁모릅니다	-6797
▁있었으면	-6798
▁peace	-6799
▁advice	-6800
▁career	-6801
▁effects	-6802
▁distance	-6803
▁disappoint	-6804
▁introduced	-6805
▁participated	-6806
'.	-6807
wh	-6808
▁삽	-6809
▁섞	-6810
▁핵	-6811
함이	-6812
key	-6813
▁00	-6814
▁Le	-6815
▁복잡	-6816
▁앉아	-6817
▁클럽	-6818
부터는	-6819
정으로	-6820
회에서	-6821
anch	-6822
cked	-6823
ison	-6824
▁Put	-6825
▁금액을	-6826
▁된다고	-6827
▁메시지	-6828
▁보이지	-6829
▁여름에	-6830
▁저한테	-6831
▁eval	-6832
▁tool	-6833
▁가능한지	-6834
▁네트워크	-6835
▁디자인을	-6836
lished	-6837
▁Hotel	-6838
▁defect	-6839
▁entire	-6840
▁harder	-6841
▁resour	-6842
▁nervous	-6843
▁suitable	-6844
▁뮤	-6845
▁썼	-6846
aek	-6847
▁박물	-6848
▁세부	-6849
▁실행	-6850
▁옛날	-6851
▁인한	-6852
▁즐겨	-6853
▁챙겨	-6854
쁩니다	-6855
원으로	-6856
pite	-6857
▁Tai	-6858
▁gas	-6859
▁tow	-6860
▁결과가	-6861
▁공부할	-6862
▁사이에	-6863
▁상대방	-6864
▁어젯밤	-6865
▁작업이	-6866
▁피아노	-6867
▁한국을	-6868
▁dorm	-6869
▁tele	-6870
▁당신한테	-6871
idents	-6872
▁knows	-6873
▁prior	-6874
mentary	-6875
▁cosmet	-6876
▁excell	-6877
▁export	-6878
▁lonely	-6879
▁Everyone	-6880
▁cellphone	-6881
po	-6882
▁황	-6883
되기	-6884
문화	-6885
자이	-6886
pro	-6887
▁맛볼	-6888
▁적합	-6889
▁종종	-6890
▁키가	-6891
▁했을	-6892
▁혹은	-6893
bang	-6894
roll	-6895
▁suc	-6896
▁관해서	-6897
▁부분에	-6898
▁의사소	-6899
▁이후에	-6900
▁호텔에	-6901
▁coll	-6902
▁wash	-6903
▁먹습니다	-6904
▁이곳에서	-6905
▁paint	-6906
▁piano	-6907
▁말했습니다	-6908
▁belong	-6909
▁gather	-6910
▁growth	-6911
▁Austral	-6912
▁excited	-6913
▁percent	-6914
▁definite	-6915
▁selected	-6916
▁grandmother	-6917
▁루	-6918
돼요	-6919
리게	-6920
별로	-6921
타민	-6922
프를	-6923
cil	-6924
▁Ke	-6925
▁김치	-6926
▁무척	-6927
▁빠져	-6928
▁시각	-6929
▁영양	-6930
▁적은	-6931
갔어요	-6932
이었어	-6933
하라고	-6934
할까요	-6935
▁rob	-6936
▁sus	-6937
▁더욱더	-6938
▁카드를	-6939
orrow	-6940
▁wide	-6941
▁woke	-6942
▁계속해서	-6943
▁piece	-6944
▁중요합니다	-6945
▁fabric	-6946
▁succeed	-6947
▁returned	-6948
▁carefully	-6949
▁professional	-6950
▁객	-6951
▁닫	-6952
▁옥	-6953
안을	-6954
지기	-6955
층에	-6956
cel	-6957
▁계절	-6958
▁매니	-6959
▁수리	-6960
▁시장	-6961
▁신고	-6962
▁않기	-6963
▁음료	-6964
▁작년	-6965
났어요	-6966
해주는	-6967
athe	-6968
inal	-6969
itam	-6970
rown	-6971
▁먹어요	-6972
▁않지만	-6973
▁없다는	-6974
▁영어가	-6975
▁이상의	-6976
▁100%	-6977
▁hous	-6978
▁lugg	-6979
▁sand	-6980
▁기준으로	-6981
▁사용하여	-6982
minist	-6983
▁blood	-6984
▁laugh	-6985
▁topic	-6986
▁lovely	-6987
▁putting	-6988
▁activity	-6989
▁applying	-6990
▁baseball	-6991
▁canceled	-6992
▁occurred	-6993
tt	-6994
▁콜	-6995
▁탐	-6996
▁탔	-6997
▁훈	-6998
봐야	-6999
운드	-7000
인에	-7001
쳐서	-7002
▁CE	-7003
▁넘어	-7004
▁되길	-7005
▁물이	-7006
▁배달	-7007
▁베이	-7008
▁비싸	-7009
▁입장	-7010
▁프레	-7011
▁현대	-7012
자들이	-7013
하기도	-7014
▁고객의	-7015
▁누구나	-7016
▁오늘이	-7017
▁좋아서	-7018
arant	-7019
▁Comp	-7020
▁emot	-7021
▁공부하고	-7022
▁무엇인지	-7023
▁아이들을	-7024
▁요청하신	-7025
▁extre	-7026
▁motor	-7027
▁cheese	-7028
▁master	-7029
▁missing	-7030
▁designed	-7031
▁electric	-7032
▁movement	-7033
▁volunteer	-7034
▁differences	-7035
▁restaurants	-7036
▁격	-7037
▁맨	-7038
▁석	-7039
동을	-7040
자고	-7041
cip	-7042
oms	-7043
▁고향	-7044
▁남겨	-7045
▁먹지	-7046
▁승무	-7047
▁저번	-7048
▁타이	-7049
찬가지	-7050
▁six	-7051
▁들어요	-7052
▁머리를	-7053
▁부족한	-7054
▁어디로	-7055
▁우체국	-7056
▁조금만	-7057
▁친구의	-7058
ommod	-7059
▁cars	-7060
▁포함되어	-7061
fortun	-7062
▁polit	-7063
▁rules	-7064
▁batter	-7065
▁female	-7066
▁grades	-7067
▁developing	-7068
▁expression	-7069
▁곁	-7070
▁촉	-7071
▁칠	-7072
▁펜	-7073
된다	-7074
없는	-7075
치지	-7076
▁IP	-7077
▁거리	-7078
▁놀라	-7079
▁동작	-7080
▁법을	-7081
▁비자	-7082
▁사귀	-7083
▁소재	-7084
▁수수	-7085
▁아기	-7086
▁필수	-7087
▁확신	-7088
사이트	-7089
▁deb	-7090
▁되어서	-7091
▁저희는	-7092
▁좋겠다	-7093
▁중이야	-7094
▁acqu	-7095
▁sale	-7096
▁aware	-7097
▁keeps	-7098
▁loves	-7099
▁makeup	-7100
▁missed	-7101
▁talent	-7102
▁inquiry	-7103
▁plastic	-7104
▁strange	-7105
▁whatever	-7106
▁굴	-7107
▁까	-7108
▁뽑	-7109
시킬	-7110
제는	-7111
▁각종	-7112
▁고정	-7113
▁매운	-7114
▁맥주	-7115
▁물품	-7116
▁실망	-7117
▁저도	-7118
▁점은	-7119
▁주요	-7120
▁고객은	-7121
▁그렇지	-7122
▁답장을	-7123
▁사용해	-7124
▁샘플은	-7125
▁없다면	-7126
▁영상을	-7127
▁Make	-7128
▁loss	-7129
▁sour	-7130
▁경우에는	-7131
▁도착하면	-7132
phones	-7133
▁closer	-7134
▁corpor	-7135
▁display	-7136
▁holding	-7137
▁remaining	-7138
Do	-7139
cl	-7140
ji	-7141
▁맘	-7142
▁억	-7143
이자	-7144
▁공식	-7145
▁나올	-7146
▁부서	-7147
▁안정	-7148
▁요소	-7149
▁이익	-7150
▁조언	-7151
▁존중	-7152
▁출시	-7153
▁택시	-7154
▁Pay	-7155
▁cit	-7156
▁곳으로	-7157
▁준비가	-7158
atory	-7159
▁lens	-7160
▁tall	-7161
▁때문이야	-7162
▁오늘부터	-7163
▁actor	-7164
▁upset	-7165
▁accomp	-7166
▁주시겠습니까	-7167
▁Control	-7168
▁anytime	-7169
▁sitting	-7170
▁stopped	-7171
▁accommod	-7172
▁internal	-7173
▁password	-7174
▁teaching	-7175
.0	-7176
11	-7177
OS	-7178
▁탑	-7179
운데	-7180
질이	-7181
aps	-7182
rup	-7183
▁En	-7184
▁눈에	-7185
▁문서	-7186
▁조직	-7187
▁좋게	-7188
▁지루	-7189
일부터	-7190
자들은	-7191
Like	-7192
▁10%	-7193
▁fly	-7194
▁ter	-7195
▁미래에	-7196
▁이제는	-7197
▁할게요	-7198
apore	-7199
arket	-7200
ength	-7201
▁arch	-7202
▁neck	-7203
▁Italy	-7204
▁oppos	-7205
▁animal	-7206
▁propos	-7207
▁rights	-7208
▁stores	-7209
▁보내드립니다	-7210
▁luggage	-7211
▁anywhere	-7212
▁feedback	-7213
▁graduate	-7214
▁modified	-7215
▁Singapore	-7216
▁excellent	-7217
▁registration	-7218
▁International	-7219
▁링	-7220
▁젊	-7221
물은	-7222
rew	-7223
▁검은	-7224
▁관람	-7225
▁기쁘	-7226
▁꿈은	-7227
▁독립	-7228
▁바쁜	-7229
▁산책	-7230
▁성과	-7231
▁싱가	-7232
▁어쩔	-7233
▁익숙	-7234
▁친한	-7235
▁행운	-7236
""."	-7237
ians	-7238
▁199	-7239
▁검사를	-7240
▁느낌이	-7241
▁동일한	-7242
▁문제로	-7243
▁봅니다	-7244
▁아이가	-7245
▁좋다고	-7246
▁캐릭터	-7247
▁확인을	-7248
imchi	-7249
▁Kong	-7250
▁cash	-7251
▁pupp	-7252
▁마찬가지	-7253
▁언제까지	-7254
▁중요해요	-7255
▁Those	-7256
▁hurry	-7257
▁closed	-7258
▁explan	-7259
▁modern	-7260
▁Airport	-7261
▁contrib	-7262
▁parking	-7263
▁setting	-7264
▁smoking	-7265
▁security	-7266
▁appropriate	-7267
▁텔	-7268
가에	-7269
▁Pr	-7270
▁hy	-7271
▁기숙	-7272
▁다들	-7273
▁모임	-7274
▁방에	-7275
▁상세	-7276
▁예방	-7277
▁통과	-7278
칩니다	-7279
했다는	-7280
gart	-7281
▁pun	-7282
▁다르게	-7283
▁떨어져	-7284
▁비타민	-7285
▁수밖에	-7286
▁실력이	-7287
▁알아보	-7288
▁이상한	-7289
▁추억을	-7290
illed	-7291
▁fing	-7292
▁궁금해요	-7293
▁무엇보다	-7294
▁began	-7295
▁conne	-7296
itation	-7297
▁instit	-7298
▁kinder	-7299
▁seemed	-7300
▁target	-7301
atically	-7302
▁raining	-7303
▁science	-7304
▁mistakes	-7305
▁patients	-7306
▁languages	-7307
▁recommended	-7308
wa	-7309
▁덜	-7310
▁튀	-7311
있어	-7312
히려	-7313
iny	-7314
▁논의	-7315
▁레이	-7316
▁백화	-7317
▁보았	-7318
▁숙박	-7319
▁채팅	-7320
▁풍부	-7321
봅시다	-7322
으로서	-7323
▁글로벌	-7324
▁말하지	-7325
▁보여요	-7326
▁아무도	-7327
▁오세요	-7328
These	-7329
▁Russ	-7330
▁그렇지만	-7331
▁보냈어요	-7332
▁서울에서	-7333
urning	-7334
▁funny	-7335
▁minim	-7336
▁article	-7337
▁respond	-7338
▁showing	-7339
▁someday	-7340
▁background	-7341
▁낫	-7342
로그	-7343
상에	-7344
세를	-7345
▁AS	-7346
▁강력	-7347
▁기반	-7348
▁나갈	-7349
▁들이	-7350
▁발라	-7351
▁오고	-7352
▁인증	-7353
▁편의	-7354
대에서	-7355
itar	-7356
▁Its	-7357
▁lad	-7358
▁wel	-7359
▁것이고	-7360
▁결혼을	-7361
▁과정을	-7362
▁느낌을	-7363
▁수많은	-7364
▁온종일	-7365
▁이미지	-7366
▁파티를	-7367
▁Amaz	-7368
▁hero	-7369
▁드릴게요	-7370
▁아이들은	-7371
iation	-7372
iction	-7373
▁areas	-7374
▁guarant	-7375
▁keeping	-7376
▁Australia	-7377
▁foreigner	-7378
▁impression	-7379
▁impressive	-7380
▁advertisement	-7381
▁뒷	-7382
▁룸	-7383
대체	-7384
아이	-7385
트의	-7386
:00	-7387
▁구입	-7388
▁그려	-7389
▁대략	-7390
▁로그	-7391
▁몸에	-7392
▁삼성	-7393
▁시원	-7394
▁언급	-7395
▁유용	-7396
▁전략	-7397
▁텔레	-7398
▁raw	-7399
▁tit	-7400
▁건강을	-7401
▁공항에	-7402
▁러시아	-7403
▁먹으러	-7404
▁에이전	-7405
▁피부를	-7406
ellow	-7407
▁calm	-7408
▁thor	-7409
▁발생하는	-7410
▁있으세요	-7411
atives	-7412
ending	-7413
▁ideas	-7414
▁acting	-7415
▁booked	-7416
▁leaves	-7417
▁notice	-7418
▁remind	-7419
▁videos	-7420
▁players	-7421
▁expenses	-7422
▁functions	-7423
▁insurance	-7424
▁procedure	-7425
▁facilities	-7426
ik	-7427
▁든	-7428
개가	-7429
받는	-7430
업체	-7431
줘야	-7432
즈를	-7433
iff	-7434
lex	-7435
oll	-7436
▁강의	-7437
▁아쉽	-7438
▁애플	-7439
▁이틀	-7440
▁점을	-7441
▁출고	-7442
깁니다	-7443
cher	-7444
pper	-7445
▁Try	-7446
▁ski	-7447
▁같네요	-7448
▁스테이	-7449
▁아버지	-7450
▁친구들	-7451
▁확실히	-7452
rated	-7453
▁dont	-7454
▁exec	-7455
▁spir	-7456
▁날이에요	-7457
▁이용해서	-7458
▁chair	-7459
▁files	-7460
▁prote	-7461
▁sugar	-7462
▁tight	-7463
▁알려주시면	-7464
▁commer	-7465
▁cooked	-7466
▁economy	-7467
▁tickets	-7468
▁promotion	-7469
▁kindergart	-7470
▁웨	-7471
교육	-7472
금이	-7473
리카	-7474
마자	-7475
용을	-7476
정보	-7477
▁매년	-7478
▁바꿀	-7479
▁불안	-7480
▁잠이	-7481
▁적절	-7482
달라고	-7483
트에서	-7484
▁가이드	-7485
▁간단한	-7486
▁거기서	-7487
▁되었다	-7488
▁와이파	-7489
▁일본의	-7490
▁충분한	-7491
▁한국어	-7492
While	-7493
asket	-7494
▁feet	-7495
▁poll	-7496
▁재미있게	-7497
ailand	-7498
▁worse	-7499
▁Amazon	-7500
▁bother	-7501
▁calcul	-7502
▁hungry	-7503
▁urgent	-7504
▁helping	-7505
▁studies	-7506
▁washing	-7507
▁includes	-7508
▁investig	-7509
▁contacted	-7510
▁wondering	-7511
PI	-7512
Ye	-7513
km	-7514
▁끈	-7515
▁끓	-7516
▁낼	-7517
▁니	-7518
▁씻	-7519
▁헬	-7520
분을	-7521
션이	-7522
jin	-7523
put	-7524
ses	-7525
▁Tr	-7526
▁kn	-7527
▁공격	-7528
▁나눠	-7529
▁나은	-7530
▁내에	-7531
▁드리	-7532
▁목록	-7533
▁박스	-7534
▁삶의	-7535
▁성실	-7536
▁소년	-7537
▁조정	-7538
▁친해	-7539
▁확정	-7540
실에서	-7541
하기가	-7542
▁Not	-7543
▁ran	-7544
▁sen	-7545
▁가려고	-7546
▁먹었어	-7547
▁여행은	-7548
ishes	-7549
▁Jack	-7550
▁Only	-7551
▁crit	-7552
▁breat	-7553
▁decor	-7554
▁force	-7555
▁habit	-7556
▁slept	-7557
▁desire	-7558
▁filled	-7559
▁humans	-7560
▁images	-7561
▁stadium	-7562
▁Thailand	-7563
▁handsome	-7564
▁finishing	-7565
▁influence	-7566
▁엑	-7567
같이	-7568
과는	-7569
름이	-7570
식은	-7571
ube	-7572
▁Ji	-7573
▁ir	-7574
▁간의	-7575
▁달리	-7576
▁매주	-7577
▁발달	-7578
▁블랙	-7579
▁외모	-7580
▁유행	-7581
▁접근	-7582
▁좋고	-7583
다시피	-7584
하시기	-7585
Thus	-7586
ague	-7587
enge	-7588
itch	-7589
▁Con	-7590
▁Lot	-7591
▁Sam	-7592
▁ban	-7593
▁gym	-7594
▁배송이	-7595
▁사회적	-7596
▁서로의	-7597
▁숙제를	-7598
▁아들이	-7599
▁요즘은	-7600
▁정보가	-7601
▁훌륭한	-7602
ivity	-7603
▁2018	-7604
▁Cent	-7605
▁beef	-7606
▁dust	-7607
▁kill	-7608
▁remo	-7609
▁valu	-7610
▁아이스크	-7611
▁정확하게	-7612
▁호텔에서	-7613
▁emerg	-7614
uations	-7615
▁Taiwan	-7616
▁issued	-7617
▁extreme	-7618
▁opening	-7619
▁scheduled	-7620
▁셀	-7621
다른	-7622
드에	-7623
미안	-7624
본을	-7625
mon	-7626
▁대기	-7627
▁먹방	-7628
▁배워	-7629
▁빌려	-7630
▁소요	-7631
▁않으	-7632
▁정치	-7633
▁중심	-7634
자이너	-7635
What	-7636
mble	-7637
▁mer	-7638
▁pal	-7639
▁rid	-7640
▁끝까지	-7641
▁다니는	-7642
▁만들기	-7643
▁목표를	-7644
▁보여주	-7645
▁세상을	-7646
▁아마존	-7647
▁아무런	-7648
▁오전에	-7649
▁프랑스	-7650
▁학생이	-7651
oring	-7652
▁Jung	-7653
▁bell	-7654
▁감사해요	-7655
▁이미지를	-7656
▁Shall	-7657
▁citiz	-7658
▁range	-7659
▁trade	-7660
▁yours	-7661
▁announ	-7662
▁noodles	-7663
▁reserve	-7664
▁attending	-7665
▁disappointed	-7666
▁케	-7667
거운	-7668
형을	-7669
ray	-7670
▁Sw	-7671
▁극복	-7672
▁먹은	-7673
▁번도	-7674
▁어쩌	-7675
▁외출	-7676
▁줄게	-7677
▁찍어	-7678
▁강아지	-7679
▁견적을	-7680
▁계약을	-7681
▁미래를	-7682
▁버튼을	-7683
▁오히려	-7684
▁우리와	-7685
▁인생을	-7686
▁작년에	-7687
▁정말로	-7688
▁청소년	-7689
▁최근에	-7690
board	-7691
▁fruits	-7692
▁balance	-7693
▁letters	-7694
▁National	-7695
▁normally	-7696
▁perspect	-7697
▁separate	-7698
▁entertain	-7699
▁inconvenience	-7700
.1	-7701
CO	-7702
ED	-7703
wo	-7704
▁볶	-7705
▁윤	-7706
공항	-7707
구에	-7708
받은	-7709
차를	-7710
▁29	-7711
▁80	-7712
▁거라	-7713
▁끝난	-7714
▁달려	-7715
▁말아	-7716
▁뭔가	-7717
▁배경	-7718
▁보험	-7719
▁선박	-7720
▁아픈	-7721
▁올바	-7722
▁잡아	-7723
▁주길	-7724
▁콘서	-7725
lled	-7726
ught	-7727
▁bri	-7728
▁lif	-7729
▁mad	-7730
▁도대체	-7731
▁있기를	-7732
▁행복을	-7733
▁휴가를	-7734
ening	-7735
iring	-7736
ondon	-7737
▁died	-7738
▁risk	-7739
▁대표적인	-7740
▁미국에서	-7741
▁보내세요	-7742
▁수요일에	-7743
ateful	-7744
▁newsp	-7745
▁across	-7746
▁calling	-7747
▁theater	-7748
▁benefits	-7749
▁agreement	-7750
▁kindergarten	-7751
sy	-7752
▁밴	-7753
▁옳	-7754
▁쳐	-7755
그녀	-7756
들로	-7757
러운	-7758
사실	-7759
져야	-7760
unt	-7761
▁다이	-7762
▁봐야	-7763
▁부르	-7764
▁쉬운	-7765
▁시청	-7766
▁적어	-7767
▁전기	-7768
▁지도	-7769
▁직장	-7770
▁집이	-7771
▁참조	-7772
▁출장	-7773
▁통한	-7774
▁픽업	-7775
▁한잔	-7776
그레이	-7777
▁inn	-7778
▁계획이	-7779
▁들어오	-7780
▁마치고	-7781
▁생각엔	-7782
▁설명해	-7783
▁알아야	-7784
aches	-7785
▁jack	-7786
▁qual	-7787
▁ring	-7788
▁부모님이	-7789
▁ocean	-7790
▁trave	-7791
▁adults	-7792
▁boring	-7793
▁prices	-7794
▁tastes	-7795
▁taught	-7796
▁Station	-7797
▁consist	-7798
▁numbers	-7799
▁princip	-7800
▁sharing	-7801
▁updated	-7802
▁grateful	-7803
▁memorable	-7804
▁sincerely	-7805
▁셔	-7806
▁옵	-7807
는다	-7808
름을	-7809
방학	-7810
와서	-7811
조차	-7812
cks	-7813
mar	-7814
ror	-7815
▁Ky	-7816
▁OS	-7817
▁감정	-7818
▁개를	-7819
▁동네	-7820
▁보다	-7821
▁비해	-7822
▁생길	-7823
▁있죠	-7824
▁접수	-7825
▁행사	-7826
을까요	-7827
aust	-7828
iors	-7829
▁bud	-7830
▁경기를	-7831
▁괜찮은	-7832
▁약간의	-7833
▁없지만	-7834
▁오래된	-7835
▁일본에	-7836
▁텔레비	-7837
▁혼자서	-7838
rench	-7839
▁cart	-7840
▁host	-7841
▁load	-7842
▁의사소통	-7843
시겠습니까	-7844
▁agent	-7845
▁drunk	-7846
▁게스트하우	-7847
▁먹었습니다	-7848
▁London	-7849
▁buying	-7850
▁failed	-7851
▁arrange	-7852
▁exhaust	-7853
▁deadline	-7854
▁characteristics	-7855
gn	-7856
▁곤	-7857
고기	-7858
등을	-7859
아웃	-7860
조건	-7861
지어	-7862
콤한	-7863
ech	-7864
ori	-7865
▁45	-7866
▁CC	-7867
▁가난	-7868
▁그에	-7869
▁매출	-7870
▁분리	-7871
▁위의	-7872
▁점검	-7873
▁정책	-7874
답니다	-7875
▁아시아	-7876
▁오늘의	-7877
▁하나도	-7878
▁King	-7879
▁공부하는	-7880
▁공항에서	-7881
▁알았어요	-7882
▁포기하지	-7883
▁apart	-7884
▁elder	-7885
▁homet	-7886
▁kimchi	-7887
▁length	-7888
▁scener	-7889
▁slight	-7890
▁contest	-7891
▁administ	-7892
▁cultures	-7893
▁hometown	-7894
▁thorough	-7895
▁Sometimes	-7896
▁advantage	-7897
▁ourselves	-7898
▁cooperation	-7899
gi	-7900
ki	-7901
년간	-7902
▁Bl	-7903
▁걸릴	-7904
▁귀찮	-7905
▁귀하	-7906
▁당장	-7907
▁런던	-7908
▁몸을	-7909
▁아내	-7910
▁한글	-7911
었다고	-7912
해주길	-7913
char	-7914
irty	-7915
▁Joh	-7916
▁Nam	-7917
▁남자를	-7918
▁바이어	-7919
▁수량이	-7920
▁아파서	-7921
▁할까요	-7922
▁할아버	-7923
▁화장품	-7924
함으로써	-7925
aging	-7926
▁asse	-7927
▁shut	-7928
▁대학교에	-7929
▁싶은데요	-7930
▁프로젝트를	-7931
▁faster	-7932
▁manual	-7933
▁riding	-7934
▁actions	-7935
▁describ	-7936
▁happily	-7937
▁opinions	-7938
▁somewhere	-7939
▁suffering	-7940
▁꼬	-7941
신을	-7942
약을	-7943
에겐	-7944
역을	-7945
hop	-7946
una	-7947
▁31	-7948
▁건너	-7949
▁마련	-7950
▁말했	-7951
▁보며	-7952
▁쉬고	-7953
▁신문	-7954
▁안타	-7955
▁인식	-7956
▁있겠	-7957
▁합격	-7958
봤어요	-7959
iver	-7960
▁Par	-7961
▁hom	-7962
▁감정을	-7963
▁돌아오	-7964
▁똑같은	-7965
▁미국의	-7966
▁보내지	-7967
▁부드럽	-7968
▁시작할	-7969
▁아이를	-7970
▁자리에	-7971
해주시기	-7972
▁bicy	-7973
▁cher	-7974
▁math	-7975
▁repe	-7976
▁util	-7977
▁boxes	-7978
▁ramen	-7979
▁tough	-7980
▁usage	-7981
Further	-7982
▁attack	-7983
▁nation	-7984
▁yellow	-7985
▁director	-7986
▁emotions	-7987
▁enjoying	-7988
▁essential	-7989
▁expressed	-7990
▁impressed	-7991
▁definitely	-7992
▁situations	-7993
▁organization	-7994
▁manufacturing	-7995
AR	-7996
zz	-7997
▁땐	-7998
▁척	-7999
▁흰	-8000
구는	-8001
리라	-8002
왜냐	-8003
자로	-8004
지니	-8005
체를	-8006
▁걸리	-8007
▁들면	-8008
▁뭐가	-8009
▁믿고	-8010
▁없기	-8011
▁연예	-8012
▁즉시	-8013
▁지냈	-8014
▁하였	-8015
ille	-8016
▁Tom	-8017
▁caf	-8018
▁cru	-8019
▁veh	-8020
▁괜찮아	-8021
▁그러니	-8022
▁뭐라고	-8023
▁받았어	-8024
▁소리를	-8025
▁손님이	-8026
▁영원히	-8027
▁학교를	-8028
되었어요	-8029
asant	-8030
essel	-8031
▁Stud	-8032
▁fare	-8033
▁fort	-8034
▁jour	-8035
▁phen	-8036
▁일이에요	-8037
▁자전거를	-8038
During	-8039
utions	-8040
▁height	-8041
▁salary	-8042
▁cleaning	-8043
▁holidays	-8044
▁community	-8045
▁롤	-8046
드로	-8047
졌다	-8048
향이	-8049
회가	-8050
500	-8051
bum	-8052
▁CD	-8053
▁가질	-8054
▁나왔	-8055
▁번에	-8056
▁보증	-8057
▁신규	-8058
▁의무	-8059
▁재능	-8060
▁최대	-8061
▁충격	-8062
도에서	-8063
여행을	-8064
▁esc	-8065
▁각각의	-8066
▁남편이	-8067
▁대학에	-8068
▁상품이	-8069
▁선택한	-8070
▁수업은	-8071
▁스티커	-8072
▁싱가포	-8073
▁이해가	-8074
▁정도의	-8075
쳤습니다	-8076
arden	-8077
round	-8078
yment	-8079
▁duty	-8080
▁mall	-8081
▁mood	-8082
▁surv	-8083
▁가능성이	-8084
▁생각보다	-8085
▁원한다면	-8086
▁airpl	-8087
▁계획입니다	-8088
▁고맙습니다	-8089
▁basket	-8090
▁region	-8091
▁singing	-8092
▁download	-8093
▁valuable	-8094
▁explained	-8095
▁difficulties	-8096
12	-8097
▁벤	-8098
▁펼	-8099
메이	-8100
터가	-8101
ded	-8102
▁Bu	-8103
▁Me	-8104
▁갈아	-8105
▁놓고	-8106
▁대비	-8107
▁맞게	-8108
▁배운	-8109
▁쓰지	-8110
▁야채	-8111
▁유니	-8112
▁인턴	-8113
▁일으	-8114
▁저장	-8115
▁타는	-8116
하지는	-8117
jang	-8118
▁Com	-8119
▁Mal	-8120
▁가져다	-8121
▁사진과	-8122
▁사항을	-8123
▁샀어요	-8124
▁생각할	-8125
▁언젠가	-8126
▁회사가	-8127
적입니다	-8128
anged	-8129
rency	-8130
▁Inst	-8131
▁hall	-8132
▁rout	-8133
▁과정에서	-8134
▁선생님은	-8135
atform	-8136
▁ahead	-8137
▁faith	-8138
▁tasks	-8139
▁Gyeong	-8140
▁easier	-8141
▁freely	-8142
▁option	-8143
▁capital	-8144
▁musical	-8145
▁approach	-8146
▁challeng	-8147
▁familiar	-8148
▁ordinary	-8149
▁overcome	-8150
▁requests	-8151
▁naturally	-8152
▁resources	-8153
Furthermore	-8154
▁understood	-8155
ov	-8156
드린	-8157
물에	-8158
바이	-8159
tic	-8160
▁Sa	-8161
▁가슴	-8162
▁고통	-8163
▁그랬	-8164
▁기초	-8165
▁기획	-8166
▁낮은	-8167
▁반송	-8168
▁약을	-8169
▁출하	-8170
▁측정	-8171
▁캠핑	-8172
그러나	-8173
합시다	-8174
rees	-8175
▁Tok	-8176
▁ath	-8177
▁lux	-8178
▁pig	-8179
▁귀여운	-8180
▁남동생	-8181
▁드디어	-8182
왜냐하면	-8183
Sorry	-8184
▁Even	-8185
▁band	-8186
▁cous	-8187
▁teen	-8188
▁upon	-8189
▁vict	-8190
▁걸립니다	-8191
▁진행하고	-8192
▁컴퓨터를	-8193
▁힘들어요	-8194
▁India	-8195
▁plant	-8196
▁relig	-8197
▁interp	-8198
▁scared	-8199
▁values	-8200
▁charged	-8201
▁phenomen	-8202
▁stressed	-8203
▁connection	-8204
▁explanation	-8205
▁possibility	-8206
.2	-8207
IC	-8208
▁숫	-8209
▁앨	-8210
력은	-8211
사로	-8212
와의	-8213
이다	-8214
▁가볍	-8215
▁공장	-8216
▁나쁘	-8217
▁높아	-8218
▁리포	-8219
▁만에	-8220
▁많고	-8221
▁부러	-8222
▁슬퍼	-8223
▁예뻐	-8224
▁유일	-8225
▁잡고	-8226
▁피드	-8227
alty	-8228
ened	-8229
hest	-8230
icon	-8231
zing	-8232
▁Any	-8233
▁Col	-8234
▁Was	-8235
▁bul	-8236
▁lat	-8237
▁느끼고	-8238
▁맞나요	-8239
▁생각은	-8240
▁쓰레기	-8241
▁아니고	-8242
▁연락처	-8243
▁일정에	-8244
▁테이블	-8245
▁효과가	-8246
원입니다	-8247
적이에요	-8248
하시나요	-8249
해보세요	-8250
lfare	-8251
▁mask	-8252
▁디자이너	-8253
▁이번에는	-8254
▁calls	-8255
▁climb	-8256
▁fruit	-8257
▁greet	-8258
▁meals	-8259
▁mixed	-8260
▁trees	-8261
▁truly	-8262
▁인보이스를	-8263
▁프로그램은	-8264
▁causes	-8265
▁vessel	-8266
ological	-8267
▁average	-8268
▁scenery	-8269
▁Olympics	-8270
▁annivers	-8271
▁classroom	-8272
▁container	-8273
fortunately	-8274
▁graduation	-8275
▁meaningful	-8276
ha	-8277
▁폴	-8278
석을	-8279
소한	-8280
시가	-8281
에만	-8282
oub	-8283
yed	-8284
▁갖추	-8285
▁기원	-8286
▁대응	-8287
▁딸이	-8288
▁링크	-8289
▁말에	-8290
▁무언	-8291
▁보일	-8292
▁사례	-8293
▁스토	-8294
▁알았	-8295
▁의심	-8296
▁이외	-8297
▁차별	-8298
▁커버	-8299
▁환영	-8300
우리가	-8301
하였고	-8302
했는지	-8303
orce	-8304
▁civ	-8305
▁rom	-8306
▁건강에	-8307
▁고양이	-8308
▁날짜를	-8309
▁이해해	-8310
night	-8311
▁army	-8312
▁quot	-8313
▁upgr	-8314
▁방식으로	-8315
▁세상에서	-8316
ancing	-8317
▁honey	-8318
▁hurts	-8319
▁vitam	-8320
▁aspect	-8321
▁highly	-8322
▁obtain	-8323
▁spirit	-8324
▁archite	-8325
▁knowing	-8326
▁standing	-8327
▁suggested	-8328
▁difficulty	-8329
ky	-8330
▁엉	-8331
려는	-8332
역에	-8333
전이	-8334
터에	-8335
프트	-8336
bed	-8337
ips	-8338
▁To	-8339
▁계란	-8340
▁노출	-8341
▁만남	-8342
▁신기	-8343
▁인쇄	-8344
▁종교	-8345
▁파는	-8346
▁평생	-8347
▁피해	-8348
드리고	-8349
해주고	-8350
edom	-8351
ites	-8352
umst	-8353
▁Dis	-8354
▁Won	-8355
▁걱정이	-8356
▁겁니까	-8357
▁그리워	-8358
▁기능이	-8359
▁않았다	-8360
▁약속이	-8361
▁통하여	-8362
iving	-8363
▁fans	-8364
▁stri	-8365
▁사무실에	-8366
▁어디에서	-8367
▁업그레이	-8368
▁웹사이트	-8369
▁제외하고	-8370
▁행복해요	-8371
▁meant	-8372
▁thick	-8373
▁title	-8374
▁느꼈습니다	-8375
▁French	-8376
▁guitar	-8377
▁resort	-8378
Secondly	-8379
▁appeared	-8380
▁bathroom	-8381
▁entering	-8382
▁reserved	-8383
▁restrict	-8384
▁spending	-8385
▁challenge	-8386
▁practical	-8387
▁commercial	-8388
▁importance	-8389
▁reasonable	-8390
▁concentrate	-8391
60	-8392
80	-8393
bs	-8394
fl	-8395
▁팝	-8396
게도	-8397
느냐	-8398
법을	-8399
셋째	-8400
Our	-8401
een	-8402
ila	-8403
rat	-8404
▁90	-8405
▁고생	-8406
▁과목	-8407
▁라벨	-8408
▁마감	-8409
▁스위	-8410
▁엘리	-8411
▁작가	-8412
▁조립	-8413
겠다는	-8414
있어요	-8415
지에서	-8416
food	-8417
jong	-8418
▁CEO	-8419
▁기다릴	-8420
▁내일은	-8421
▁노력할	-8422
▁심지어	-8423
▁연습을	-8424
▁잘하고	-8425
▁직원이	-8426
iency	-8427
▁farm	-8428
▁male	-8429
▁봤습니다	-8430
▁비행기를	-8431
▁스테이크	-8432
▁Tokyo	-8433
▁maxim	-8434
▁newly	-8435
▁skill	-8436
▁steak	-8437
▁아르바이트	-8438
▁worker	-8439
▁만들었습니다	-8440
▁시작했습니다	-8441
▁damaged	-8442
▁expense	-8443
▁patient	-8444
▁willing	-8445
▁traveled	-8446
▁experiment	-8447
▁particular	-8448
dd	-8449
▁-	-8450
관은	-8451
끼리	-8452
닐라	-8453
대는	-8454
제로	-8455
:30	-8456
Exc	-8457
asy	-8458
▁AA	-8459
▁IS	-8460
▁단어	-8461
▁도쿄	-8462
▁둘러	-8463
▁모바	-8464
▁알지	-8465
▁연장	-8466
▁집안	-8467
▁커플	-8468
▁훈련	-8469
색으로	-8470
스러워	-8471
음으로	-8472
주셔서	-8473
esus	-8474
▁갈게요	-8475
▁같은데	-8476
▁구매할	-8477
▁만나러	-8478
▁맛있게	-8479
▁매니저	-8480
▁발생한	-8481
▁사용한	-8482
▁얼굴을	-8483
▁의미가	-8484
▁피드백	-8485
자입니다	-8486
ilies	-8487
▁disp	-8488
▁wire	-8489
▁스케줄을	-8490
▁싱가포르	-8491
▁싶었어요	-8492
▁좋았어요	-8493
coming	-8494
▁blank	-8495
▁negot	-8496
▁제공합니다	-8497
▁losing	-8498
▁overall	-8499
▁everyday	-8500
▁teachers	-8501
▁efficient	-8502
▁emergency	-8503
▁elementary	-8504
▁purchasing	-8505
MO	-8506
VR	-8507
▁뇌	-8508
▁롯	-8509
▁섭	-8510
▁펌	-8511
수한	-8512
위가	-8513
주가	-8514
Pro	-8515
anc	-8516
▁2,	-8517
▁다섯	-8518
▁드는	-8519
▁라면	-8520
▁물리	-8521
▁새해	-8522
▁스카	-8523
▁스파	-8524
▁신체	-8525
▁일로	-8526
▁했고	-8527
tion	-8528
▁Rep	-8529
▁USA	-8530
▁pet	-8531
▁소리가	-8532
▁알았어	-8533
▁있어도	-8534
▁주변에	-8535
▁cere	-8536
▁crow	-8537
▁empt	-8538
▁ware	-8539
▁뿐이에요	-8540
▁스트레스	-8541
▁어울리는	-8542
▁있었는데	-8543
arrass	-8544
ildren	-8545
▁Young	-8546
▁label	-8547
▁laund	-8548
▁legal	-8549
▁stars	-8550
▁사용합니다	-8551
▁remove	-8552
▁보내겠습니다	-8553
▁camping	-8554
▁complex	-8555
▁leaders	-8556
▁exciting	-8557
▁pleasure	-8558
▁weekends	-8559
▁보내드리겠습니다	-8560
▁disappear	-8561
▁dormitory	-8562
▁embarrass	-8563
▁translate	-8564
▁conference	-8565
▁previously	-8566
▁manufacture	-8567
▁participating	-8568
MP	-8569
mo	-8570
▁겉	-8571
▁컵	-8572
▁탁	-8573
경이	-8574
먼저	-8575
천히	-8576
프로	-8577
gle	-8578
how	-8579
the	-8580
▁MC	-8581
▁근거	-8582
▁금방	-8583
▁놀고	-8584
▁등장	-8585
▁롯데	-8586
▁살펴	-8587
▁설탕	-8588
▁옷이	-8589
▁이내	-8590
▁정류	-8591
▁프리	-8592
▁하죠	-8593
▁학기	-8594
셨으면	-8595
용으로	-8596
appy	-8597
iers	-8598
quar	-8599
▁tim	-8600
▁공연을	-8601
▁너희가	-8602
▁돈으로	-8603
▁말아요	-8604
▁말해요	-8605
▁받아서	-8606
▁세상에	-8607
▁조금씩	-8608
▁천천히	-8609
▁하루를	-8610
▁환경을	-8611
▁도착해서	-8612
mented	-8613
pected	-8614
ternal	-8615
▁bored	-8616
▁encou	-8617
▁labor	-8618
▁lines	-8619
▁smoke	-8620
▁아이들에게	-8621
▁필요하다고	-8622
aration	-8623
▁mostly	-8624
▁profit	-8625
▁seller	-8626
▁methods	-8627
▁treated	-8628
▁accurate	-8629
▁airplane	-8630
▁incident	-8631
▁informed	-8632
▁regularly	-8633
▁consideration	-8634
▁relationships	-8635
40	-8636
▁낳	-8637
▁펴	-8638
쪽에	-8639
함과	-8640
rop	-8641
▁TO	-8642
▁iP	-8643
▁건조	-8644
▁게시	-8645
▁넓은	-8646
▁바닷	-8647
▁선정	-8648
▁쉽지	-8649
▁싶을	-8650
▁원단	-8651
▁자는	-8652
▁잘생	-8653
▁창의	-8654
▁취업	-8655
▁회복	-8656
마지막	-8657
시키는	-8658
실래요	-8659
eter	-8660
hone	-8661
jeon	-8662
▁aim	-8663
▁umb	-8664
▁가려면	-8665
▁건강한	-8666
▁기다리	-8667
▁무료로	-8668
▁바람이	-8669
▁사진에	-8670
▁싫어요	-8671
▁점수를	-8672
▁친구랑	-8673
▁케이블	-8674
▁필요할	-8675
using	-8676
▁Hall	-8677
▁괜찮아요	-8678
▁비즈니스	-8679
▁5,000	-8680
▁Check	-8681
▁novel	-8682
▁rough	-8683
▁개인적으로	-8684
▁미안합니다	-8685
▁자연스럽게	-8686
▁deeply	-8687
▁schools	-8688
▁surface	-8689
▁circumst	-8690
eg	-8691
▁깜	-8692
▁낭	-8693
▁히	-8694
나가	-8695
유의	-8696
율이	-8697
화된	-8698
Let	-8699
▁가도	-8700
▁걸린	-8701
▁과일	-8702
▁끊임	-8703
▁느낀	-8704
▁다녔	-8705
▁답장	-8706
▁머무	-8707
▁번씩	-8708
▁부디	-8709
▁소리	-8710
▁영광	-8711
▁유리	-8712
▁좋다	-8713
▁통합	-8714
▁혼란	-8715
인으로	-8716
케이션	-8717
More	-8718
aped	-8719
lict	-8720
ript	-8721
▁123	-8722
▁되었고	-8723
▁만나요	-8724
▁발표를	-8725
▁사랑해	-8726
▁상당히	-8727
▁준비해	-8728
▁fant	-8729
▁rank	-8730
estern	-8731
▁Daegu	-8732
▁indic	-8733
▁toile	-8734
▁tempor	-8735
▁airline	-8736
▁packing	-8737
▁profile	-8738
▁section	-8739
▁accepted	-8740
▁electron	-8741
▁concerned	-8742
▁attractive	-8743
▁anniversary	-8744
▁칭	-8745
▁혜	-8746
뮤니	-8747
부에	-8748
스코	-8749
이로	-8750
▁Gr	-8751
▁id	-8752
▁고급	-8753
▁공통	-8754
▁구분	-8755
▁귀엽	-8756
▁단체	-8757
▁뮤지	-8758
▁방해	-8759
▁양념	-8760
▁외로	-8761
▁이끌	-8762
▁접속	-8763
▁주장	-8764
▁차량	-8765
▁차지	-8766
더라고	-8767
됐어요	-8768
Yeah	-8769
▁dil	-8770
▁가까이	-8771
▁기억이	-8772
▁노래는	-8773
▁대학생	-8774
▁마닐라	-8775
▁마음은	-8776
▁만나게	-8777
▁말이야	-8778
▁바래요	-8779
▁작품을	-8780
▁장소를	-8781
▁주소로	-8782
▁학원에	-8783
▁해결할	-8784
▁Aren	-8785
▁bike	-8786
▁cris	-8787
▁doub	-8788
▁salt	-8789
▁데이터를	-8790
father	-8791
▁Jesus	-8792
▁saved	-8793
▁배웠습니다	-8794
▁burden	-8795
▁impact	-8796
▁modify	-8797
▁potato	-8798
▁served	-8799
▁compens	-8800
▁freedom	-8801
▁revised	-8802
▁neighbor	-8803
▁conducted	-8804
▁perfectly	-8805
▁exercising	-8806
OT	-8807
TV	-8808
ls	-8809
▁켜	-8810
이죠	-8811
진을	-8812
Any	-8813
ana	-8814
ode	-8815
▁거절	-8816
▁나면	-8817
▁늦은	-8818
▁마사	-8819
▁맛을	-8820
▁부정	-8821
▁빌딩	-8822
▁소설	-8823
▁시계	-8824
▁입을	-8825
▁자극	-8826
▁지방	-8827
▁확보	-8828
선생님	-8829
아니요	-8830
쪽으로	-8831
했나요	-8832
▁Mac	-8833
▁gri	-8834
▁mic	-8835
▁unc	-8836
▁가격에	-8837
▁가세요	-8838
▁그다음	-8839
▁그런지	-8840
▁되어야	-8841
▁머리가	-8842
▁방문할	-8843
▁잊어버	-8844
▁커뮤니	-8845
▁태어나	-8846
랐습니다	-8847
하십니까	-8848
gging	-8849
▁pred	-8850
▁강아지를	-8851
▁기쁩니다	-8852
▁누구보다	-8853
▁일본에서	-8854
▁제공하는	-8855
▁지난주에	-8856
▁학생들은	-8857
Excuse	-8858
▁joint	-8859
▁umbre	-8860
licated	-8861
▁exclud	-8862
▁loving	-8863
▁paying	-8864
▁reward	-8865
▁teenag	-8866
fficient	-8867
▁bicycle	-8868
▁laundry	-8869
▁matters	-8870
▁moisture	-8871
▁platform	-8872
▁proposal	-8873
▁discussed	-8874
▁Everything	-8875
▁components	-8876
▁팩	-8877
동이	-8878
명은	-8879
이브	-8880
재를	-8881
▁2.	-8882
▁MO	-8883
▁바보	-8884
▁신선	-8885
▁여권	-8886
▁오기	-8887
▁재활	-8888
▁줘야	-8889
▁지갑	-8890
▁짧은	-8891
▁추석	-8892
▁하던	-8893
▁항목	-8894
금으로	-8895
일까요	-8896
ider	-8897
rial	-8898
▁USD	-8899
▁kit	-8900
▁mir	-8901
▁가족을	-8902
▁금액이	-8903
▁분명히	-8904
▁사용을	-8905
▁서로를	-8906
▁싶었어	-8907
▁알려준	-8908
▁완벽한	-8909
▁위에서	-8910
▁인하여	-8911
▁전부터	-8912
▁티켓을	-8913
▁포함한	-8914
들입니다	-8915
ender	-8916
▁Give	-8917
▁soap	-8918
▁리스트를	-8919
▁사용해요	-8920
이었습니다	-8921
▁categ	-8922
▁plate	-8923
▁seats	-8924
▁weird	-8925
▁알려주시기	-8926
▁제품입니다	-8927
▁희망합니다	-8928
▁autumn	-8929
▁forest	-8930
▁compare	-8931
▁disease	-8932
▁divided	-8933
▁monthly	-8934
▁clothing	-8935
▁families	-8936
▁childhood	-8937
▁sensitive	-8938
▁eventually	-8939
▁phenomenon	-8940
▁photograph	-8941
▁improvement	-8942
▁automatically	-8943
▁벨	-8944
겠죠	-8945
기간	-8946
두고	-8947
'."	-8948
ino	-8949
olm	-8950
orn	-8951
▁건설	-8952
▁구글	-8953
▁깔끔	-8954
▁깨달	-8955
▁다만	-8956
▁독특	-8957
▁물에	-8958
▁미세	-8959
▁믿어	-8960
▁아까	-8961
▁오염	-8962
▁원활	-8963
▁이기	-8964
▁평균	-8965
▁평소	-8966
▁활발	-8967
점으로	-8968
테이너	-8969
mbol	-8970
term	-8971
▁가치를	-8972
▁기술을	-8973
▁나라에	-8974
▁심각한	-8975
▁알려줘	-8976
▁올바른	-8977
icles	-8978
▁nail	-8979
▁노력하고	-8980
▁부탁해요	-8981
▁cargo	-8982
▁graph	-8983
▁river	-8984
▁School	-8985
▁adding	-8986
▁lately	-8987
▁slowly	-8988
▁sounds	-8989
▁clearly	-8990
▁glasses	-8991
▁monitor	-8992
▁pattern	-8993
▁welfare	-8994
▁citizens	-8995
▁tracking	-8996
▁technical	-8997
pa	-8998
리어	-8999
문에	-9000
물의	-9001
적을	-9002
eed	-9003
ids	-9004
▁$1	-9005
▁Ge	-9006
▁감기	-9007
▁그린	-9008
▁늘어	-9009
▁됐어	-9010
▁보인	-9011
▁블록	-9012
▁상징	-9013
▁시내	-9014
▁애니	-9015
▁오토	-9016
▁특이	-9017
▁풀어	-9018
▁협조	-9019
생활을	-9020
유하고	-9021
쳤어요	-9022
▁nur	-9023
▁rib	-9024
▁동아리	-9025
▁아이폰	-9026
▁엄청난	-9027
▁이후로	-9028
▁인생의	-9029
▁중국에	-9030
▁하나는	-9031
해주셔서	-9032
apers	-9033
oogle	-9034
orter	-9035
▁High	-9036
▁push	-9037
▁곳입니다	-9038
▁목요일에	-9039
▁제품으로	-9040
▁초등학교	-9041
ooking	-9042
▁Beach	-9043
▁Lotte	-9044
▁Sorry	-9045
▁absor	-9046
▁brief	-9047
▁lucky	-9048
▁puppy	-9049
▁units	-9050
▁적극적으로	-9051
▁artist	-9052
▁budget	-9053
▁joined	-9054
▁marked	-9055
▁symbol	-9056
▁massage	-9057
▁conflict	-9058
▁signific	-9059
▁umbrella	-9060
▁friendship	-9061
▁맺	-9062
▁쉴	-9063
금은	-9064
나의	-9065
로로	-9066
품이	-9067
Can	-9068
ler	-9069
▁Mo	-9070
▁ju	-9071
▁감독	-9072
▁냉장	-9073
▁다닐	-9074
▁밝은	-9075
▁배터	-9076
▁보자	-9077
▁상의	-9078
▁연극	-9079
▁죽을	-9080
▁줄어	-9081
▁패키	-9082
▁표기	-9083
▁하자	-9084
▁회원	-9085
들보다	-9086
하느라	-9087
fess	-9088
hand	-9089
rics	-9090
▁enh	-9091
▁map	-9092
▁nor	-9093
▁sty	-9094
▁고객님	-9095
▁궁금해	-9096
▁나이가	-9097
▁메이크	-9098
▁문서를	-9099
▁물어보	-9100
▁사랑은	-9101
▁상처를	-9102
▁에어컨	-9103
▁파티에	-9104
erson	-9105
ially	-9106
place	-9107
▁Each	-9108
▁John	-9109
▁cats	-9110
▁eggs	-9111
▁hell	-9112
▁jump	-9113
▁legs	-9114
▁나옵니다	-9115
▁시스템을	-9116
▁일입니다	-9117
▁컨테이너	-9118
▁dilig	-9119
▁frame	-9120
▁plays	-9121
▁trend	-9122
▁absent	-9123
▁drinks	-9124
▁likely	-9125
▁snacks	-9126
▁battery	-9127
▁clients	-9128
▁Children	-9129
▁designer	-9130
▁features	-9131
▁opposite	-9132
▁submitted	-9133
▁permission	-9134
IP	-9135
▁.	-9136
▁낯	-9137
▁눌	-9138
▁맑	-9139
도와	-9140
론을	-9141
색을	-9142
주로	-9143
ido	-9144
▁Sm	-9145
▁bi	-9146
▁당황	-9147
▁될까	-9148
▁렌즈	-9149
▁로봇	-9150
▁맡은	-9151
▁모니	-9152
▁받게	-9153
▁보지	-9154
▁상호	-9155
▁시리	-9156
▁유저	-9157
▁줘요	-9158
▁지정	-9159
▁크고	-9160
▁타임	-9161
▁패턴	-9162
▁화려	-9163
음에도	-9164
인들이	-9165
인에게	-9166
anna	-9167
chan	-9168
▁Hum	-9169
▁rap	-9170
▁내용에	-9171
▁미팅을	-9172
▁이벤트	-9173
▁진정한	-9174
▁효과를	-9175
orage	-9176
▁City	-9177
▁cast	-9178
▁recy	-9179
▁rock	-9180
▁sort	-9181
▁terr	-9182
▁세계에서	-9183
▁이해하고	-9184
▁인보이스	-9185
▁자유롭게	-9186
▁준비하고	-9187
▁해줍니다	-9188
▁blind	-9189
▁crime	-9190
▁lover	-9191
▁lying	-9192
▁pants	-9193
▁정상적으로	-9194
▁assist	-9195
▁crimin	-9196
▁garden	-9197
▁kindly	-9198
▁speech	-9199
▁depends	-9200
▁diverse	-9201
▁growing	-9202
▁printing	-9203
▁tourists	-9204
▁expecting	-9205
▁advantages	-9206
▁attractions	-9207
',	-9208
Ch	-9209
▁닦	-9210
▁던	-9211
셨어	-9212
오니	-9213
웨어	-9214
일까	-9215
▁Br	-9216
▁CO	-9217
▁Pa	-9218
▁cy	-9219
▁긴장	-9220
▁끝났	-9221
▁똑똑	-9222
▁믿을	-9223
▁보게	-9224
▁없었	-9225
▁완전	-9226
▁조각	-9227
▁추구	-9228
▁친척	-9229
▁크림	-9230
▁품목	-9231
▁화를	-9232
시부터	-9233
줬으면	-9234
하니까	-9235
Once	-9236
▁"""	-9237
▁gif	-9238
▁가치가	-9239
▁게다가	-9240
▁기존의	-9241
▁담배를	-9242
▁답변이	-9243
▁당신께	-9244
▁바빠서	-9245
▁받으면	-9246
▁사장님	-9247
▁상태가	-9248
▁얼굴이	-9249
▁엔지니	-9250
▁제외한	-9251
▁준비한	-9252
▁책임을	-9253
▁Send	-9254
▁chan	-9255
▁chos	-9256
▁fear	-9257
▁note	-9258
▁rule	-9259
▁관련해서	-9260
▁날입니다	-9261
▁싫어하는	-9262
▁판매하는	-9263
ession	-9264
▁album	-9265
▁cable	-9266
▁empty	-9267
▁liter	-9268
▁pregn	-9269
▁teeth	-9270
▁부탁드려요	-9271
▁사랑합니다	-9272
▁Manila	-9273
▁beside	-9274
▁branch	-9275
▁expand	-9276
▁jacket	-9277
▁pencil	-9278
▁survey	-9279
▁toilet	-9280
▁모르겠습니다	-9281
▁Company	-9282
▁finding	-9283
▁imagine	-9284
▁property	-9285
▁requires	-9286
▁surround	-9287
▁weakness	-9288
▁Therefore	-9289
▁depressed	-9290
▁establish	-9291
▁graduated	-9292
▁constantly	-9293
▁accommodation	-9294
IS	-9295
▁굳	-9296
▁균	-9297
냐고	-9298
레스	-9299
면이	-9300
속에	-9301
진이	-9302
egr	-9303
gal	-9304
hib	-9305
▁"2	-9306
▁가수	-9307
▁개최	-9308
▁걸려	-9309
▁공개	-9310
▁꿈이	-9311
▁받기	-9312
▁비싼	-9313
▁살았	-9314
▁손에	-9315
▁슈퍼	-9316
▁예측	-9317
▁오렌	-9318
▁잠들	-9319
▁저와	-9320
▁조선	-9321
▁중독	-9322
▁최초	-9323
▁평범	-9324
거에요	-9325
▁ful	-9326
▁mel	-9327
▁shy	-9328
▁그림은	-9329
▁사랑에	-9330
▁사항은	-9331
▁선택할	-9332
▁엄마와	-9333
▁예약이	-9334
▁일어났	-9335
▁피부에	-9336
going	-9337
imate	-9338
ublic	-9339
▁ends	-9340
▁fund	-9341
▁pure	-9342
▁scen	-9343
▁가격으로	-9344
▁가능하면	-9345
▁곳이에요	-9346
▁내일까지	-9347
▁전화번호	-9348
anghai	-9349
inated	-9350
▁sells	-9351
▁serve	-9352
▁모르겠지만	-9353
▁전화번호를	-9354
▁중요하다고	-9355
ciation	-9356
ultural	-9357
▁groups	-9358
▁확인했습니다	-9359
▁arrives	-9360
▁despite	-9361
▁highest	-9362
▁passing	-9363
▁comments	-9364
▁confused	-9365
▁newspaper	-9366
▁밸	-9367
▁쌀	-9368
▁푹	-9369
그렇	-9370
네가	-9371
대요	-9372
렸다	-9373
료는	-9374
봐요	-9375
시험	-9376
튜브	-9377
회의	-9378
001	-9379
nis	-9380
reg	-9381
▁1.	-9382
▁Fl	-9383
▁갔을	-9384
▁건은	-9385
▁떡볶	-9386
▁생선	-9387
▁생성	-9388
▁앞서	-9389
▁중앙	-9390
▁춤을	-9391
▁컨펌	-9392
▁해소	-9393
▁형성	-9394
하자면	-9395
chen	-9396
chol	-9397
oted	-9398
page	-9399
town	-9400
▁jam	-9401
▁wal	-9402
▁가운데	-9403
▁과제를	-9404
▁납니다	-9405
▁능력이	-9406
▁밖에서	-9407
▁선물로	-9408
▁이상이	-9409
▁제품과	-9410
▁직업은	-9411
▁하나가	-9412
하십시오	-9413
imbap	-9414
▁awes	-9415
▁insp	-9416
▁nose	-9417
▁shot	-9418
▁개인적인	-9419
▁되었으면	-9420
▁마음으로	-9421
▁어젯밤에	-9422
▁일어나서	-9423
▁있으시면	-9424
▁판매해요	-9425
▁Their	-9426
▁apple	-9427
▁frust	-9428
▁judge	-9429
▁기대합니다	-9430
▁행복합니다	-9431
▁guests	-9432
▁series	-9433
▁stable	-9434
▁Italian	-9435
▁cheaper	-9436
▁counter	-9437
▁courage	-9438
▁storage	-9439
▁Shanghai	-9440
▁pleasant	-9441
▁shooting	-9442
▁cosmetics	-9443
▁regardless	-9444
Ab	-9445
ij	-9446
▁&	-9447
관계	-9448
국의	-9449
기지	-9450
내고	-9451
류를	-9452
...	-9453
▁강남	-9454
▁공정	-9455
▁공포	-9456
▁남녀	-9457
▁노트	-9458
▁놀이	-9459
▁명확	-9460
▁방지	-9461
▁부착	-9462
▁살이	-9463
▁상승	-9464
▁숙소	-9465
▁스킨	-9466
▁예의	-9467
▁월급	-9468
▁자녀	-9469
▁차례	-9470
▁채워	-9471
낍니다	-9472
Just	-9473
aven	-9474
lear	-9475
▁pow	-9476
▁spl	-9477
▁당연히	-9478
▁먹어야	-9479
▁부산에	-9480
▁상품은	-9481
▁생일을	-9482
▁성격이	-9483
▁우연히	-9484
▁인형을	-9485
▁있었고	-9486
ators	-9487
fered	-9488
ulate	-9489
▁Kang	-9490
▁bags	-9491
▁bear	-9492
▁나에게는	-9493
anging	-9494
▁Paris	-9495
▁eaten	-9496
▁ended	-9497
▁grown	-9498
▁ideal	-9499
▁magaz	-9500
▁names	-9501
▁scary	-9502
▁straw	-9503
▁tests	-9504
▁10,000	-9505
▁chosen	-9506
▁dating	-9507
▁delete	-9508
▁destro	-9509
▁detect	-9510
▁raised	-9511
▁awesome	-9512
▁carried	-9513
▁hearing	-9514
▁mission	-9515
▁univers	-9516
▁소개하겠습니다	-9517
▁buildings	-9518
▁processed	-9519
▁assignment	-9520
▁basketball	-9521
▁contacting	-9522
▁personally	-9523
▁grandfather	-9524
▁perspective	-9525
▁“	-9526
▁닿	-9527
▁묵	-9528
▁벚	-9529
▁을	-9530
▁혁	-9531
그런	-9532
뉴얼	-9533
둘째	-9534
말을	-9535
사랑	-9536
bon	-9537
lim	-9538
▁감각	-9539
▁계신	-9540
▁과제	-9541
▁그들	-9542
▁금지	-9543
▁남성	-9544
▁누워	-9545
▁다루	-9546
▁드러	-9547
▁마침	-9548
▁보안	-9549
▁불이	-9550
▁수익	-9551
▁실천	-9552
▁아닐	-9553
▁외에	-9554
▁유통	-9555
▁이웃	-9556
▁자원	-9557
▁저기	-9558
▁중의	-9559
▁키워	-9560
하셔야	-9561
eing	-9562
know	-9563
▁For	-9564
▁bak	-9565
▁cig	-9566
▁hes	-9567
▁결정을	-9568
▁공간이	-9569
▁관계가	-9570
▁끝나면	-9571
▁대학을	-9572
▁돌아올	-9573
▁모바일	-9574
▁소개할	-9575
▁스페인	-9576
▁싶지만	-9577
▁어려워	-9578
▁없네요	-9579
▁여행이	-9580
▁연락해	-9581
냈습니다	-9582
agram	-9583
iable	-9584
usion	-9585
▁2013	-9586
▁path	-9587
▁brain	-9588
▁cards	-9589
▁click	-9590
▁magic	-9591
▁histor	-9592
▁plenty	-9593
Moreover	-9594
▁degrees	-9595
▁designs	-9596
▁officer	-9597
▁arriving	-9598
▁subjects	-9599
▁accomplish	-9600
▁thoroughly	-9601
▁installation	-9602
▁certification	-9603
NE	-9604
동에	-9605
랫폼	-9606
분은	-9607
화로	-9608
▁고장	-9609
▁마실	-9610
▁맞이	-9611
▁복사	-9612
▁봤을	-9613
▁사서	-9614
▁사촌	-9615
▁서포	-9616
▁실시	-9617
▁야구	-9618
▁열쇠	-9619
▁오해	-9620
▁용서	-9621
▁의뢰	-9622
▁이뤄	-9623
▁이른	-9624
▁일자	-9625
▁읽는	-9626
▁읽을	-9627
▁장점	-9628
▁지지	-9629
된다면	-9630
등학생	-9631
자들의	-9632
해야만	-9633
care	-9634
cles	-9635
days	-9636
ingu	-9637
mony	-9638
onna	-9639
ruct	-9640
▁Tra	-9641
▁ded	-9642
▁led	-9643
▁들어갈	-9644
▁만나지	-9645
▁목표는	-9646
▁받아들	-9647
▁번째는	-9648
▁성격을	-9649
▁성적이	-9650
▁시장에	-9651
▁신발을	-9652
▁아니다	-9653
▁온다면	-9654
▁이처럼	-9655
▁재밌게	-9656
▁전까지	-9657
▁페이팔	-9658
▁회사와	-9659
rible	-9660
▁Call	-9661
▁Talk	-9662
▁lock	-9663
▁moon	-9664
▁pump	-9665
▁걱정하지	-9666
▁느낍니다	-9667
▁말합니다	-9668
▁사진으로	-9669
fessor	-9670
▁civil	-9671
▁pride	-9672
▁subst	-9673
▁trash	-9674
▁보내주시면	-9675
▁생각하세요	-9676
▁친구들에게	-9677
▁cousin	-9678
▁invite	-9679
▁latest	-9680
▁nights	-9681
▁factors	-9682
▁greatly	-9683
▁limited	-9684
▁friendly	-9685
▁guarantee	-9686
▁providing	-9687
▁warehouse	-9688
▁population	-9689
▁throughout	-9690
▁complicated	-9691
Unfortunately	-9692
AS	-9693
TS	-9694
▁젖	-9695
▁햇	-9696
더라	-9697
드의	-9698
문이	-9699
발을	-9700
불어	-9701
트와	-9702
할지	-9703
▁Af	-9704
▁나빠	-9705
▁마이	-9706
▁매달	-9707
▁봐도	-9708
▁브랜	-9709
▁사장	-9710
▁성형	-9711
▁싶기	-9712
▁어두	-9713
▁열정	-9714
▁일도	-9715
▁젊은	-9716
▁착한	-9717
▁출연	-9718
▁출입	-9719
▁하우	-9720
▁향해	-9721
주에서	-9722
aint	-9723
lies	-9724
rink	-9725
▁adm	-9726
▁era	-9727
▁결과는	-9728
▁기간이	-9729
▁남편은	-9730
▁되도록	-9731
▁마스크	-9732
▁메일에	-9733
▁상관없	-9734
▁쇼핑몰	-9735
▁시험이	-9736
▁이용한	-9737
▁자리를	-9738
▁재고가	-9739
▁줬어요	-9740
자들에게	-9741
upper	-9742
vered	-9743
▁adop	-9744
▁fees	-9745
▁sett	-9746
▁거짓말을	-9747
▁공장에서	-9748
▁누구에게	-9749
▁받습니다	-9750
▁인터넷을	-9751
essert	-9752
▁Gwang	-9753
▁adapt	-9754
▁bloss	-9755
▁invol	-9756
▁usual	-9757
▁wanna	-9758
▁resear	-9759
▁volume	-9760
▁waited	-9761
▁Gangnam	-9762
▁dropped	-9763
▁lessons	-9764
▁pleased	-9765
▁actively	-9766
▁ceremony	-9767
▁majoring	-9768
▁uploaded	-9769
▁signature	-9770
▁originally	-9771
ao	-9772
▁숲	-9773
▁층	-9774
▁햄	-9775
▁혈	-9776
▁흑	-9777
가루	-9778
사카	-9779
프가	-9780
oro	-9781
▁Sy	-9782
▁xx	-9783
▁각자	-9784
▁감상	-9785
▁개념	-9786
▁규모	-9787
▁너가	-9788
▁무게	-9789
▁벚꽃	-9790
▁열어	-9791
▁이와	-9792
▁창고	-9793
▁해석	-9794
▁활성	-9795
▁흡수	-9796
킵니다	-9797
otto	-9798
▁Bra	-9799
▁Mus	-9800
▁gap	-9801
▁hop	-9802
▁inj	-9803
▁가보고	-9804
▁대신에	-9805
▁듭니다	-9806
▁밖으로	-9807
▁방으로	-9808
▁변화를	-9809
▁사람도	-9810
▁서류는	-9811
▁손가락	-9812
▁좋았어	-9813
▁쪽에서	-9814
▁체크인	-9815
▁해주고	-9816
기입니다	-9817
arily	-9818
icing	-9819
▁East	-9820
▁chem	-9821
▁coup	-9822
▁logo	-9823
▁것입니까	-9824
▁구체적인	-9825
▁나라에서	-9826
▁부모님께	-9827
▁부정적인	-9828
▁사랑하고	-9829
마지막으로	-9830
▁dolls	-9831
▁motiv	-9832
▁sites	-9833
▁uncle	-9834
▁whose	-9835
▁예상됩니다	-9836
▁프로그램에	-9837
olution	-9838
▁Google	-9839
▁compos	-9840
▁integr	-9841
▁models	-9842
▁fishing	-9843
▁worries	-9844
▁relative	-9845
▁proceeded	-9846
▁established	-9847
32	-9848
AN	-9849
RW	-9850
▁샐	-9851
당한	-9852
매를	-9853
베이	-9854
시로	-9855
웠던	-9856
위는	-9857
Not	-9858
ows	-9859
▁35	-9860
▁가졌	-9861
▁때의	-9862
▁맘에	-9863
▁방이	-9864
▁배고	-9865
▁부여	-9866
▁분실	-9867
▁수집	-9868
▁연휴	-9869
▁이하	-9870
▁칭찬	-9871
▁클릭	-9872
▁태양	-9873
▁통제	-9874
그들은	-9875
기에는	-9876
gage	-9877
ondo	-9878
onst	-9879
ores	-9880
rest	-9881
▁Cho	-9882
▁Jin	-9883
▁muk	-9884
▁sym	-9885
▁감기에	-9886
▁겨울에	-9887
▁공간을	-9888
▁느끼게	-9889
▁느끼는	-9890
▁데리고	-9891
▁말씀해	-9892
▁물건은	-9893
▁실수로	-9894
▁오늘날	-9895
▁이루기	-9896
▁잘하지	-9897
▁적절한	-9898
▁제공해	-9899
▁하도록	-9900
▁해보고	-9901
▁했으면	-9902
▁후에는	-9903
estly	-9904
oices	-9905
▁dram	-9906
▁emph	-9907
▁pron	-9908
▁내일부터	-9909
▁됐습니다	-9910
▁방향으로	-9911
▁이제부터	-9912
atches	-9913
▁award	-9914
▁crazy	-9915
▁leads	-9916
▁prize	-9917
▁upper	-9918
▁시작합니다	-9919
▁싶었습니다	-9920
▁allows	-9921
▁cherry	-9922
▁launch	-9923
▁mainly	-9924
▁theory	-9925
▁covered	-9926
▁enterpr	-9927
▁minimum	-9928
▁welcome	-9929
▁chatting	-9930
▁downtown	-9931
▁presents	-9932
▁celebrate	-9933
▁computers	-9934
▁exhausted	-9935
▁happening	-9936
▁sentences	-9937
▁smartphones	-9938
▁broadcasting	-9939
▁conversations	-9940
70	-9941
An	-9942
Hi	-9943
af	-9944
▁겸	-9945
단에	-9946
선이	-9947
세서	-9948
수에	-9949
스팅	-9950
시켰	-9951
야만	-9952
파크	-9953
dom	-9954
men	-9955
▁hi	-9956
▁거부	-9957
▁공공	-9958
▁달성	-9959
▁담아	-9960
▁대리	-9961
▁리얼	-9962
▁몇몇	-9963
▁사전	-9964
▁시골	-9965
▁싶고	-9966
▁앱을	-9967
▁양해	-9968
▁이모	-9969
▁자존	-9970
▁전망	-9971
▁제목	-9972
▁취직	-9973
▁팀이	-9974
▁해변	-9975
▁현장	-9976
▁현지	-9977
리스트	-9978
하겠다	-9979
해지고	-9980
▁Has	-9981
▁fra	-9982
▁가지게	-9983
▁계정을	-9984
▁금액은	-9985
▁나가서	-9986
▁단어를	-9987
▁된다는	-9988
▁뮤지컬	-9989
▁수량은	-9990
▁신청을	-9991
▁실수를	-9992
▁아이의	-9993
▁안으로	-9994
▁얘기해	-9995
▁에너지	-9996
▁위치한	-9997
▁의미를	-9998
▁이것에	-9999
▁일어날	-10000
▁주문이	-10001
▁주시길	-10002
▁하네요	-10003
▁합시다	-10004
▁흥미를	-10005
inton	-10006
▁Asia	-10007
▁capt	-10008
▁grew	-10009
▁guid	-10010
▁기대하고	-10011
▁분위기를	-10012
▁않았으면	-10013
▁애니메이	-10014
▁자동차를	-10015
▁중요하게	-10016
uclear	-10017
▁court	-10018
▁honor	-10019
▁imple	-10020
▁noise	-10021
▁paste	-10022
▁발생합니다	-10023
▁안녕하세요	-10024
▁우리나라의	-10025
▁좋았습니다	-10026
▁butter	-10027
▁cities	-10028
▁degree	-10029
▁finger	-10030
▁income	-10031
▁thinks	-10032
▁deleted	-10033
▁dessert	-10034
▁somebody	-10035
▁attaching	-10036
▁seriously	-10037
▁translator	-10038
AT	-10039
▁빅	-10040
▁털	-10041
고가	-10042
기술	-10043
르지	-10044
밥을	-10045
준다	-10046
차가	-10047
판을	-10048
환경	-10049
One	-10050
▁36	-10051
▁Os	-10052
▁거주	-10053
▁고용	-10054
▁고쳐	-10055
▁금융	-10056
▁남는	-10057
▁되돌	-10058
▁리뷰	-10059
▁말로	-10060
▁명절	-10061
▁붙여	-10062
▁세워	-10063
▁시민	-10064
▁옷은	-10065
▁찬성	-10066
▁찾기	-10067
▁택배	-10068
▁합리	-10069
▁흔들	-10070
월부터	-10071
eong	-10072
resp	-10073
▁Tae	-10074
▁sin	-10075
▁거래를	-10076
▁다시는	-10077
▁문장을	-10078
▁사랑이	-10079
▁살아요	-10080
▁어제는	-10081
▁언어를	-10082
▁이해를	-10083
▁주문할	-10084
▁지금도	-10085
▁피해를	-10086
▁하나를	-10087
▁호텔을	-10088
해주시면	-10089
iries	-10090
known	-10091
▁drop	-10092
▁fool	-10093
▁gate	-10094
▁pros	-10095
▁만났어요	-10096
▁아니지만	-10097
▁엄청나게	-10098
▁이용하는	-10099
▁화요일에	-10100
overed	-10101
iveness	-10102
▁German	-10103
▁Hanbok	-10104
▁crying	-10105
▁emphas	-10106
▁mechan	-10107
▁placed	-10108
▁senior	-10109
▁shared	-10110
▁signed	-10111
▁unlike	-10112
▁appears	-10113
▁comment	-10114
▁offered	-10115
▁approved	-10116
▁inventory	-10117
▁quotation	-10118
▁teenagers	-10119
▁recognized	-10120
▁preparation	-10121
▁뵙	-10122
▁춥	-10123
고는	-10124
받지	-10125
산에	-10126
살이	-10127
위로	-10128
지털	-10129
티를	-10130
하죠	-10131
함에	-10132
amb	-10133
▁공동	-10134
▁과연	-10135
▁권한	-10136
▁기뻤	-10137
▁깊게	-10138
▁날아	-10139
▁반가	-10140
▁보장	-10141
▁분이	-10142
▁샌드	-10143
▁송부	-10144
▁시행	-10145
▁원본	-10146
▁채널	-10147
▁충전	-10148
▁협력	-10149
고기를	-10150
하여야	-10151
oned	-10152
ushi	-10153
▁Dep	-10154
▁Ear	-10155
▁San	-10156
▁가나요	-10157
▁데려다	-10158
▁설명을	-10159
▁수정된	-10160
▁어쩌면	-10161
▁영화가	-10162
▁은행에	-10163
▁좋아할	-10164
▁해주는	-10165
▁휴식을	-10166
Based	-10167
agues	-10168
aling	-10169
berry	-10170
ellig	-10171
ipped	-10172
▁Come	-10173
▁Love	-10174
▁adap	-10175
▁coin	-10176
▁dawn	-10177
▁lady	-10178
▁neat	-10179
▁끊임없이	-10180
▁병원에서	-10181
▁부드러운	-10182
▁안전하게	-10183
▁진행하는	-10184
▁확인해보	-10185
▁nurse	-10186
▁outdo	-10187
▁rapid	-10188
▁일반적으로	-10189
lection	-10190
ription	-10191
▁expert	-10192
▁houses	-10193
▁minute	-10194
▁concern	-10195
▁mukbang	-10196
▁seafood	-10197
▁texture	-10198
▁creative	-10199
▁continued	-10200
▁searching	-10201
▁commission	-10202
▁engineering	-10203
-1	-10204
▁딜	-10205
명한	-10206
산이	-10207
서와	-10208
May	-10209
cut	-10210
▁Co	-10211
▁EM	-10212
▁구워	-10213
▁급한	-10214
▁기여	-10215
▁나요	-10216
▁노동	-10217
▁눌러	-10218
▁당연	-10219
▁도로	-10220
▁돈은	-10221
▁매장	-10222
▁메모	-10223
▁모른	-10224
▁무사	-10225
▁미용	-10226
▁의한	-10227
▁전송	-10228
▁줄여	-10229
▁책의	-10230
▁팀은	-10231
에게는	-10232
하려는	-10233
했다면	-10234
Inst	-10235
eras	-10236
▁50%	-10237
▁Res	-10238
▁Ste	-10239
▁phr	-10240
▁가게에	-10241
▁가볍게	-10242
▁가져가	-10243
▁계획은	-10244
▁그만큼	-10245
▁났어요	-10246
▁샘플이	-10247
▁싶다고	-10248
▁오사카	-10249
▁올라가	-10250
▁위험한	-10251
▁있을지	-10252
▁주제를	-10253
▁진행을	-10254
▁쪽으로	-10255
▁첨부파	-10256
▁취미는	-10257
▁플랫폼	-10258
▁필요해	-10259
▁한국은	-10260
▁행동은	-10261
▁화장실	-10262
anish	-10263
antic	-10264
▁bull	-10265
▁elev	-10266
▁exit	-10267
▁fold	-10268
▁prec	-10269
▁prop	-10270
▁soul	-10271
▁같은데요	-10272
▁동영상을	-10273
▁만들어요	-10274
▁사이즈가	-10275
▁inner	-10276
▁suits	-10277
▁teams	-10278
▁turns	-10279
▁만들었어요	-10280
iration	-10281
▁bottle	-10282
▁cigare	-10283
▁extend	-10284
▁gained	-10285
▁pocket	-10286
▁wealth	-10287
▁dancing	-10288
▁kitchen	-10289
▁managed	-10290
▁Festival	-10291
▁currency	-10292
▁facility	-10293
▁priority	-10294
▁extremely	-10295
▁increases	-10296
▁pollution	-10297
▁additionally	-10298
ER	-10299
da	-10300
yn	-10301
▁(	-10302
▁꼼	-10303
가로	-10304
게임	-10305
계획	-10306
드려	-10307
해진	-10308
edy	-10309
urb	-10310
▁EX	-10311
▁ly	-10312
▁가자	-10313
▁것만	-10314
▁근육	-10315
▁긴급	-10316
▁길에	-10317
▁날을	-10318
▁내내	-10319
▁데이	-10320
▁마주	-10321
▁멈추	-10322
▁모듈	-10323
▁모아	-10324
▁무역	-10325
▁배치	-10326
▁비록	-10327
▁삶은	-10328
▁설립	-10329
▁영웅	-10330
▁요새	-10331
▁우승	-10332
▁이혼	-10333
▁인연	-10334
▁책이	-10335
▁초에	-10336
▁플라	-10337
▁핵심	-10338
니까요	-10339
되나요	-10340
인데요	-10341
인들은	-10342
arsh	-10343
dule	-10344
▁Two	-10345
▁War	-10346
▁hat	-10347
▁jun	-10348
▁관광객	-10349
▁대단히	-10350
▁똑같이	-10351
▁세계의	-10352
▁쇼핑을	-10353
▁식으로	-10354
▁안전한	-10355
▁열리는	-10356
▁외에도	-10357
▁장점이	-10358
▁전화가	-10359
▁청소를	-10360
▁확인이	-10361
mates	-10362
order	-10363
wondo	-10364
▁fits	-10365
▁hund	-10366
▁yard	-10367
▁간단하게	-10368
▁기본적인	-10369
▁만들어서	-10370
▁보여주고	-10371
▁아닌가요	-10372
▁영수증을	-10373
▁완벽하게	-10374
▁자신감을	-10375
▁체크아웃	-10376
▁bound	-10377
▁diary	-10378
▁maybe	-10379
▁postp	-10380
▁stead	-10381
▁iPhone	-10382
▁noodle	-10383
▁arrival	-10384
▁elderly	-10385
▁falling	-10386
▁hundred	-10387
▁journey	-10388
▁relieve	-10389
▁totally	-10390
▁kindness	-10391
▁inquiries	-10392
▁investment	-10393
▁celebrities	-10394
▁educational	-10395
-2	-10396
▁폰	-10397
겠지	-10398
관리	-10399
들만	-10400
링을	-10401
바로	-10402
부가	-10403
부는	-10404
부의	-10405
사한	-10406
안에	-10407
집을	-10408
해질	-10409
Bes	-10410
bye	-10411
▁PM	-10412
▁Po	-10413
▁tu	-10414
▁감소	-10415
▁고기	-10416
▁납품	-10417
▁내고	-10418
▁대회	-10419
▁도입	-10420
▁디저	-10421
▁떠오	-10422
▁마셔	-10423
▁뭐야	-10424
▁배를	-10425
▁변호	-10426
▁연애	-10427
▁워크	-10428
▁있길	-10429
▁자야	-10430
▁잘해	-10431
▁종료	-10432
▁질병	-10433
▁태권	-10434
그녀는	-10435
되었다	-10436
made	-10437
teok	-10438
▁Bud	-10439
▁fer	-10440
▁soy	-10441
▁것이며	-10442
▁광고를	-10443
▁나누어	-10444
▁냄새가	-10445
▁따르면	-10446
▁뛰어난	-10447
▁발생할	-10448
▁생겨서	-10449
▁신용카	-10450
▁아세요	-10451
▁장소는	-10452
▁지역에	-10453
▁플레이	-10454
▁호텔로	-10455
▁힘들게	-10456
더라고요	-10457
ategy	-10458
riger	-10459
wered	-10460
young	-10461
▁Jeon	-10462
▁nurs	-10463
▁purs	-10464
▁scan	-10465
▁seve	-10466
▁그러니까	-10467
▁않습니까	-10468
▁어떨까요	-10469
▁여러분은	-10470
▁자격증을	-10471
▁좋아해서	-10472
▁지하철을	-10473
▁해결하기	-10474
ousand	-10475
▁Women	-10476
▁schol	-10477
▁suffe	-10478
▁tasty	-10479
▁tooth	-10480
▁wheel	-10481
▁withd	-10482
▁도착했어요	-10483
▁얼마입니까	-10484
▁필리핀에서	-10485
Besides	-10486
▁recent	-10487
▁leading	-10488
▁penalty	-10489
▁smaller	-10490
▁ordering	-10491
▁partners	-10492
▁strategy	-10493
▁reference	-10494
▁attraction	-10495
▁electronic	-10496
▁embarrassed	-10497
▁갤	-10498
▁뚜	-10499
▁섹	-10500
력과	-10501
미널	-10502
분간	-10503
율을	-10504
이번	-10505
질의	-10506
집이	-10507
짜리	-10508
히는	-10509
All	-10510
hee	-10511
ker	-10512
▁DB	-10513
▁거지	-10514
▁괴롭	-10515
▁기름	-10516
▁기사	-10517
▁내리	-10518
▁돼지	-10519
▁들려	-10520
▁말도	-10521
▁블루	-10522
▁세일	-10523
▁수신	-10524
▁시즌	-10525
▁애완	-10526
▁앨범	-10527
▁어깨	-10528
▁오게	-10529
▁유효	-10530
▁입은	-10531
▁정의	-10532
▁종목	-10533
▁중이	-10534
▁첫째	-10535
▁코팅	-10536
▁클래	-10537
▁통보	-10538
▁통역	-10539
▁편지	-10540
▁하셨	-10541
줬어요	-10542
Your	-10543
bies	-10544
eral	-10545
sych	-10546
▁Use	-10547
▁cab	-10548
▁pus	-10549
▁sac	-10550
▁wid	-10551
▁거래처	-10552
▁것이라	-10553
▁그래요	-10554
▁그리스	-10555
▁다행히	-10556
▁뜨거운	-10557
▁마시는	-10558
▁만나면	-10559
▁샌드위	-10560
▁승인을	-10561
▁시작한	-10562
▁여부를	-10563
▁연락할	-10564
▁오류가	-10565
▁유일한	-10566
▁일정은	-10567
▁있네요	-10568
▁직업이	-10569
▁친절한	-10570
▁행동이	-10571
만으로도	-10572
aptop	-10573
attle	-10574
bokki	-10575
▁2012	-10576
▁Brit	-10577
▁argu	-10578
▁garb	-10579
▁loud	-10580
▁pull	-10581
▁사용해야	-10582
▁은행에서	-10583
▁지금부터	-10584
▁케이크를	-10585
▁편입니다	-10586
▁피곤해서	-10587
했었습니다	-10588
▁Osaka	-10589
▁doubt	-10590
▁radio	-10591
▁sympt	-10592
▁상태입니다	-10593
▁업그레이드	-10594
▁gotten	-10595
▁notify	-10596
▁picked	-10597
▁scient	-10598
▁surely	-10599
Nowadays	-10600
▁conclus	-10601
▁vitamin	-10602
▁external	-10603
▁refriger	-10604
▁relevant	-10605
▁operating	-10606
▁potential	-10607
▁generation	-10608
▁leadership	-10609
▁playground	-10610
▁translated	-10611
▁appreciated	-10612
ox	-10613
▁곰	-10614
▁씁	-10615
▁윈	-10616
▁큽	-10617
▁헌	-10618
▁획	-10619
개는	-10620
년을	-10621
댓글	-10622
드민	-10623
멕시	-10624
스틱	-10625
시킨	-10626
용이	-10627
재가	-10628
치게	-10629
포를	-10630
하나	-10631
화는	-10632
화에	-10633
uis	-10634
▁Ho	-10635
▁LA	-10636
▁갈게	-10637
▁감자	-10638
▁개봉	-10639
▁객실	-10640
▁건에	-10641
▁급여	-10642
▁기쁨	-10643
▁라인	-10644
▁미니	-10645
▁샐러	-10646
▁세금	-10647
▁솔루	-10648
▁식품	-10649
▁어땠	-10650
▁이때	-10651
▁인공	-10652
▁진실	-10653
▁진지	-10654
▁진학	-10655
▁취급	-10656
▁희생	-10657
이기도	-10658
empt	-10659
▁150	-10660
▁API	-10661
▁Get	-10662
▁가능할	-10663
▁가지를	-10664
▁구매한	-10665
▁그러한	-10666
▁더불어	-10667
▁들어간	-10668
▁변경된	-10669
▁사진도	-10670
▁사항에	-10671
▁생기면	-10672
▁실력을	-10673
▁아들은	-10674
▁아파트	-10675
▁어려울	-10676
▁인사를	-10677
▁직장을	-10678
▁치료를	-10679
▁필요로	-10680
asion	-10681
heart	-10682
▁liqu	-10683
▁reve	-10684
▁wood	-10685
▁아니라고	-10686
▁않았지만	-10687
▁언제부터	-10688
▁여기에서	-10689
▁한국어를	-10690
▁Afric	-10691
▁booth	-10692
▁evalu	-10693
▁gathe	-10694
▁salad	-10695
▁youth	-10696
▁노력합니다	-10697
▁많았습니다	-10698
Instead	-10699
▁Russia	-10700
▁escape	-10701
▁orange	-10702
▁sleepy	-10703
▁tennis	-10704
▁wallet	-10705
▁baggage	-10706
▁cleaned	-10707
▁earthqu	-10708
▁grilled	-10709
▁vehicle	-10710
▁consists	-10711
▁engineer	-10712
▁gathered	-10713
rimination	-10714
▁consumers	-10715
▁emotional	-10716
IF	-10717
▁덮	-10718
▁빙	-10719
▁뽀	-10720
기만	-10721
란색	-10722
러가	-10723
마를	-10724
물로	-10725
서로	-10726
시안	-10727
▁43	-10728
▁At	-10729
▁CS	-10730
▁OE	-10731
▁Wi	-10732
▁가깝	-10733
▁교회	-10734
▁꿈에	-10735
▁다해	-10736
▁답답	-10737
▁대처	-10738
▁드려	-10739
▁등에	-10740
▁마라	-10741
▁멕시	-10742
▁모여	-10743
▁바랄	-10744
▁삶에	-10745
▁센터	-10746
▁속의	-10747
▁수요	-10748
▁아들	-10749
▁없게	-10750
▁옮겨	-10751
▁잘할	-10752
▁전환	-10753
▁지났	-10754
▁지낼	-10755
▁진출	-10756
▁차단	-10757
▁출신	-10758
▁컨셉	-10759
▁풍경	-10760
▁화학	-10761
되는지	-10762
드민턴	-10763
랐어요	-10764
주시면	-10765
host	-10766
▁400	-10767
▁EMS	-10768
▁gun	-10769
▁mur	-10770
▁가까워	-10771
▁걸어서	-10772
▁나보다	-10773
▁나와서	-10774
▁단순히	-10775
▁도면을	-10776
▁도착한	-10777
▁들어서	-10778
▁디지털	-10779
▁말씀을	-10780
▁맞는지	-10781
▁미래의	-10782
▁미치는	-10783
▁살면서	-10784
▁생활에	-10785
▁세계를	-10786
▁스크린	-10787
▁싶다면	-10788
▁영화에	-10789
▁요금이	-10790
▁의사가	-10791
▁저렴한	-10792
▁학생은	-10793
▁회의를	-10794
겼습니다	-10795
abled	-10796
acity	-10797
idden	-10798
otalk	-10799
▁arts	-10800
▁boat	-10801
▁choo	-10802
▁fulf	-10803
▁가족들이	-10804
▁말이에요	-10805
▁뿐입니다	-10806
▁사랑해요	-10807
▁상황에서	-10808
▁아버지의	-10809
▁좋아하기	-10810
▁편이에요	-10811
받았습니다	-10812
lessly	-10813
▁After	-10814
▁brush	-10815
▁goals	-10816
▁horse	-10817
▁sandw	-10818
▁판매합니다	-10819
▁critic	-10820
▁flavor	-10821
▁laptop	-10822
▁pepper	-10823
▁아르바이트를	-10824
▁century	-10825
▁channel	-10826
▁devices	-10827
▁focused	-10828
▁happier	-10829
▁nuclear	-10830
▁predict	-10831
▁advanced	-10832
▁approxim	-10833
▁attended	-10834
▁intellig	-10835
▁slightly	-10836
▁soldiers	-10837
▁thousand	-10838
▁attendant	-10839
▁performed	-10840
▁Department	-10841
▁processing	-10842
bi	-10843
▁핫	-10844
나무	-10845
보니	-10846
부로	-10847
스턴	-10848
아뇨	-10849
음은	-10850
주신	-10851
jud	-10852
▁LG	-10853
▁그릇	-10854
▁날은	-10855
▁멋있	-10856
▁바빴	-10857
▁바퀴	-10858
▁서명	-10859
▁신호	-10860
▁실례	-10861
▁연속	-10862
▁올리	-10863
▁유감	-10864
▁인지	-10865
▁임신	-10866
▁주어	-10867
▁찍고	-10868
▁채소	-10869
▁취득	-10870
▁통관	-10871
▁편이	-10872
▁표를	-10873
▁피자	-10874
▁할까	-10875
베이터	-10876
소에서	-10877
하시길	-10878
exic	-10879
hold	-10880
iber	-10881
illa	-10882
▁Gre	-10883
▁Pal	-10884
▁Pre	-10885
▁Tur	-10886
▁cow	-10887
▁gar	-10888
▁강력한	-10889
▁걸려요	-10890
▁걸리는	-10891
▁게임은	-10892
▁기뻐요	-10893
▁나라를	-10894
▁독특한	-10895
▁보내야	-10896
▁부끄러	-10897
▁삽니다	-10898
▁아빠가	-10899
▁언제든	-10900
▁옵니다	-10901
▁위치를	-10902
▁일들이	-10903
▁지내는	-10904
▁환경에	-10905
ctors	-10906
enced	-10907
enger	-10908
itate	-10909
iture	-10910
▁flex	-10911
▁hole	-10912
▁rude	-10913
▁runs	-10914
▁것인가요	-10915
▁메이크업	-10916
▁생겼어요	-10917
▁아버지는	-10918
▁아이들과	-10919
▁일어나는	-10920
▁자동으로	-10921
▁저희에게	-10922
minton	-10923
vision	-10924
▁gonna	-10925
▁sushi	-10926
▁긍정적으로	-10927
▁말해주세요	-10928
▁생겼습니다	-10929
▁altern	-10930
▁brands	-10931
▁exclus	-10932
▁fluent	-10933
▁suffer	-10934
▁요청했습니다	-10935
▁Spanish	-10936
▁answers	-10937
▁booking	-10938
▁touched	-10939
▁competit	-10940
▁disaster	-10941
▁interior	-10942
▁powerful	-10943
▁suffered	-10944
▁알려드리겠습니다	-10945
▁animation	-10946
▁component	-10947
▁passionate	-10948
▁comfortably	-10949
▁satisfaction	-10950
45	-10951
▁묘	-10952
▁십	-10953
▁엠	-10954
감과	-10955
다시	-10956
물론	-10957
보면	-10958
분의	-10959
주면	-10960
주지	-10961
쯤에	-10962
하진	-10963
향을	-10964
화의	-10965
gon	-10966
▁LC	-10967
▁Ul	-10968
▁가벼	-10969
▁간편	-10970
▁공무	-10971
▁꽃을	-10972
▁남을	-10973
▁내는	-10974
▁메인	-10975
▁보온	-10976
▁뿐만	-10977
▁사양	-10978
▁성능	-10979
▁소셜	-10980
▁소속	-10981
▁쓰여	-10982
▁얻기	-10983
▁얻은	-10984
▁유기	-10985
▁이쁘	-10986
▁인종	-10987
▁전반	-10988
▁종이	-10989
▁준다	-10990
▁한가	-10991
겼어요	-10992
리에서	-10993
웁니다	-10994
하다가	-10995
하셔서	-10996
했었어	-10997
ancy	-10998
illy	-10999
wise	-11000
▁KRW	-11001
▁wet	-11002
▁가족의	-11003
▁개인의	-11004
▁그들과	-11005
▁달콤한	-11006
▁담당자	-11007
▁말라고	-11008
▁무사히	-11009
▁보내면	-11010
▁비자를	-11011
▁사실은	-11012
▁손으로	-11013
▁조용한	-11014
▁질문이	-11015
▁코드를	-11016
▁판매를	-11017
▁프로필	-11018
useok	-11019
▁Show	-11020
▁arms	-11021
▁beat	-11022
▁gent	-11023
▁ille	-11024
▁thin	-11025
▁만들어진	-11026
▁목적으로	-11027
▁불가능한	-11028
▁사용하면	-11029
▁없습니까	-11030
▁지속해서	-11031
▁Mexic	-11032
▁bloom	-11033
▁brown	-11034
▁contr	-11035
▁incor	-11036
▁input	-11037
▁rainy	-11038
▁tries	-11039
▁valid	-11040
▁사진입니다	-11041
▁스마트폰을	-11042
▁우리나라는	-11043
▁cleans	-11044
▁lights	-11045
▁prompt	-11046
▁retire	-11047
▁analyze	-11048
▁crowded	-11049
▁operate	-11050
▁answered	-11051
▁strongly	-11052
▁accidents	-11053
▁gradually	-11054
▁continuous	-11055
▁efficiency	-11056
▁distribution	-11057
▁circumstances	-11058
▁discrimination	-11059
▁힐	-11060
가격	-11061
국을	-11062
로워	-11063
률이	-11064
배우	-11065
안이	-11066
오고	-11067
집에	-11068
한다	-11069
Kim	-11070
Reg	-11071
ago	-11072
uct	-11073
vin	-11074
zil	-11075
▁"3	-11076
▁BL	-11077
▁PD	-11078
▁답을	-11079
▁대여	-11080
▁댓글	-11081
▁많을	-11082
▁배출	-11083
▁봐서	-11084
▁뿌듯	-11085
▁사망	-11086
▁운임	-11087
▁월드	-11088
▁이겨	-11089
▁촉촉	-11090
구에서	-11091
시간이	-11092
었는지	-11093
abor	-11094
gged	-11095
▁Art	-11096
▁LED	-11097
▁Mom	-11098
▁그것의	-11099
▁노트북	-11100
▁당신네	-11101
▁당신에	-11102
▁먹어도	-11103
▁목적은	-11104
▁문자를	-11105
▁미디어	-11106
▁번호가	-11107
▁변화가	-11108
▁상품의	-11109
▁시간과	-11110
▁싶다는	-11111
▁역사를	-11112
▁음악은	-11113
▁일어난	-11114
▁정보는	-11115
▁준비할	-11116
▁즐기는	-11117
▁처음에	-11118
▁출장을	-11119
▁큽니다	-11120
▁표현을	-11121
▁필요는	-11122
▁하므로	-11123
cient	-11124
gment	-11125
▁Jang	-11126
▁Keep	-11127
▁Shin	-11128
▁boil	-11129
▁init	-11130
▁ment	-11131
▁고양이를	-11132
▁부드럽게	-11133
▁생각에는	-11134
▁스케줄이	-11135
▁쓰레기를	-11136
▁한국어로	-11137
스럽습니다	-11138
▁alive	-11139
▁belly	-11140
▁congr	-11141
▁shock	-11142
▁마찬가지로	-11143
▁보내주시기	-11144
▁사무실에서	-11145
▁얼마인가요	-11146
▁있으신가요	-11147
▁하나입니다	-11148
▁확인했어요	-11149
ittance	-11150
onestly	-11151
▁Center	-11152
▁Market	-11153
▁phones	-11154
▁rental	-11155
▁settle	-11156
▁source	-11157
▁markets	-11158
▁evidence	-11159
▁handling	-11160
▁projects	-11161
ortunately	-11162
▁solutions	-11163
▁colleagues	-11164
▁employment	-11165
▁internship	-11166
▁introduction	-11167
Mr	-11168
PA	-11169
bu	-11170
gs	-11171
~2	-11172
▁띄	-11173
▁쌍	-11174
▁쥐	-11175
니아	-11176
러스	-11177
으시	-11178
쨌든	-11179
탕을	-11180
gen	-11181
uls	-11182
▁개가	-11183
▁결석	-11184
▁교훈	-11185
▁꼼꼼	-11186
▁끝에	-11187
▁날에	-11188
▁많기	-11189
▁무리	-11190
▁믿지	-11191
▁반죽	-11192
▁보람	-11193
▁색을	-11194
▁색이	-11195
▁신속	-11196
▁실내	-11197
▁아웃	-11198
▁연출	-11199
▁왔다	-11200
▁우주	-11201
▁이론	-11202
▁지식	-11203
▁초기	-11204
▁통신	-11205
▁편견	-11206
▁할게	-11207
▁허용	-11208
달러를	-11209
당신의	-11210
Some	-11211
aded	-11212
ager	-11213
aled	-11214
asty	-11215
▁Har	-11216
▁UPS	-11217
▁fro	-11218
▁거리에	-11219
▁기업의	-11220
▁나라는	-11221
▁답장이	-11222
▁돌아갈	-11223
▁모니터	-11224
▁방법에	-11225
▁번호는	-11226
▁봉사활	-11227
▁불편한	-11228
▁사랑할	-11229
▁서류가	-11230
▁않았을	-11231
▁엄마의	-11232
▁올해는	-11233
▁일들을	-11234
▁제공할	-11235
▁조용히	-11236
▁찍어서	-11237
▁평소에	-11238
레이시아	-11239
duces	-11240
fried	-11241
inter	-11242
point	-11243
▁Also	-11244
▁stir	-11245
▁공항으로	-11246
▁노력해야	-11247
▁당신들이	-11248
▁도서관에	-11249
▁배드민턴	-11250
▁부모님의	-11251
▁시작해요	-11252
▁예약하고	-11253
▁외국인이	-11254
▁이름으로	-11255
▁이야기가	-11256
▁인생에서	-11257
▁좋겠네요	-11258
▁준비해야	-11259
engers	-11260
ulated	-11261
▁annoy	-11262
▁prett	-11263
▁psych	-11264
▁sides	-11265
▁strap	-11266
▁truck	-11267
▁기원합니다	-11268
▁세계적으로	-11269
▁추천합니다	-11270
▁Custom	-11271
▁dispos	-11272
▁manner	-11273
▁switch	-11274
▁walked	-11275
▁확인해주세요	-11276
Everyone	-11277
▁congrat	-11278
▁digital	-11279
▁forgive	-11280
▁painful	-11281
▁consumer	-11282
▁creating	-11283
▁diseases	-11284
▁elements	-11285
▁headquar	-11286
▁smoothly	-11287
▁enjoyable	-11288
▁intention	-11289
▁political	-11290
▁relatives	-11291
▁discussing	-11292
▁foundation	-11293
▁industrial	-11294
▁remittance	-11295
▁conditioner	-11296
▁opportunities	-11297
15	-11298
18	-11299
CC	-11300
▁멜	-11301
▁묶	-11302
▁캡	-11303
금액	-11304
돼서	-11305
되며	-11306
로우	-11307
롭고	-11308
리포	-11309
성의	-11310
우면	-11311
우지	-11312
티브	-11313
kin	-11314
wor	-11315
yer	-11316
▁AI	-11317
▁강조	-11318
▁끝날	-11319
▁도망	-11320
▁도울	-11321
▁되니	-11322
▁떠올	-11323
▁많다	-11324
▁미친	-11325
▁배웠	-11326
▁보조	-11327
▁비빔	-11328
▁살기	-11329
▁삶이	-11330
▁시키	-11331
▁써야	-11332
▁연말	-11333
▁오리	-11334
▁이태	-11335
▁찍을	-11336
▁천연	-11337
▁추운	-11338
▁팀원	-11339
▁하실	-11340
▁흰색	-11341
따라서	-11342
볼게요	-11343
었다는	-11344
pack	-11345
reed	-11346
▁198	-11347
▁Dav	-11348
▁Fed	-11349
▁Sky	-11350
▁ine	-11351
▁같다고	-11352
▁교회에	-11353
▁그만두	-11354
▁깨끗한	-11355
▁대중교	-11356
▁대화가	-11357
▁되기를	-11358
▁물어봐	-11359
▁바다를	-11360
▁버스가	-11361
▁생일이	-11362
▁소프트	-11363
▁여유가	-11364
▁영수증	-11365
▁영어는	-11366
▁운동은	-11367
▁이익을	-11368
▁인스타	-11369
▁있는가	-11370
▁자체가	-11371
▁작업은	-11372
▁지원을	-11373
▁찾아가	-11374
▁추억이	-11375
▁친구로	-11376
▁학교는	-11377
▁행복할	-11378
aewon	-11379
▁Look	-11380
▁asso	-11381
▁bowl	-11382
▁cant	-11383
▁hide	-11384
▁susp	-11385
▁wore	-11386
▁다음으로	-11387
▁드라마를	-11388
▁디자인이	-11389
▁부모님과	-11390
▁승무원이	-11391
▁알려주면	-11392
▁이해하지	-11393
▁함께하는	-11394
▁Spain	-11395
▁charm	-11396
▁clock	-11397
▁gifts	-11398
▁reven	-11399
▁stone	-11400
▁엘리베이터	-11401
▁인터넷으로	-11402
ificial	-11403
▁Brazil	-11404
▁Malays	-11405
▁boiled	-11406
▁excess	-11407
▁landsc	-11408
▁mature	-11409
▁square	-11410
Honestly	-11411
▁Chuseok	-11412
▁Western	-11413
▁garbage	-11414
▁systems	-11415
▁tourism	-11416
▁composed	-11417
▁followed	-11418
▁pregnant	-11419
▁princess	-11420
▁Instagram	-11421
▁certainly	-11422
▁estimated	-11423
▁interests	-11424
▁separated	-11425
▁statement	-11426
▁temporary	-11427
▁tradition	-11428
Fortunately	-11429
▁combination	-11430
▁independence	-11431
1,	-11432
IN	-11433
▁낚	-11434
간의	-11435
국제	-11436
력에	-11437
소는	-11438
업에	-11439
와는	-11440
전은	-11441
체가	-11442
체의	-11443
한데	-11444
duc	-11445
lam	-11446
▁Da	-11447
▁Ro	-11448
▁공을	-11449
▁구멍	-11450
▁깊이	-11451
▁끌어	-11452
▁대형	-11453
▁메이	-11454
▁방과	-11455
▁붙어	-11456
▁스캔	-11457
▁승객	-11458
▁신중	-11459
▁않다	-11460
▁없애	-11461
▁와인	-11462
▁용돈	-11463
▁우수	-11464
▁웃는	-11465
▁자살	-11466
▁장기	-11467
▁제어	-11468
▁중단	-11469
▁채용	-11470
▁토론	-11471
▁특허	-11472
▁파손	-11473
▁혜택	-11474
▁흡연	-11475
그런데	-11476
aign	-11477
dies	-11478
▁awk	-11479
▁rub	-11480
▁끝내고	-11481
▁동물을	-11482
▁되어있	-11483
▁마침내	-11484
▁만나자	-11485
▁맥주를	-11486
▁부품을	-11487
▁사용이	-11488
▁아파요	-11489
▁앉아서	-11490
▁얼굴에	-11491
▁영감을	-11492
▁요리는	-11493
▁장비를	-11494
▁장점은	-11495
▁재밌는	-11496
▁전에는	-11497
▁제안을	-11498
▁조언을	-11499
▁즐기고	-11500
▁프라이	-11501
해줍니다	-11502
apped	-11503
icide	-11504
lines	-11505
▁Didn	-11506
▁burn	-11507
▁drug	-11508
▁stew	-11509
▁고등학생	-11510
▁구성되어	-11511
▁생각하면	-11512
▁세계적인	-11513
▁아버지가	-11514
▁어떤가요	-11515
▁영화에서	-11516
▁중심으로	-11517
▁학생들의	-11518
Anyway	-11519
advant	-11520
shaped	-11521
▁2,000	-11522
▁Jeong	-11523
▁Suwon	-11524
▁seven	-11525
▁stamp	-11526
▁theme	-11527
▁누군가에게	-11528
▁대학교에서	-11529
▁만났습니다	-11530
▁음식입니다	-11531
▁anyway	-11532
▁cancer	-11533
▁exists	-11534
▁patent	-11535
▁reject	-11536
▁unable	-11537
▁다녀왔습니다	-11538
▁benefit	-11539
▁exposed	-11540
▁maximum	-11541
▁promote	-11542
▁tuition	-11543
▁affected	-11544
▁audience	-11545
▁distingu	-11546
▁elevator	-11547
▁homepage	-11548
▁replaced	-11549
▁sunlight	-11550
▁terminal	-11551
▁badminton	-11552
▁returning	-11553
▁conclusion	-11554
▁connecting	-11555
▁determined	-11556
▁evaluation	-11557
▁consumption	-11558
경기	-11559
구로	-11560
물과	-11561
운동	-11562
은행	-11563
치기	-11564
통이	-11565
해준	-11566
arp	-11567
elf	-11568
▁Jo	-11569
▁Sc	-11570
▁간절	-11571
▁딸은	-11572
▁리조	-11573
▁명령	-11574
▁뭔지	-11575
▁비누	-11576
▁살짝	-11577
▁설문	-11578
▁세트	-11579
▁수령	-11580
▁숙제	-11581
▁스펙	-11582
▁슬프	-11583
▁여섯	-11584
▁원해	-11585
▁잊고	-11586
▁집단	-11587
▁찍는	-11588
▁차는	-11589
▁철저	-11590
▁쿠폰	-11591
▁팀을	-11592
▁학과	-11593
▁확대	-11594
라이언	-11595
hern	-11596
iant	-11597
rier	-11598
▁Car	-11599
▁Per	-11600
▁Pol	-11601
▁TOE	-11602
▁cas	-11603
▁dur	-11604
▁가끔은	-11605
▁검은색	-11606
▁결혼할	-11607
▁경기가	-11608
▁경기장	-11609
▁고민을	-11610
▁귀사에	-11611
▁귀하의	-11612
▁급하게	-11613
▁김치를	-11614
▁두려워	-11615
▁무조건	-11616
▁문화가	-11617
▁번역을	-11618
▁벗어나	-11619
▁복잡한	-11620
▁상태를	-11621
▁스카이	-11622
▁안타깝	-11623
▁액세서	-11624
▁없었다	-11625
▁이슈가	-11626
▁인생에	-11627
▁있었을	-11628
▁정신이	-11629
▁중으로	-11630
▁편안한	-11631
하였으며	-11632
itter	-11633
▁aunt	-11634
▁furn	-11635
▁pill	-11636
▁symp	-11637
▁virt	-11638
▁wrap	-11639
▁그곳에는	-11640
▁높습니다	-11641
▁모두에게	-11642
▁선생님을	-11643
▁어려워요	-11644
▁이해하는	-11645
▁일반적인	-11646
▁카메라를	-11647
ervice	-11648
▁cried	-11649
▁dough	-11650
▁exams	-11651
▁hello	-11652
▁juice	-11653
▁semin	-11654
▁말레이시아	-11655
▁보여줍니다	-11656
▁친구입니다	-11657
related	-11658
▁assemb	-11659
▁blocks	-11660
▁factor	-11661
▁gentle	-11662
▁awkward	-11663
▁fortune	-11664
▁however	-11665
▁reduced	-11666
▁sticker	-11667
▁testing	-11668
▁노력하겠습니다	-11669
▁achieved	-11670
▁chemical	-11671
▁romantic	-11672
▁behaviors	-11673
▁recognize	-11674
▁schedules	-11675
▁contribute	-11676
▁frustrated	-11677
▁accessories	-11678
AD	-11679
▁?	-11680
▁낸	-11681
▁늙	-11682
▁찌	-11683
고객	-11684
서비	-11685
수로	-11686
씨가	-11687
편에	-11688
col	-11689
uel	-11690
usi	-11691
▁계정	-11692
▁공원	-11693
▁낭비	-11694
▁다를	-11695
▁달이	-11696
▁당사	-11697
▁동성	-11698
▁매번	-11699
▁먹기	-11700
▁밤을	-11701
▁방은	-11702
▁불법	-11703
▁불행	-11704
▁사야	-11705
▁삼촌	-11706
▁상해	-11707
▁섭취	-11708
▁슬픔	-11709
▁아팠	-11710
▁야간	-11711
▁어딘	-11712
▁영혼	-11713
▁와야	-11714
▁왔을	-11715
▁웃고	-11716
▁일치	-11717
▁재생	-11718
▁커서	-11719
▁컨디	-11720
▁파괴	-11721
▁해산	-11722
▁헬스	-11723
▁회계	-11724
거리가	-11725
까지만	-11726
르세요	-11727
이러한	-11728
해보고	-11729
eper	-11730
gers	-11731
lest	-11732
upid	-11733
▁Aut	-11734
▁GMO	-11735
▁Woo	-11736
▁ult	-11737
▁voc	-11738
▁wra	-11739
▁각자의	-11740
▁결제를	-11741
▁경우는	-11742
▁경제적	-11743
▁동영상	-11744
▁매뉴얼	-11745
▁못하게	-11746
▁보냈어	-11747
▁아이는	-11748
▁애플리	-11749
▁연구를	-11750
▁우유를	-11751
▁유튜브	-11752
▁정해진	-11753
▁지식을	-11754
▁차이를	-11755
▁택시를	-11756
▁포함된	-11757
▁하나로	-11758
▁형태로	-11759
시다시피	-11760
iance	-11761
istry	-11762
works	-11763
▁bond	-11764
▁info	-11765
▁leak	-11766
▁onto	-11767
▁stim	-11768
▁나왔어요	-11769
▁당신들의	-11770
▁보였어요	-11771
▁사람들도	-11772
▁사람이야	-11773
▁여름방학	-11774
▁오늘까지	-11775
▁적당량을	-11776
▁중국에서	-11777
Regard	-11778
cience	-11779
isions	-11780
▁bless	-11781
▁catal	-11782
▁dirty	-11783
▁fairy	-11784
▁motto	-11785
▁pasta	-11786
▁react	-11787
▁scale	-11788
▁shops	-11789
▁spare	-11790
▁되겠습니다	-11791
▁아이스크림	-11792
▁프로젝트에	-11793
▁Jackal	-11794
▁bridge	-11795
▁crisis	-11796
▁ignore	-11797
▁killed	-11798
▁superm	-11799
▁Another	-11800
▁cameras	-11801
▁courses	-11802
▁satisfy	-11803
▁sightse	-11804
▁solving	-11805
Sometimes	-11806
▁decrease	-11807
▁reported	-11808
▁terrible	-11809
▁wherever	-11810
▁disadvant	-11811
▁everybody	-11812
▁packaging	-11813
▁paintings	-11814
▁practiced	-11815
▁earthquake	-11816
▁represents	-11817
▁regulations	-11818
▁successfully	-11819
my	-11820
▁꿀	-11821
▁멍	-11822
겹살	-11823
국이	-11824
대학	-11825
봤어	-11826
비에	-11827
사이	-11828
산은	-11829
시설	-11830
역이	-11831
작업	-11832
lig	-11833
▁가만	-11834
▁갖게	-11835
▁결코	-11836
▁고추	-11837
▁공사	-11838
▁구할	-11839
▁나에	-11840
▁높이	-11841
▁대상	-11842
▁로맨	-11843
▁만드	-11844
▁많지	-11845
▁보상	-11846
▁생명	-11847
▁선배	-11848
▁수분	-11849
▁수용	-11850
▁시대	-11851
▁시일	-11852
▁야외	-11853
▁열차	-11854
▁오프	-11855
▁울고	-11856
▁유전	-11857
▁절약	-11858
▁정기	-11859
▁정직	-11860
▁증거	-11861
▁차에	-11862
▁찾지	-11863
▁추진	-11864
▁측면	-11865
▁평화	-11866
네시아	-11867
되어서	-11868
된다고	-11869
자리에	-11870
자마자	-11871
husi	-11872
mate	-11873
ties	-11874
▁Red	-11875
▁가지가	-11876
▁가지는	-11877
▁과거에	-11878
▁기분을	-11879
▁나오지	-11880
▁마이크	-11881
▁멕시코	-11882
▁모델은	-11883
▁문제의	-11884
▁바꾸고	-11885
▁바닥에	-11886
▁박물관	-11887
▁세상이	-11888
▁씁니다	-11889
▁않다고	-11890
▁않을까	-11891
▁예수님	-11892
▁요금은	-11893
▁이루고	-11894
▁자격증	-11895
▁자기가	-11896
▁전달해	-11897
▁주소가	-11898
▁중에는	-11899
▁크기가	-11900
▁특별히	-11901
▁평범한	-11902
▁포인트	-11903
됐습니다	-11904
obile	-11905
▁Time	-11906
▁bean	-11907
▁cott	-11908
▁flat	-11909
▁mode	-11910
▁pair	-11911
▁rode	-11912
▁unex	-11913
▁wise	-11914
▁zone	-11915
▁기다려야	-11916
▁누군가가	-11917
▁만나기로	-11918
▁사람으로	-11919
▁서비스가	-11920
▁이야기는	-11921
▁일상생활	-11922
▁초콜릿을	-11923
▁해수욕장	-11924
▁확인하여	-11925
ongrat	-11926
▁Apple	-11927
▁Doesn	-11928
▁Earth	-11929
▁Human	-11930
▁cloud	-11931
▁entry	-11932
▁fever	-11933
▁immig	-11934
▁innov	-11935
▁polic	-11936
▁slipp	-11937
▁stret	-11938
▁talks	-11939
▁애니메이션	-11940
▁이야기하고	-11941
▁advent	-11942
▁afford	-11943
▁desert	-11944
▁illust	-11945
▁negoti	-11946
▁parcel	-11947
▁plants	-11948
▁remote	-11949
▁severe	-11950
▁threat	-11951
▁불가능합니다	-11952
▁charges	-11953
▁couples	-11954
▁demonst	-11955
▁illegal	-11956
▁options	-11957
▁outdoor	-11958
▁Republic	-11959
▁campaign	-11960
▁happiest	-11961
▁managing	-11962
▁admission	-11963
▁authority	-11964
▁gathering	-11965
▁independent	-11966
▁transaction	-11967
▁transferred	-11968
▁concentration	-11969
▁빗	-11970
▁휘	-11971
겠네	-11972
계가	-11973
끄럽	-11974
년의	-11975
님께	-11976
달에	-11977
라를	-11978
래도	-11979
로에	-11980
말로	-11981
솔직	-11982
여러	-11983
위의	-11984
치에	-11985
터로	-11986
ano	-11987
esh	-11988
ifi	-11989
med	-11990
rif	-11991
zen	-11992
▁SM	-11993
▁건데	-11994
▁결론	-11995
▁기부	-11996
▁나갔	-11997
▁노는	-11998
▁농구	-11999
▁대만	-12000
▁떠날	-12001
▁바나	-12002
▁손상	-12003
▁수상	-12004
▁심한	-12005
▁연필	-12006
▁예배	-12007
▁의지	-12008
▁인테	-12009
▁입는	-12010
▁추출	-12011
▁충족	-12012
▁폐기	-12013
▁해가	-12014
교수님	-12015
시키고	-12016
젠테이	-12017
haps	-12018
irts	-12019
unar	-12020
▁Mil	-12021
▁fry	-12022
▁har	-12023
▁가난한	-12024
▁가지의	-12025
▁감동을	-12026
▁강의를	-12027
▁갖추고	-12028
▁것이다	-12029
▁계약서	-12030
▁고기를	-12031
▁나만의	-12032
▁나오면	-12033
▁나타나	-12034
▁드세요	-12035
▁무서운	-12036
▁뿐이야	-12037
▁사고를	-12038
▁생겼어	-12039
▁성적을	-12040
▁수영을	-12041
▁업로드	-12042
▁옆에서	-12043
▁요즘에	-12044
▁일본은	-12045
▁적합한	-12046
▁주어진	-12047
▁줄어들	-12048
▁치킨을	-12049
▁태어난	-12050
▁파스타	-12051
▁한국과	-12052
▁했나요	-12053
▁현재의	-12054
▁희망을	-12055
봤습니다	-12056
arest	-12057
aries	-12058
▁Jane	-12059
▁Pres	-12060
▁Yong	-12061
▁gram	-12062
▁kiss	-12063
▁노력하는	-12064
▁노력해요	-12065
▁다음에는	-12066
▁부모님을	-12067
▁사이즈를	-12068
▁살아가는	-12069
▁아이템을	-12070
▁얘기하고	-12071
▁여러분이	-12072
▁와이파이	-12073
▁이야기할	-12074
▁있는데요	-12075
▁주었어요	-12076
▁피아노를	-12077
Though	-12078
▁3,000	-12079
▁films	-12080
▁humid	-12081
▁occup	-12082
▁stops	-12083
▁tower	-12084
▁wound	-12085
▁annual	-12086
▁athlet	-12087
▁facial	-12088
▁heaven	-12089
▁listed	-12090
▁offers	-12091
▁secure	-12092
▁stairs	-12093
▁unless	-12094
▁writer	-12095
▁Itaewon	-12096
▁actress	-12097
▁coating	-12098
▁consign	-12099
▁dischar	-12100
▁extract	-12101
▁hanging	-12102
▁noticed	-12103
▁remains	-12104
▁shuttle	-12105
▁Mountain	-12106
▁announce	-12107
▁capacity	-12108
▁choosing	-12109
▁listened	-12110
▁operated	-12111
▁scholars	-12112
▁urgently	-12113
▁organized	-12114
▁standards	-12115
▁artificial	-12116
▁expressing	-12117
▁practicing	-12118
▁suggestion	-12119
▁television	-12120
▁compensation	-12121
▁universities	-12122
▁environmental	-12123
IT	-12124
▁깎	-12125
▁좁	-12126
▁쭉	-12127
▁콩	-12128
값을	-12129
것을	-12130
나를	-12131
데이	-12132
때로	-12133
리러	-12134
우러	-12135
줬어	-12136
지길	-12137
차별	-12138
품은	-12139
해라	-12140
gun	-12141
ils	-12142
▁3,	-12143
▁3.	-12144
▁가로	-12145
▁가보	-12146
▁결합	-12147
▁곁에	-12148
▁구축	-12149
▁끝이	-12150
▁남지	-12151
▁낯선	-12152
▁다리	-12153
▁들여	-12154
▁만일	-12155
▁맞아	-12156
▁발효	-12157
▁설득	-12158
▁세미	-12159
▁세팅	-12160
▁어색	-12161
▁옵션	-12162
▁운행	-12163
▁월미	-12164
▁응답	-12165
▁잊을	-12166
▁재킷	-12167
▁조리	-12168
▁조카	-12169
▁줄일	-12170
▁초과	-12171
▁최신	-12172
▁출력	-12173
▁침대	-12174
▁코스	-12175
▁하느	-12176
▁하얀	-12177
사에게	-12178
이므로	-12179
자들을	-12180
icks	-12181
ived	-12182
name	-12183
yang	-12184
yond	-12185
▁30%	-12186
▁Des	-12187
▁Gal	-12188
▁Ins	-12189
▁Med	-12190
▁tag	-12191
▁unn	-12192
▁가격과	-12193
▁갔다가	-12194
▁과정이	-12195
▁귀사와	-12196
▁나가는	-12197
▁누구도	-12198
▁라디오	-12199
▁말하기	-12200
▁메뉴는	-12201
▁모르고	-12202
▁몰랐어	-12203
▁무서워	-12204
▁브라질	-12205
▁빨간색	-12206
▁사과를	-12207
▁사소한	-12208
▁사실이	-12209
▁생각한	-12210
▁식당은	-12211
▁싶으면	-12212
▁아래에	-12213
▁엄마를	-12214
▁없는지	-12215
▁여성의	-12216
▁열정을	-12217
▁요금을	-12218
▁재료를	-12219
▁좋았을	-12220
▁하거나	-12221
▁화이트	-12222
andom	-12223
osity	-12224
▁blow	-12225
▁cuis	-12226
▁magn	-12227
▁shoe	-12228
▁괜찮다면	-12229
▁기반으로	-12230
▁내년에는	-12231
▁도와주는	-12232
▁들어가는	-12233
▁보내드리	-12234
▁보여주는	-12235
▁비행기가	-12236
▁사용하기	-12237
▁서로에게	-12238
▁시스템에	-12239
▁싫어해요	-12240
▁알아보고	-12241
▁이해하기	-12242
▁인천에서	-12243
▁필요하면	-12244
▁해당하는	-12245
드렸습니다	-12246
▁Other	-12247
▁Tower	-12248
▁aband	-12249
▁draft	-12250
▁ghost	-12251
▁tools	-12252
▁worst	-12253
▁가능합니까	-12254
▁기본적으로	-12255
▁나왔습니다	-12256
▁내부적으로	-12257
▁부족합니다	-12258
▁사이트에서	-12259
▁않겠습니다	-12260
▁요리입니다	-12261
▁인도네시아	-12262
respond	-12263
▁Sejong	-12264
▁agreed	-12265
▁corner	-12266
▁domain	-12267
▁ending	-12268
▁filter	-12269
▁insert	-12270
▁medium	-12271
▁multip	-12272
▁papers	-12273
▁powder	-12274
▁punish	-12275
▁stupid	-12276
▁supple	-12277
▁visual	-12278
▁Indones	-12279
▁aspects	-12280
▁enthusi	-12281
▁freight	-12282
▁largest	-12283
▁profits	-12284
▁recover	-12285
▁carrying	-12286
▁examples	-12287
▁headache	-12288
▁policies	-12289
▁touching	-12290
▁withdraw	-12291
▁workshop	-12292
▁accurately	-12293
▁correspond	-12294
▁passengers	-12295
▁protection	-12296
▁requesting	-12297
▁unexpected	-12298
▁advertising	-12299
▁refrigerator	-12300
ongratulations	-12301
▁administration	-12302
75	-12303
ST	-12304
▁돋	-12305
▁땀	-12306
▁몽	-12307
▁쫓	-12308
▁팁	-12309
라우	-12310
문의	-12311
받아	-12312
사용	-12313
수와	-12314
항공	-12315
asc	-12316
eds	-12317
pop	-12318
ran	-12319
woo	-12320
▁34	-12321
▁Ed	-12322
▁IR	-12323
▁교류	-12324
▁내야	-12325
▁늦을	-12326
▁다소	-12327
▁단백	-12328
▁되게	-12329
▁둘째	-12330
▁목욕	-12331
▁분류	-12332
▁불렀	-12333
▁영문	-12334
▁원칙	-12335
▁유학	-12336
▁인류	-12337
▁점에	-12338
▁제발	-12339
▁종합	-12340
▁지시	-12341
▁창조	-12342
▁쳐다	-12343
▁탑승	-12344
▁했기	-12345
▁확장	-12346
해주면	-12347
etic	-12348
▁20%	-12349
▁600	-12350
▁ASM	-12351
▁Eun	-12352
▁jew	-12353
▁rat	-12354
▁고객을	-12355
▁남자와	-12356
▁다녀온	-12357
▁들어갔	-12358
▁마음의	-12359
▁말하면	-12360
▁미세먼	-12361
▁버스는	-12362
▁보려고	-12363
▁봤는데	-12364
▁사고가	-12365
▁사랑의	-12366
▁사이의	-12367
▁수술을	-12368
▁애완동	-12369
▁원인은	-12370
▁이내에	-12371
▁장소가	-12372
▁절대로	-12373
▁질문을	-12374
▁참여할	-12375
▁축구를	-12376
▁파일로	-12377
되었는지	-12378
셨습니까	-12379
jeong	-12380
ports	-12381
table	-12382
▁Sung	-12383
▁enem	-12384
▁envy	-12385
▁lazy	-12386
▁pink	-12387
▁교수님의	-12388
▁그것들을	-12389
▁기다리는	-12390
▁메시지가	-12391
▁보내주실	-12392
▁분야에서	-12393
▁시장에서	-12394
▁앞으로의	-12395
▁에너지를	-12396
▁필요하지	-12397
ieving	-12398
▁Kyung	-12399
▁cloth	-12400
▁dates	-12401
▁flour	-12402
▁optim	-12403
▁괜찮습니다	-12404
▁오른쪽으로	-12405
▁첨부합니다	-12406
llation	-12407
ression	-12408
▁50,000	-12409
▁fields	-12410
▁hotels	-12411
▁mirror	-12412
▁pursue	-12413
▁invited	-12414
▁parties	-12415
▁protein	-12416
▁raising	-12417
▁records	-12418
▁shipper	-12419
▁streets	-12420
▁concerns	-12421
▁involved	-12422
▁supports	-12423
▁부탁드리겠습니다	-12424
▁extension	-12425
▁mountains	-12426
▁positively	-12427
▁expressions	-12428
▁performances	-12429
▁specifications	-12430
2,	-12431
AP	-12432
Fi	-12433
Is	-12434
OC	-12435
SD	-12436
▁뻔	-12437
▁싼	-12438
놓고	-12439
늦게	-12440
린다	-12441
모델	-12442
세계	-12443
신이	-12444
크를	-12445
mat	-12446
▁Ab	-12447
▁ep	-12448
▁같지	-12449
▁공감	-12450
▁기울	-12451
▁꽃이	-12452
▁꿈꾸	-12453
▁나지	-12454
▁도메	-12455
▁둘이	-12456
▁때나	-12457
▁라고	-12458
▁많았	-12459
▁발명	-12460
▁빵을	-12461
▁세종	-12462
▁수강	-12463
▁오신	-12464
▁온도	-12465
▁윈도	-12466
▁은퇴	-12467
▁이민	-12468
▁자라	-12469
▁장르	-12470
▁좌석	-12471
▁지어	-12472
▁체결	-12473
▁탈출	-12474
▁태풍	-12475
▁터키	-12476
▁특정	-12477
▁행정	-12478
었나요	-12479
인들의	-12480
졌으면	-12481
ibly	-12482
inct	-12483
lete	-12484
rite	-12485
▁Cor	-12486
▁Fil	-12487
▁Rec	-12488
▁anc	-12489
▁yen	-12490
▁간다면	-12491
▁건강이	-12492
▁것인가	-12493
▁기존에	-12494
▁눈으로	-12495
▁다음은	-12496
▁맞춰서	-12497
▁별도로	-12498
▁보내기	-12499
▁상태로	-12500
▁서울의	-12501
▁아이들	-12502
▁아침을	-12503
▁알려져	-12504
▁여자의	-12505
▁여행할	-12506
▁원하고	-12507
▁이들은	-12508
▁조건을	-12509
▁종류가	-12510
▁주제로	-12511
▁줬으면	-12512
▁질문에	-12513
▁찾으러	-12514
▁포스터	-12515
▁표현할	-12516
arter	-12517
olute	-12518
undae	-12519
▁CCTV	-12520
▁Fore	-12521
▁Mich	-12522
▁acts	-12523
▁chef	-12524
▁decl	-12525
▁drew	-12526
▁eats	-12527
▁indo	-12528
▁lies	-12529
▁가게에서	-12530
▁누군가를	-12531
▁대상으로	-12532
▁드릴까요	-12533
▁만들어야	-12534
▁무언가를	-12535
▁편안하게	-12536
▁표현하는	-12537
▁하는데요	-12538
▁basis	-12539
▁menus	-12540
▁renew	-12541
▁roast	-12542
▁robot	-12543
▁socks	-12544
▁tears	-12545
▁tells	-12546
▁weren	-12547
▁남자친구가	-12548
▁무엇보다도	-12549
▁사랑스러운	-12550
▁여자친구가	-12551
▁인터넷에서	-12552
▁필요하다면	-12553
hearted	-12554
quality	-12555
working	-12556
▁Disney	-12557
▁Songdo	-12558
▁actors	-12559
▁earned	-12560
▁emails	-12561
▁joyful	-12562
▁polite	-12563
▁script	-12564
▁strugg	-12565
▁아이스크림을	-12566
▁이야기입니다	-12567
▁cuisine	-12568
▁cutting	-12569
▁seminar	-12570
▁smiling	-12571
▁strateg	-12572
▁upgrade	-12573
▁criminal	-12574
▁disabled	-12575
▁moisturi	-12576
▁abilities	-12577
▁everywhere	-12578
▁proceeding	-12579
▁considerate	-12580
▁institution	-12581
▁sightseeing	-12582
▁architecture	-12583
▁neighborhood	-12584
▁쏟	-12585
▁핀	-12586
겠니	-12587
로가	-12588
비의	-12589
센트	-12590
이건	-12591
졌고	-12592
카락	-12593
agn	-12594
cha	-12595
▁CP	-12596
▁갖다	-12597
▁뒤로	-12598
▁들지	-12599
▁딸을	-12600
▁레벨	-12601
▁무례	-12602
▁무섭	-12603
▁반납	-12604
▁번만	-12605
▁번의	-12606
▁벌어	-12607
▁벽에	-12608
▁불평	-12609
▁새우	-12610
▁색상	-12611
▁소식	-12612
▁송도	-12613
▁승리	-12614
▁심심	-12615
▁안심	-12616
▁예매	-12617
▁위와	-12618
▁유익	-12619
▁입원	-12620
▁주목	-12621
▁토익	-12622
▁편한	-12623
▁휴일	-12624
거예요	-12625
그것은	-12626
되었고	-12627
력으로	-12628
사운드	-12629
속에서	-12630
솔직히	-12631
제품을	-12632
해주신	-12633
fish	-12634
ires	-12635
moon	-12636
▁DVR	-12637
▁Exp	-12638
▁anx	-12639
▁간단히	-12640
▁것이기	-12641
▁경우에	-12642
▁괜찮을	-12643
▁구매를	-12644
▁나아가	-12645
▁날씨는	-12646
▁누구와	-12647
▁데리러	-12648
▁동생이	-12649
▁때때로	-12650
▁매력을	-12651
▁문화에	-12652
▁물품을	-12653
▁뭔가요	-12654
▁바이올	-12655
▁변하지	-12656
▁보여줄	-12657
▁사건이	-12658
▁살아가	-12659
▁유용한	-12660
▁작품은	-12661
▁잤어요	-12662
▁전화해	-12663
▁절차를	-12664
▁준다고	-12665
▁즐거워	-12666
▁첨부한	-12667
▁축하해	-12668
▁친구도	-12669
▁했다고	-12670
▁호텔은	-12671
▁회신을	-12672
ograp	-12673
ulous	-12674
water	-12675
years	-12676
▁Anna	-12677
▁Bang	-12678
▁Sang	-12679
▁anti	-12680
▁coat	-12681
▁ears	-12682
▁fest	-12683
▁iron	-12684
▁mart	-12685
▁prim	-12686
▁sear	-12687
▁건강하게	-12688
▁견적서를	-12689
▁그것들은	-12690
▁대학에서	-12691
▁듣습니다	-12692
▁머리카락	-12693
▁받아들이	-12694
▁선생님의	-12695
▁아무래도	-12696
▁아이들의	-12697
▁알다시피	-12698
▁이것으로	-12699
▁있으니까	-12700
▁카페에서	-12701
▁텔레비전	-12702
▁학생들을	-12703
▁Games	-12704
▁faces	-12705
▁guard	-12706
▁layer	-12707
▁numer	-12708
▁opera	-12709
▁overl	-12710
▁remem	-12711
▁trial	-12712
▁리얼사운드	-12713
▁사용하세요	-12714
▁인스타그램	-12715
▁프레젠테이	-12716
▁학생입니다	-12717
▁ancest	-12718
▁beings	-12719
▁beyond	-12720
▁dramas	-12721
▁hidden	-12722
▁native	-12723
▁refres	-12724
▁skiing	-12725
▁tested	-12726
▁catalog	-12727
▁central	-12728
▁closest	-12729
▁dealing	-12730
▁goodbye	-12731
▁motorcy	-12732
▁printed	-12733
▁sincere	-12734
▁recorded	-12735
▁repeated	-12736
▁shoulder	-12737
▁talented	-12738
▁collected	-12739
▁encourage	-12740
▁luxurious	-12741
▁discussion	-12742
▁historical	-12743
▁supporting	-12744
▁corporation	-12745
▁cancellation	-12746
▁consultation	-12747
▁requirements	-12748
▁investigation	-12749
19	-12750
ks	-12751
▁꽉	-12752
▁떼	-12753
▁캔	-12754
개로	-12755
단이	-12756
드와	-12757
세가	-12758
셔츠	-12759
임이	-12760
켓을	-12761
테일	-12762
할까	-12763
호텔	-12764
iam	-12765
nic	-12766
omy	-12767
▁El	-12768
▁IC	-12769
▁VR	-12770
▁가본	-12771
▁귀사	-12772
▁깨닫	-12773
▁납기	-12774
▁맡겨	-12775
▁모자	-12776
▁발휘	-12777
▁보라	-12778
▁부를	-12779
▁불을	-12780
▁소유	-12781
▁스노	-12782
▁스미	-12783
▁스웨	-12784
▁스피	-12785
▁신분	-12786
▁신혼	-12787
▁실용	-12788
▁싱글	-12789
▁임시	-12790
▁차로	-12791
▁카톡	-12792
▁틀림	-12793
면서도	-12794
쪽에서	-12795
픕니다	-12796
Here	-12797
Talk	-12798
bits	-12799
rows	-12800
tery	-12801
▁Add	-12802
▁Fam	-12803
▁Hae	-12804
▁amb	-12805
▁eth	-12806
▁tur	-12807
▁vir	-12808
▁감정이	-12809
▁그림이	-12810
▁당분간	-12811
▁대화할	-12812
▁디즈니	-12813
▁말아야	-12814
▁방향을	-12815
▁사회에	-12816
▁안에는	-12817
▁없는데	-12818
▁예약한	-12819
▁원인을	-12820
▁이사를	-12821
▁자유를	-12822
▁적당한	-12823
▁카드로	-12824
▁하시는	-12825
▁학생의	-12826
▁확인한	-12827
▁활성화	-12828
▁회사로	-12829
들이에요	-12830
사입니다	-12831
시킵니다	-12832
vents	-12833
▁Bank	-12834
▁Budd	-12835
▁Sant	-12836
▁sets	-12837
▁건강하고	-12838
▁것이라는	-12839
▁그중에서	-12840
▁담당자가	-12841
▁맞습니다	-12842
▁발생하지	-12843
▁분위기가	-12844
▁사이트에	-12845
▁사회에서	-12846
▁아프리카	-12847
▁않는다고	-12848
▁알려주길	-12849
▁여기까지	-12850
▁우편으로	-12851
▁친절하게	-12852
▁판매하고	-12853
Unlike	-12854
araoke	-12855
rition	-12856
▁Elect	-12857
▁drawn	-12858
▁humor	-12859
▁micro	-12860
▁recru	-12861
▁stuck	-12862
▁다녀왔어요	-12863
▁도와주세요	-12864
▁방법입니다	-12865
▁생각이에요	-12866
▁주겠습니다	-12867
▁Museum	-12868
▁flying	-12869
▁fourth	-12870
▁golden	-12871
▁hiking	-12872
▁incred	-12873
▁lyrics	-12874
▁motion	-12875
▁nobody	-12876
▁sensor	-12877
▁strict	-12878
▁Daejeon	-12879
▁alright	-12880
▁moments	-12881
▁obvious	-12882
▁reached	-12883
▁reminds	-12884
▁resolve	-12885
▁fighting	-12886
▁hardship	-12887
▁lectures	-12888
▁machines	-12889
▁magazine	-12890
▁religion	-12891
▁stronger	-12892
▁Kakaotalk	-12893
▁correctly	-12894
▁existence	-12895
▁furniture	-12896
▁incorrect	-12897
▁presented	-12898
▁principle	-12899
▁published	-12900
▁profession	-12901
▁relatively	-12902
▁effectively	-12903
▁imagination	-12904
▁individuals	-12905
▁significant	-12906
.3	-12907
16	-12908
DP	-12909
ID	-12910
Sh	-12911
Us	-12912
▁둔	-12913
가의	-12914
건을	-12915
국에	-12916
둘러	-12917
들께	-12918
방에	-12919
버를	-12920
아래	-12921
어에	-12922
어의	-12923
였던	-12924
주실	-12925
타운	-12926
프는	-12927
해줘	-12928
ado	-12929
isy	-12930
omb	-12931
pal	-12932
▁CR	-12933
▁Ms	-12934
▁Na	-12935
▁고대	-12936
▁관찰	-12937
▁넘게	-12938
▁뉴질	-12939
▁덜어	-12940
▁도둑	-12941
▁무한	-12942
▁바비	-12943
▁비롯	-12944
▁사기	-12945
▁상기	-12946
▁설레	-12947
▁아동	-12948
▁알바	-12949
▁여겨	-12950
▁와요	-12951
▁위협	-12952
▁유아	-12953
▁이젠	-12954
▁인물	-12955
▁일만	-12956
▁입사	-12957
▁자본	-12958
▁자서	-12959
▁장착	-12960
▁재학	-12961
▁절반	-12962
▁정거	-12963
▁죽은	-12964
▁지각	-12965
▁지는	-12966
▁지적	-12967
▁최적	-12968
▁추측	-12969
▁하길	-12970
▁획득	-12971
년부터	-12972
오늘은	-12973
ades	-12974
cies	-12975
ette	-12976
rian	-12977
wide	-12978
▁Cal	-12979
▁Jae	-12980
▁Jun	-12981
▁Men	-12982
▁gor	-12983
▁mut	-12984
▁pic	-12985
▁tor	-12986
▁갔었어	-12987
▁결과에	-12988
▁교통사	-12989
▁기계를	-12990
▁기술이	-12991
▁노력이	-12992
▁로그인	-12993
▁마사지	-12994
▁만났어	-12995
▁만났을	-12996
▁배송을	-12997
▁분야에	-12998
▁사건을	-12999
▁새롭게	-13000
▁시간도	-13001
▁신선한	-13002
▁심하게	-13003
▁않았고	-13004
▁업무에	-13005
▁오기를	-13006
▁인해서	-13007
▁일해요	-13008
▁있다가	-13009
▁자료가	-13010
▁지금의	-13011
▁지나가	-13012
▁지역의	-13013
▁진행될	-13014
▁첨부된	-13015
▁최소한	-13016
▁프로모	-13017
Could	-13018
anges	-13019
lling	-13020
myeon	-13021
tered	-13022
▁Taek	-13023
▁chew	-13024
▁gall	-13025
▁grab	-13026
▁weap	-13027
▁도착하지	-13028
▁따뜻하게	-13029
▁목소리를	-13030
▁샀습니다	-13031
▁상관없이	-13032
▁생각하기	-13033
▁아시나요	-13034
▁외국인과	-13035
▁자신감이	-13036
ynasty	-13037
▁TOEIC	-13038
▁rains	-13039
▁recyc	-13040
▁scent	-13041
▁sharp	-13042
▁shirt	-13043
▁가능할까요	-13044
▁문제입니다	-13045
▁얻었습니다	-13046
▁학생들에게	-13047
▁회사입니다	-13048
▁addict	-13049
▁brings	-13050
▁caring	-13051
▁compar	-13052
▁compat	-13053
▁cotton	-13054
▁coupon	-13055
▁exceed	-13056
▁former	-13057
▁packed	-13058
▁prince	-13059
▁prohib	-13060
▁saving	-13061
▁temple	-13062
▁valley	-13063
▁victim	-13064
together	-13065
▁manners	-13066
▁painted	-13067
▁turning	-13068
▁charming	-13069
▁focusing	-13070
▁meetings	-13071
▁patterns	-13072
▁visitors	-13073
▁generally	-13074
▁interpret	-13075
▁landscape	-13076
▁complaints	-13077
▁directions	-13078
▁popularity	-13079
▁assignments	-13080
▁competitive	-13081
▁disappeared	-13082
▁electricity	-13083
▁manufactured	-13084
▁manufacturer	-13085
,"	-13086
IM	-13087
Oh	-13088
▁겹	-13089
▁냈	-13090
▁셰	-13091
날에	-13092
달을	-13093
던데	-13094
되길	-13095
불을	-13096
비용	-13097
서류	-13098
서의	-13099
시죠	-13100
왠지	-13101
요청	-13102
음에	-13103
판에	-13104
형이	-13105
Pal	-13106
ael	-13107
box	-13108
ien	-13109
ipe	-13110
uts	-13111
whe	-13112
zed	-13113
zer	-13114
▁강림	-13115
▁강원	-13116
▁골라	-13117
▁굳이	-13118
▁나눌	-13119
▁마법	-13120
▁머릿	-13121
▁메세	-13122
▁무릎	-13123
▁문장	-13124
▁물질	-13125
▁민감	-13126
▁번거	-13127
▁보완	-13128
▁상업	-13129
▁서서	-13130
▁셔틀	-13131
▁소화	-13132
▁쉽고	-13133
▁원산	-13134
▁의존	-13135
▁이슬	-13136
▁있나	-13137
▁자식	-13138
▁타면	-13139
▁탄생	-13140
▁펼쳐	-13141
▁한정	-13142
▁해준	-13143
▁햇빛	-13144
되기를	-13145
드리며	-13146
에서만	-13147
해줄게	-13148
hens	-13149
raft	-13150
utor	-13151
vest	-13152
▁Reg	-13153
▁den	-13154
▁vib	-13155
▁결제가	-13156
▁관리를	-13157
▁기능은	-13158
▁노래가	-13159
▁다리를	-13160
▁돌아와	-13161
▁마스터	-13162
▁모델을	-13163
▁못했어	-13164
▁반대로	-13165
▁변경이	-13166
▁보인다	-13167
▁사전에	-13168
▁성공을	-13169
▁성과를	-13170
▁신경을	-13171
▁싶네요	-13172
▁아프지	-13173
▁안내해	-13174
▁없도록	-13175
▁여기가	-13176
▁온다고	-13177
▁왔으면	-13178
▁입장을	-13179
▁자료는	-13180
▁중국어	-13181
▁지키지	-13182
▁찾아보	-13183
▁축제가	-13184
▁통화를	-13185
▁하나만	-13186
▁환불을	-13187
원이에요	-13188
icago	-13189
proof	-13190
▁Baek	-13191
▁Both	-13192
▁Zeal	-13193
▁diam	-13194
▁idol	-13195
▁soju	-13196
▁soph	-13197
▁갔었어요	-13198
▁났습니다	-13199
▁만들었어	-13200
▁말하자면	-13201
▁모습으로	-13202
▁바이올린	-13203
▁사용되는	-13204
▁사용해서	-13205
▁생각하며	-13206
▁않았나요	-13207
▁앞으로는	-13208
▁여자들은	-13209
▁요즘에는	-13210
▁자신에게	-13211
▁전화해서	-13212
▁추천해요	-13213
▁행복하고	-13214
People	-13215
enance	-13216
▁Happy	-13217
▁alarm	-13218
▁forms	-13219
▁jewel	-13220
▁rates	-13221
▁shoot	-13222
▁skirt	-13223
▁unfor	-13224
▁wrink	-13225
▁hearts	-13226
▁module	-13227
▁parent	-13228
▁passes	-13229
▁phrase	-13230
▁rarely	-13231
▁scenes	-13232
▁British	-13233
▁Zealand	-13234
▁chances	-13235
▁counsel	-13236
▁housing	-13237
▁objects	-13238
▁seasons	-13239
▁기다리겠습니다	-13240
▁absolute	-13241
▁identity	-13242
▁searched	-13243
▁surprise	-13244
▁construct	-13245
▁producing	-13246
▁reviewing	-13247
▁supported	-13248
▁attachment	-13249
▁designated	-13250
▁ingredient	-13251
▁physically	-13252
▁inconvenient	-13253
▁volunteering	-13254
BA	-13255
▁놔	-13256
▁랩	-13257
▁썰	-13258
▁짝	-13259
▁캘	-13260
▁컸	-13261
과를	-13262
구의	-13263
나도	-13264
량은	-13265
르기	-13266
미터	-13267
선수	-13268
시지	-13269
아가	-13270
어져	-13271
으신	-13272
줄게	-13273
하라	-13274
학적	-13275
해지	-13276
des	-13277
hew	-13278
ius	-13279
lin	-13280
▁La	-13281
▁가죽	-13282
▁결심	-13283
▁곤란	-13284
▁구두	-13285
▁김밥	-13286
▁꺼내	-13287
▁놀아	-13288
▁드레	-13289
▁떠난	-13290
▁로마	-13291
▁만화	-13292
▁모래	-13293
▁무너	-13294
▁버려	-13295
▁비정	-13296
▁스테	-13297
▁연관	-13298
▁이룰	-13299
▁이별	-13300
▁좌우	-13301
▁청년	-13302
▁초록	-13303
▁최선	-13304
▁치고	-13305
▁코드	-13306
▁표준	-13307
▁한복	-13308
사항을	-13309
이네요	-13310
적이지	-13311
wear	-13312
weed	-13313
yung	-13314
▁000	-13315
▁250	-13316
▁Haw	-13317
▁Spr	-13318
▁Sum	-13319
▁kne	-13320
▁pra	-13321
▁sou	-13322
▁yog	-13323
▁가게는	-13324
▁거리를	-13325
▁그래야	-13326
▁기간을	-13327
▁되는데	-13328
▁되세요	-13329
▁되었을	-13330
▁떨어진	-13331
▁문제점	-13332
▁번이나	-13333
▁별도의	-13334
▁보았다	-13335
▁사업에	-13336
▁소개를	-13337
▁않네요	-13338
▁예쁘게	-13339
▁오더를	-13340
▁우산을	-13341
▁원활한	-13342
▁위해선	-13343
▁장난감	-13344
▁지난주	-13345
▁진행이	-13346
▁찾아서	-13347
▁터미널	-13348
▁하늘을	-13349
▁하루가	-13350
▁함께할	-13351
▁현상이	-13352
▁확실한	-13353
시겠지만	-13354
하겠어요	-13355
해주시길	-13356
based	-13357
class	-13358
ecess	-13359
outer	-13360
venir	-13361
▁Hyun	-13362
▁euro	-13363
▁laun	-13364
▁race	-13365
▁강아지는	-13366
▁공부해서	-13367
▁많았어요	-13368
▁미국으로	-13369
▁보고서를	-13370
▁부릅니다	-13371
▁생각했어	-13372
▁엄마에게	-13373
▁여행하는	-13374
▁이용하고	-13375
▁이용하면	-13376
▁있었지만	-13377
▁조건으로	-13378
▁좋을까요	-13379
▁준비하는	-13380
▁진행되고	-13381
▁포인트를	-13382
▁accum	-13383
▁cakes	-13384
▁corre	-13385
▁medal	-13386
▁oblig	-13387
▁pharm	-13388
▁shrim	-13389
▁내용입니다	-13390
▁이유입니다	-13391
▁조심하세요	-13392
▁효율적으로	-13393
▁Indian	-13394
▁begins	-13395
▁errors	-13396
▁excuse	-13397
▁hardly	-13398
▁mental	-13399
▁unfair	-13400
▁발견했습니다	-13401
▁아름답습니다	-13402
▁colored	-13403
▁herself	-13404
▁hobbies	-13405
▁leather	-13406
▁matches	-13407
▁organiz	-13408
▁sisters	-13409
▁suicide	-13410
▁cosmetic	-13411
▁prevents	-13412
▁reaction	-13413
▁software	-13414
▁souvenir	-13415
▁supplied	-13416
▁troubles	-13417
▁violence	-13418
▁Christian	-13419
▁clearance	-13420
▁Vietnamese	-13421
▁accounting	-13422
▁procedures	-13423
▁maintenance	-13424
▁outstanding	-13425
▁scholarship	-13426
▁intelligence	-13427
▁entertainment	-13428
▁characteristic	-13429
▁Congratulations	-13430
43	-13431
BS	-13432
TM	-13433
▁/	-13434
▁댄	-13435
▁멸	-13436
▁텍	-13437
▁틈	-13438
갈비	-13439
관의	-13440
그가	-13441
글쎄	-13442
기업	-13443
나라	-13444
마디	-13445
미디	-13446
버거	-13447
보단	-13448
세기	-13449
소의	-13450
아를	-13451
엄마	-13452
우기	-13453
월이	-13454
유를	-13455
하곤	-13456
하루	-13457
Des	-13458
Hey	-13459
hab	-13460
jun	-13461
pen	-13462
yst	-13463
▁32	-13464
▁FO	-13465
▁Ne	-13466
▁가상	-13467
▁간직	-13468
▁동기	-13469
▁목숨	-13470
▁무의	-13471
▁보습	-13472
▁부딪	-13473
▁불쾌	-13474
▁샀어	-13475
▁속상	-13476
▁시카	-13477
▁식물	-13478
▁신입	-13479
▁실력	-13480
▁암호	-13481
▁양이	-13482
▁얻고	-13483
▁에센	-13484
▁유발	-13485
▁유의	-13486
▁응급	-13487
▁이러	-13488
▁이렇	-13489
▁인내	-13490
▁임대	-13491
▁입어	-13492
▁적혀	-13493
▁조작	-13494
▁주도	-13495
▁지니	-13496
▁짜증	-13497
▁처벌	-13498
▁카탈	-13499
▁태워	-13500
▁학원	-13501
면으로	-13502
시간에	-13503
주시기	-13504
학과에	-13505
▁Bel	-13506
▁OEM	-13507
▁ble	-13508
▁fal	-13509
▁fif	-13510
▁nar	-13511
▁row	-13512
▁rum	-13513
▁가기로	-13514
▁공부에	-13515
▁기차를	-13516
▁나누고	-13517
▁대단한	-13518
▁들었다	-13519
▁마시면	-13520
▁모델의	-13521
▁뭐예요	-13522
▁믿어요	-13523
▁바라는	-13524
▁받았다	-13525
▁변경할	-13526
▁보내요	-13527
▁분위기	-13528
▁서둘러	-13529
▁수정할	-13530
▁시원한	-13531
▁시험에	-13532
▁신뢰를	-13533
▁아닌지	-13534
▁아빠는	-13535
▁언니가	-13536
▁용기를	-13537
▁인기를	-13538
▁있음을	-13539
▁좋네요	-13540
▁지갑을	-13541
▁티셔츠	-13542
▁하기로	-13543
▁해결해	-13544
▁화려한	-13545
▁힘들고	-13546
지입니다	-13547
iques	-13548
ivals	-13549
orced	-13550
▁Good	-13551
▁Hope	-13552
▁Jose	-13553
▁Next	-13554
▁Wang	-13555
▁Wind	-13556
▁Wolm	-13557
▁Yang	-13558
▁bare	-13559
▁belt	-13560
▁깨끗하게	-13561
▁다운로드	-13562
▁당신과의	-13563
▁대표하는	-13564
▁돌아오는	-13565
▁못하지만	-13566
▁믿습니다	-13567
▁브랜드를	-13568
▁소개하고	-13569
▁어려움을	-13570
▁요구하는	-13571
▁존경하는	-13572
▁주실래요	-13573
▁피곤해요	-13574
▁후회하지	-13575
ansion	-13576
ipping	-13577
itting	-13578
▁Chung	-13579
▁Think	-13580
▁dried	-13581
▁genre	-13582
▁irrit	-13583
▁nutri	-13584
▁presc	-13585
▁south	-13586
▁구체적으로	-13587
▁상황입니다	-13588
▁좋아하지만	-13589
Firstly	-13590
amiliar	-13591
ibimbap	-13592
▁PayPal	-13593
▁Valent	-13594
▁breath	-13595
▁circle	-13596
▁execut	-13597
▁fought	-13598
▁fundam	-13599
▁lawyer	-13600
▁posted	-13601
▁prejud	-13602
▁vision	-13603
friendly	-13604
▁besides	-13605
▁command	-13606
▁lightly	-13607
▁precise	-13608
▁European	-13609
▁academic	-13610
▁believed	-13611
▁organize	-13612
ifications	-13613
▁Taekwondo	-13614
▁corrected	-13615
▁festivals	-13616
▁workplace	-13617
▁calculated	-13618
▁enterprise	-13619
▁regulation	-13620
▁distinguish	-13621
▁introducing	-13622
▁recognition	-13623
▁experiencing	-13624
▁participation	-13625
IA	-13626
RE	-13627
▁끄	-13628
▁칸	-13629
▁핑	-13630
같은	-13631
는가	-13632
다만	-13633
독교	-13634
등이	-13635
바닥	-13636
스티	-13637
실례	-13638
인트	-13639
판이	-13640
했다	-13641
Sir	-13642
bec	-13643
eem	-13644
lom	-13645
mal	-13646
vis	-13647
▁Ok	-13648
▁er	-13649
▁ge	-13650
▁개는	-13651
▁계곡	-13652
▁금연	-13653
▁나름	-13654
▁너에	-13655
▁널리	-13656
▁노인	-13657
▁더운	-13658
▁마리	-13659
▁부평	-13660
▁불어	-13661
▁서양	-13662
▁섹시	-13663
▁소파	-13664
▁손톱	-13665
▁순수	-13666
▁슬픈	-13667
▁얻는	-13668
▁열이	-13669
▁운이	-13670
▁원인	-13671
▁유머	-13672
▁정정	-13673
▁주택	-13674
▁줄을	-13675
▁책상	-13676
▁체계	-13677
▁추워	-13678
▁하이	-13679
▁흘러	-13680
까지의	-13681
시간을	-13682
역으로	-13683
이어서	-13684
했으니	-13685
Most	-13686
bble	-13687
bing	-13688
chon	-13689
xual	-13690
▁Seo	-13691
▁Ser	-13692
▁ack	-13693
▁tip	-13694
▁가만히	-13695
▁갑시다	-13696
▁공장에	-13697
▁들으면	-13698
▁미끄러	-13699
▁밤에는	-13700
▁봅시다	-13701
▁사용자	-13702
▁사회의	-13703
▁새벽에	-13704
▁실시간	-13705
▁아쉬워	-13706
▁아직은	-13707
▁여자와	-13708
▁영어에	-13709
▁오시면	-13710
▁의미는	-13711
▁일하러	-13712
▁재활용	-13713
▁찾아야	-13714
▁키우는	-13715
▁피곤해	-13716
▁형태의	-13717
스러워요	-13718
Honey	-13719
bered	-13720
ijing	-13721
isure	-13722
rical	-13723
umber	-13724
▁Choi	-13725
▁Yeon	-13726
▁Yoon	-13727
▁crew	-13728
▁kick	-13729
▁lend	-13730
▁nine	-13731
▁phil	-13732
▁plug	-13733
▁pour	-13734
▁rise	-13735
▁wave	-13736
▁근처에서	-13737
▁다이어트	-13738
▁돌아다니	-13739
▁동일하게	-13740
▁들었는데	-13741
▁맛있어요	-13742
▁번째로는	-13743
▁상대방의	-13744
▁시스템이	-13745
▁시작하는	-13746
▁않는다는	-13747
▁연락하는	-13748
▁운영하는	-13749
▁움직이는	-13750
▁인천공항	-13751
▁일합니다	-13752
▁주문하고	-13753
▁지불해야	-13754
▁하더라도	-13755
▁하루하루	-13756
actory	-13757
cerity	-13758
▁David	-13759
▁bills	-13760
▁eight	-13761
▁meets	-13762
▁spoon	-13763
▁subsc	-13764
▁가겠습니다	-13765
▁목표입니다	-13766
▁발견했어요	-13767
▁보겠습니다	-13768
▁생각합니까	-13769
▁시작됩니다	-13770
▁어디인가요	-13771
▁요청했어요	-13772
▁친구들이랑	-13773
▁한국에서는	-13774
▁Comple	-13775
▁Palace	-13776
▁carbon	-13777
▁pronun	-13778
▁twenty	-13779
▁violin	-13780
▁애플리케이션	-13781
▁Beijing	-13782
▁Chicago	-13783
▁Olympic	-13784
▁Russian	-13785
▁Service	-13786
▁absence	-13787
▁artists	-13788
▁attempt	-13789
▁briefly	-13790
▁creates	-13791
▁dressed	-13792
▁failure	-13793
▁heating	-13794
▁majored	-13795
▁nearest	-13796
▁removed	-13797
▁singers	-13798
▁arranged	-13799
▁collabor	-13800
▁forecast	-13801
▁interact	-13802
▁afterward	-13803
▁defective	-13804
▁departure	-13805
▁forgotten	-13806
▁honeymoon	-13807
▁unfamiliar	-13808
17	-13809
5%	-13810
MA	-13811
ja	-13812
yu	-13813
▁샵	-13814
▁윗	-13815
간에	-13816
년도	-13817
득이	-13818
들어	-13819
배송	-13820
상품	-13821
설을	-13822
션에	-13823
시장	-13824
왔던	-13825
유로	-13826
작용	-13827
주와	-13828
체에	-13829
크림	-13830
킹을	-13831
확인	-13832
히고	-13833
ebu	-13834
ero	-13835
gog	-13836
imi	-13837
off	-13838
pes	-13839
rab	-13840
ups	-13841
▁"4	-13842
▁가공	-13843
▁기운	-13844
▁누락	-13845
▁데에	-13846
▁등산	-13847
▁매너	-13848
▁반찬	-13849
▁밝혀	-13850
▁벌레	-13851
▁변동	-13852
▁보충	-13853
▁부동	-13854
▁상을	-13855
▁성숙	-13856
▁소금	-13857
▁소방	-13858
▁스탠	-13859
▁심리	-13860
▁씨가	-13861
▁안녕	-13862
▁얼른	-13863
▁오로	-13864
▁올린	-13865
▁왠지	-13866
▁우려	-13867
▁의논	-13868
▁장래	-13869
▁전용	-13870
▁정식	-13871
▁지배	-13872
▁진정	-13873
▁착각	-13874
▁쿠키	-13875
▁타야	-13876
▁해낼	-13877
국에서	-13878
부에서	-13879
성으로	-13880
었다면	-13881
집에서	-13882
하게도	-13883
해주실	-13884
Comp	-13885
hour	-13886
▁"20	-13887
▁Act	-13888
▁Rob	-13889
▁Spe	-13890
▁간다고	-13891
▁갈까요	-13892
▁거리가	-13893
▁건물이	-13894
▁것들은	-13895
▁귀사가	-13896
▁그곳을	-13897
▁기독교	-13898
▁달라요	-13899
▁동생은	-13900
▁드리고	-13901
▁들어온	-13902
▁만나기	-13903
▁말해줘	-13904
▁메뉴를	-13905
▁모자를	-13906
▁문의를	-13907
▁바비큐	-13908
▁바쁘게	-13909
▁받아요	-13910
▁발전을	-13911
▁방문해	-13912
▁방식이	-13913
▁방에서	-13914
▁분야의	-13915
▁불리는	-13916
▁사진의	-13917
▁삼겹살	-13918
▁선수가	-13919
▁성격은	-13920
▁소년은	-13921
▁아이돌	-13922
▁어쨌든	-13923
▁없으니	-13924
▁여권을	-13925
▁여기로	-13926
▁영국의	-13927
▁오렌지	-13928
▁음식에	-13929
▁의견이	-13930
▁이곳을	-13931
▁이끌어	-13932
▁이슬람	-13933
▁인상을	-13934
▁인생은	-13935
▁자격이	-13936
▁장소에	-13937
▁적어도	-13938
▁전문점	-13939
▁주문은	-13940
▁피자를	-13941
▁하고자	-13942
일입니다	-13943
하자마자	-13944
ading	-13945
while	-13946
▁Ange	-13947
▁Cebu	-13948
▁Educ	-13949
▁Rome	-13950
▁buck	-13951
▁cock	-13952
▁jeal	-13953
▁lets	-13954
▁poem	-13955
▁tape	-13956
▁계약서를	-13957
▁계획하고	-13958
▁귀사에서	-13959
▁늦게까지	-13960
▁디자인은	-13961
▁생각하게	-13962
▁어려움이	-13963
▁어린아이	-13964
▁없을까요	-13965
▁여러분의	-13966
▁이것들은	-13967
▁이루어진	-13968
▁일자리를	-13969
▁제주도에	-13970
▁좋아하게	-13971
▁준비되어	-13972
▁지속적인	-13973
▁카탈로그	-13974
▁피드백을	-13975
▁확인해야	-13976
▁index	-13977
▁liber	-13978
▁pages	-13979
▁wears	-13980
▁가졌습니다	-13981
▁아름다움을	-13982
▁전체적으로	-13983
▁프로그램이	-13984
▁프로젝트의	-13985
istance	-13986
▁Africa	-13987
▁acknow	-13988
▁convey	-13989
▁crimes	-13990
▁forced	-13991
▁format	-13992
▁levels	-13993
▁locked	-13994
▁revise	-13995
▁scores	-13996
▁sexual	-13997
▁sorrow	-13998
▁styles	-13999
▁anybody	-14000
▁apology	-14001
▁examine	-14002
▁heading	-14003
▁initial	-14004
▁injured	-14005
▁jealous	-14006
▁leisure	-14007
▁printer	-14008
▁reports	-14009
▁survive	-14010
▁sympath	-14011
▁warming	-14012
Professor	-14013
formation	-14014
▁Malaysia	-14015
▁accounts	-14016
▁articles	-14017
▁assemble	-14018
▁breaking	-14019
▁memorize	-14020
▁peaceful	-14021
▁restroom	-14022
▁unforget	-14023
▁uniforms	-14024
▁unnecess	-14025
▁Americans	-14026
▁Yesterday	-14027
▁described	-14028
▁household	-14029
▁photograp	-14030
▁stability	-14031
▁beforehand	-14032
▁businesses	-14033
▁motorcycle	-14034
▁strawberry	-14035
/2	-14036
4,	-14037
8.	-14038
9.	-14039
PO	-14040
RL	-14041
Su	-14042
▁갚	-14043
▁껍	-14044
▁붉	-14045
것이	-14046
계약	-14047
과에	-14048
그의	-14049
다란	-14050
단의	-14051
량의	-14052
면의	-14053
모든	-14054
미는	-14055
법에	-14056
보내	-14057
복궁	-14058
볼게	-14059
스카	-14060
아의	-14061
이도	-14062
쳤어	-14063
치와	-14064
aid	-14065
fit	-14066
ito	-14067
tes	-14068
▁SK	-14069
▁거울	-14070
▁구현	-14071
▁군대	-14072
▁담긴	-14073
▁당첨	-14074
▁대전	-14075
▁딸기	-14076
▁때면	-14077
▁뚜껑	-14078
▁메신	-14079
▁믿는	-14080
▁바른	-14081
▁반갑	-14082
▁반환	-14083
▁밤새	-14084
▁밤이	-14085
▁밸런	-14086
▁보존	-14087
▁봄이	-14088
▁사형	-14089
▁선거	-14090
▁성분	-14091
▁성인	-14092
▁손이	-14093
▁실현	-14094
▁오피	-14095
▁위반	-14096
▁이력	-14097
▁이중	-14098
▁장단	-14099
▁저축	-14100
▁충실	-14101
▁코멘	-14102
▁토마	-14103
▁튀김	-14104
▁편집	-14105
▁하다	-14106
▁하와	-14107
▁한강	-14108
▁화물	-14109
에게서	-14110
적이며	-14111
apes	-14112
born	-14113
elly	-14114
emor	-14115
free	-14116
iner	-14117
isco	-14118
▁Por	-14119
▁pul	-14120
▁sav	-14121
▁sir	-14122
▁zoo	-14123
▁감사를	-14124
▁겨울이	-14125
▁경험은	-14126
▁공부도	-14127
▁깨끗이	-14128
▁날짜에	-14129
▁다리가	-14130
▁단순한	-14131
▁만나길	-14132
▁맞아요	-14133
▁면접을	-14134
▁밤늦게	-14135
▁블로그	-14136
▁사귀고	-14137
▁살아갈	-14138
▁살아야	-14139
▁상품에	-14140
▁생산을	-14141
▁성공할	-14142
▁소비자	-14143
▁업체에	-14144
▁완료된	-14145
▁운전을	-14146
▁인간이	-14147
▁좋지만	-14148
▁주시고	-14149
▁즐겁고	-14150
▁지불할	-14151
▁지켜야	-14152
▁태어났	-14153
▁파일은	-14154
▁패스트	-14155
▁프로세	-14156
▁하니까	-14157
▁행복이	-14158
▁행사를	-14159
함입니다	-14160
anted	-14161
emplo	-14162
orted	-14163
▁2000	-14164
▁clin	-14165
▁defe	-14166
▁rail	-14167
▁scar	-14168
▁thro	-14169
▁tone	-14170
▁걸리나요	-14171
▁교환학생	-14172
▁뉴질랜드	-14173
▁다니면서	-14174
▁도착하는	-14175
▁문제점을	-14176
▁발생해요	-14177
▁보낼게요	-14178
▁부족해서	-14179
▁비행기로	-14180
▁사용해도	-14181
▁사이에서	-14182
▁사이트를	-14183
▁선생님께	-14184
▁식당에서	-14185
▁아니라면	-14186
▁알려주실	-14187
▁엔지니어	-14188
▁여동생이	-14189
▁연락하지	-14190
▁자리에서	-14191
▁잘합니다	-14192
▁적극적인	-14193
▁콘텐츠를	-14194
▁포함하여	-14195
▁플라스틱	-14196
▁Dream	-14197
▁Enjoy	-14198
▁House	-14199
▁Skype	-14200
▁Yeong	-14201
▁false	-14202
▁onion	-14203
▁opens	-14204
▁recip	-14205
▁scold	-14206
▁shame	-14207
▁threw	-14208
▁담당자에게	-14209
▁비즈니스를	-14210
▁생각하나요	-14211
▁의미합니다	-14212
Usually	-14213
▁Master	-14214
▁babies	-14215
▁bubble	-14216
▁desper	-14217
▁gender	-14218
▁indeed	-14219
▁intens	-14220
▁serial	-14221
▁stocks	-14222
▁도착했습니다	-14223
▁disturb	-14224
▁editing	-14225
▁essence	-14226
▁fulfill	-14227
▁grammar	-14228
▁oneself	-14229
▁selfish	-14230
▁완료되었습니다	-14231
▁확인하였습니다	-14232
▁Tomorrow	-14233
▁combined	-14234
▁firmware	-14235
▁judgment	-14236
▁measures	-14237
▁numerous	-14238
▁stickers	-14239
▁말씀드리겠습니다	-14240
▁Valentine	-14241
▁architect	-14242
▁automatic	-14243
▁determine	-14244
▁classmates	-14245
▁collection	-14246
▁graduating	-14247
▁internally	-14248
▁invitation	-14249
▁resolution	-14250
▁countryside	-14251
▁supermarket	-14252
TC	-14253
▁덥	-14254
국은	-14255
길을	-14256
놓은	-14257
료로	-14258
마을	-14259
매가	-14260
미를	-14261
산화	-14262
성한	-14263
았던	-14264
웠고	-14265
잠을	-14266
주일	-14267
쿠버	-14268
터는	-14269
형의	-14270
cho	-14271
ica	-14272
▁Ju	-14273
▁QM	-14274
▁ec	-14275
▁간에	-14276
▁개별	-14277
▁검증	-14278
▁고속	-14279
▁내지	-14280
▁단가	-14281
▁동양	-14282
▁듣지	-14283
▁면을	-14284
▁문학	-14285
▁민족	-14286
▁민주	-14287
▁반려	-14288
▁반짝	-14289
▁복합	-14290
▁본격	-14291
▁불만	-14292
▁비판	-14293
▁빼앗	-14294
▁사러	-14295
▁속이	-14296
▁숨겨	-14297
▁쓰면	-14298
▁어학	-14299
▁엑셀	-14300
▁염색	-14301
▁예민	-14302
▁유연	-14303
▁입술	-14304
▁주위	-14305
▁채로	-14306
▁취해	-14307
▁트래	-14308
▁해운	-14309
▁현상	-14310
▁환상	-14311
거리는	-14312
더라면	-14313
메리카	-14314
했었다	-14315
Have	-14316
bors	-14317
fers	-14318
lace	-14319
ouch	-14320
▁Bal	-14321
▁Sin	-14322
▁URL	-14323
▁lob	-14324
▁nap	-14325
▁sib	-14326
▁tal	-14327
▁가벼운	-14328
▁가져야	-14329
▁감사의	-14330
▁골프를	-14331
▁교복을	-14332
▁기간에	-14333
▁기쁘게	-14334
▁노력해	-14335
▁단어는	-14336
▁뛰어나	-14337
▁리더십	-14338
▁메일이	-14339
▁목표로	-14340
▁몰라서	-14341
▁문화와	-14342
▁본인의	-14343
▁비빔밥	-14344
▁선택을	-14345
▁요청에	-14346
▁원인이	-14347
▁인간은	-14348
▁자리가	-14349
▁잘못을	-14350
▁재능이	-14351
▁좋았던	-14352
▁주어야	-14353
▁준다면	-14354
▁지나면	-14355
▁지키는	-14356
▁태권도	-14357
▁판매가	-14358
▁하나씩	-14359
▁학교의	-14360
▁후에도	-14361
해집니다	-14362
eness	-14363
inate	-14364
loved	-14365
poses	-14366
▁asks	-14367
▁bird	-14368
▁cand	-14369
▁joke	-14370
▁mini	-14371
▁oven	-14372
▁panc	-14373
▁sang	-14374
▁vent	-14375
▁가능성을	-14376
▁공원에서	-14377
▁기억하고	-14378
▁도와주고	-14379
▁드리도록	-14380
▁마십시오	-14381
▁말입니다	-14382
▁모르지만	-14383
▁무엇인가	-14384
▁부족해요	-14385
▁브랜드의	-14386
▁아이디어	-14387
▁않았다면	-14388
▁열립니다	-14389
▁예정이야	-14390
▁이루어져	-14391
▁전통적인	-14392
▁진행해야	-14393
▁처음부터	-14394
▁행복하길	-14395
▁현금으로	-14396
▁흥미로운	-14397
iments	-14398
▁Hawai	-14399
▁Music	-14400
▁River	-14401
▁Trans	-14402
▁compl	-14403
▁fatig	-14404
▁grows	-14405
▁minds	-14406
▁고등학교에	-14407
▁도와줍니다	-14408
▁되겠습니까	-14409
▁유명합니다	-14410
▁있겠습니다	-14411
▁행복했어요	-14412
▁환영합니다	-14413
Thirdly	-14414
ography	-14415
▁admire	-14416
▁garlic	-14417
▁meters	-14418
▁myster	-14419
▁random	-14420
▁recall	-14421
▁stored	-14422
▁문의드립니다	-14423
▁Michael	-14424
▁closely	-14425
▁elastic	-14426
▁figures	-14427
▁filming	-14428
▁harmful	-14429
▁karaoke	-14430
▁neither	-14431
▁session	-14432
▁skating	-14433
▁speaker	-14434
▁victory	-14435
teokbokki	-14436
▁blossoms	-14437
▁category	-14438
▁constant	-14439
▁launched	-14440
▁potatoes	-14441
▁consignee	-14442
▁cooperate	-14443
▁displayed	-14444
▁exclusive	-14445
▁implement	-14446
▁personnel	-14447
▁sincerity	-14448
▁remembered	-14449
▁alternative	-14450
▁unnecessary	-14451
▁unforgettable	-14452
-3	-14453
TD	-14454
~3	-14455
▁굽	-14456
▁웅	-14457
경에	-14458
급을	-14459
드렸	-14460
롭지	-14461
면허	-14462
버스	-14463
법은	-14464
습을	-14465
웠다	-14466
이런	-14467
인치	-14468
종의	-14469
출을	-14470
카를	-14471
트롤	-14472
함은	-14473
His	-14474
aya	-14475
bre	-14476
law	-14477
son	-14478
yal	-14479
▁PE	-14480
▁Qu	-14481
▁UK	-14482
▁가스	-14483
▁강요	-14484
▁걸로	-14485
▁공기	-14486
▁과자	-14487
▁관세	-14488
▁군데	-14489
▁기침	-14490
▁나을	-14491
▁내릴	-14492
▁넘는	-14493
▁네이	-14494
▁능숙	-14495
▁달걀	-14496
▁담은	-14497
▁돕는	-14498
▁되죠	-14499
▁듣기	-14500
▁마인	-14501
▁면허	-14502
▁목걸	-14503
▁미루	-14504
▁바래	-14505
▁발을	-14506
▁빠진	-14507
▁셔츠	-14508
▁순서	-14509
▁스튜	-14510
▁심플	-14511
▁써서	-14512
▁안의	-14513
▁양파	-14514
▁올릴	-14515
▁위생	-14516
▁이길	-14517
▁일기	-14518
▁일러	-14519
▁입맛	-14520
▁작곡	-14521
▁장식	-14522
▁장학	-14523
▁지혜	-14524
▁쪽에	-14525
▁참을	-14526
▁축복	-14527
▁출판	-14528
▁클렌	-14529
▁파이	-14530
▁하드	-14531
▁함유	-14532
▁합의	-14533
▁휴식	-14534
된다는	-14535
드에서	-14536
시에서	-14537
해지는	-14538
hett	-14539
hyun	-14540
iles	-14541
lass	-14542
mark	-14543
osop	-14544
rant	-14545
umes	-14546
▁Big	-14547
▁Sea	-14548
▁Sil	-14549
▁cho	-14550
▁dip	-14551
▁ham	-14552
▁rot	-14553
▁spr	-14554
▁가져오	-14555
▁게임이	-14556
▁경향이	-14557
▁계세요	-14558
▁그곳의	-14559
▁그때는	-14560
▁길거리	-14561
▁김치는	-14562
▁남자의	-14563
▁도시의	-14564
▁많다고	-14565
▁맞추어	-14566
▁먹어서	-14567
▁모양의	-14568
▁미국은	-14569
▁밀가루	-14570
▁반응을	-14571
▁방식을	-14572
▁색깔이	-14573
▁색상이	-14574
▁시리즈	-14575
▁시에는	-14576
▁신제품	-14577
▁얘기할	-14578
▁엄마랑	-14579
▁왔는데	-14580
▁장면은	-14581
▁정도는	-14582
▁정도에	-14583
▁주기로	-14584
▁커다란	-14585
▁텐데요	-14586
▁페이지	-14587
▁한국이	-14588
▁한마디	-14589
▁함께한	-14590
▁홍콩에	-14591
알다시피	-14592
적이라고	-14593
하신다면	-14594
Above	-14595
acing	-14596
aming	-14597
icate	-14598
itute	-14599
osaur	-14600
undai	-14601
▁1000	-14602
▁Comm	-14603
▁Play	-14604
▁mold	-14605
▁ther	-14606
▁toys	-14607
▁worn	-14608
▁너무나도	-14609
▁다녀왔어	-14610
▁마닐라에	-14611
▁말했듯이	-14612
▁무엇이든	-14613
▁보았어요	-14614
▁보유하고	-14615
▁부분에서	-14616
▁비밀번호	-14617
▁사장님이	-14618
▁연락처를	-14619
▁요청하는	-14620
▁유명해요	-14621
▁있었나요	-14622
▁존재해요	-14623
▁지난번에	-14624
▁추가적인	-14625
▁패스트푸	-14626
보았습니다	-14627
estyle	-14628
school	-14629
▁Chang	-14630
▁Since	-14631
▁chart	-14632
▁harsh	-14633
▁outer	-14634
▁prove	-14635
▁steel	-14636
▁steps	-14637
▁sweat	-14638
▁towel	-14639
▁계획이에요	-14640
▁괜찮을까요	-14641
▁성공적으로	-14642
▁스트레스가	-14643
▁알았습니다	-14644
▁핸드폰으로	-14645
▁확인하세요	-14646
atching	-14647
fection	-14648
▁Pororo	-14649
▁breaks	-14650
▁dollar	-14651
▁luxury	-14652
▁prison	-14653
▁studio	-14654
▁verify	-14655
▁알려주십시오	-14656
▁athlete	-14657
▁beloved	-14658
▁billion	-14659
▁grandma	-14660
▁offline	-14661
▁relaxed	-14662
▁seaweed	-14663
▁shocked	-14664
Yesterday	-14665
ibilities	-14666
▁acquaint	-14667
▁diligent	-14668
▁instance	-14669
▁interpre	-14670
▁proposed	-14671
▁purposes	-14672
▁superior	-14673
▁textbook	-14674
▁administr	-14675
▁answering	-14676
▁corporate	-14677
▁fantastic	-14678
▁reception	-14679
▁challenges	-14680
▁creativity	-14681
▁retirement	-14682
▁approximately	-14683
sp	-14684
▁멘	-14685
▁뷰	-14686
▁앤	-14687
▁잭	-14688
▁젤	-14689
개발	-14690
고루	-14691
곳은	-14692
나와	-14693
님을	-14694
로의	-14695
무게	-14696
비록	-14697
수술	-14698
안녕	-14699
역은	-14700
였고	-14701
왔다	-14702
전한	-14703
진은	-14704
질은	-14705
팅을	-14706
해져	-14707
Its	-14708
ixt	-14709
nal	-14710
oty	-14711
pie	-14712
sis	-14713
vit	-14714
▁4.	-14715
▁BB	-14716
▁간격	-14717
▁결승	-14718
▁공룡	-14719
▁규정	-14720
▁기온	-14721
▁기후	-14722
▁내로	-14723
▁당일	-14724
▁대금	-14725
▁될지	-14726
▁미소	-14727
▁보석	-14728
▁복지	-14729
▁분은	-14730
▁브로	-14731
▁빨래	-14732
▁빼고	-14733
▁상자	-14734
▁생태	-14735
▁셋째	-14736
▁손잡	-14737
▁수원	-14738
▁싫은	-14739
▁씨를	-14740
▁아끼	-14741
▁아픔	-14742
▁양말	-14743
▁엉망	-14744
▁연인	-14745
▁오븐	-14746
▁오페	-14747
▁이로	-14748
▁일회	-14749
▁입양	-14750
▁자부	-14751
▁작용	-14752
▁찾은	-14753
▁초청	-14754
▁취향	-14755
▁크기	-14756
▁키를	-14757
▁통일	-14758
▁트렌	-14759
▁틀린	-14760
▁파워	-14761
▁하시	-14762
단으로	-14763
디자인	-14764
시키기	-14765
였지만	-14766
agon	-14767
anda	-14768
aren	-14769
etch	-14770
gogi	-14771
oons	-14772
ucks	-14773
▁120	-14774
▁Del	-14775
▁MOQ	-14776
▁OTA	-14777
▁Rem	-14778
▁thr	-14779
▁가는데	-14780
▁걱정을	-14781
▁경복궁	-14782
▁골고루	-14783
▁관하여	-14784
▁그래픽	-14785
▁그러지	-14786
▁기간은	-14787
▁기사를	-14788
▁기타를	-14789
▁내용과	-14790
▁누구를	-14791
▁도중에	-14792
▁되어요	-14793
▁먹방을	-14794
▁문화적	-14795
▁바다에	-14796
▁바라며	-14797
▁박스에	-14798
▁백화점	-14799
▁빛나는	-14800
▁빠르고	-14801
▁사정이	-14802
▁시대에	-14803
▁시도해	-14804
▁시장의	-14805
▁식당에	-14806
▁썼어요	-14807
▁아기가	-14808
▁아빠와	-14809
▁아이콘	-14810
▁안전을	-14811
▁않았기	-14812
▁알지만	-14813
▁여행에	-14814
▁예약할	-14815
▁오래전	-14816
▁유니폼	-14817
▁의견에	-14818
▁인형은	-14819
▁자연을	-14820
▁잘해요	-14821
▁재고를	-14822
▁전공을	-14823
▁전쟁을	-14824
▁주부터	-14825
▁주위에	-14826
▁진행해	-14827
▁축제에	-14828
▁측에서	-14829
▁테니까	-14830
▁판매할	-14831
▁피부가	-14832
▁학교가	-14833
▁했는지	-14834
▁형태를	-14835
▁환불해	-14836
수입니다	-14837
했었어요	-14838
혔습니다	-14839
force	-14840
sized	-14841
vince	-14842
▁nick	-14843
▁pets	-14844
▁prem	-14845
▁slic	-14846
▁구매하고	-14847
▁마지막에	-14848
▁매력적인	-14849
▁매장에서	-14850
▁모르겠다	-14851
▁목소리가	-14852
▁보내드릴	-14853
▁보내주길	-14854
▁상태에서	-14855
▁아름다워	-14856
▁아름답게	-14857
▁언젠가는	-14858
▁연락하고	-14859
▁요리하는	-14860
▁이상으로	-14861
▁재미있고	-14862
▁제공하고	-14863
▁중요성을	-14864
▁참여하는	-14865
▁포함해서	-14866
▁한국인이	-14867
하셨습니다	-14868
해주십시오	-14869
esteem	-14870
ilding	-14871
inting	-14872
ulture	-14873
▁Bible	-14874
▁admit	-14875
▁cells	-14876
▁cough	-14877
▁metal	-14878
▁multi	-14879
▁route	-14880
▁비밀번호를	-14881
▁사람이라고	-14882
▁사용했어요	-14883
▁생각됩니다	-14884
▁어떻습니까	-14885
Despite	-14886
▁Hawaii	-14887
▁habits	-14888
▁harmon	-14889
▁palace	-14890
▁trends	-14891
▁wishes	-14892
▁연락해주세요	-14893
▁Stadium	-14894
▁Village	-14895
▁ancient	-14896
▁blocked	-14897
▁funeral	-14898
▁harmony	-14899
▁muscles	-14900
▁nursing	-14901
▁propose	-14902
Regarding	-14903
▁adjusted	-14904
▁reliable	-14905
▁steadily	-14906
▁supplies	-14907
▁upcoming	-14908
▁decisions	-14909
▁neighbors	-14910
▁nutrients	-14911
▁nutrition	-14912
▁technique	-14913
▁vegetable	-14914
▁attendance	-14915
▁punishment	-14916
▁revolution	-14917
▁sufficient	-14918
▁techniques	-14919
▁replacement	-14920
▁pronunciation	-14921
▁advertisements	-14922
.'	-14923
AV	-14924
OM	-14925
▁융	-14926
▁족	-14927
▁징	-14928
결을	-14929
과정	-14930
기한	-14931
눈에	-14932
미가	-14933
보자	-14934
부와	-14935
션은	-14936
스피	-14937
심한	-14938
았고	-14939
여름	-14940
저기	-14941
점과	-14942
처를	-14943
트리	-14944
피를	-14945
회는	-14946
eel	-14947
gue	-14948
urt	-14949
yun	-14950
▁5%	-14951
▁Ac	-14952
▁Ag	-14953
▁Dr	-14954
▁Im	-14955
▁MF	-14956
▁Ma	-14957
▁PP	-14958
▁QR	-14959
▁je	-14960
▁pu	-14961
▁가려	-14962
▁갈색	-14963
▁갑작	-14964
▁걷는	-14965
▁것의	-14966
▁공휴	-14967
▁길어	-14968
▁깜짝	-14969
▁나고	-14970
▁남한	-14971
▁넣은	-14972
▁놓은	-14973
▁대행	-14974
▁마늘	-14975
▁마술	-14976
▁멋지	-14977
▁밝고	-14978
▁벗어	-14979
▁베네	-14980
▁볶음	-14981
▁불꽃	-14982
▁비상	-14983
▁상쾌	-14984
▁생물	-14985
▁선주	-14986
▁소망	-14987
▁수고	-14988
▁시공	-14989
▁엄격	-14990
▁에서	-14991
▁전철	-14992
▁캠페	-14993
▁키즈	-14994
▁투표	-14995
▁트럭	-14996
▁형식	-14997
▁호환	-14998
가에서	-14999
건가요	-15000
방에서	-15001
으시면	-15002
anas	-15003
aser	-15004
face	-15005
phew	-15006
race	-15007
rupt	-15008
uine	-15009
▁"10	-15010
▁180	-15011
▁70%	-15012
▁Bul	-15013
▁ash	-15014
▁bid	-15015
▁pad	-15016
▁sne	-15017
▁syn	-15018
▁tom	-15019
▁uns	-15020
▁거대한	-15021
▁건물은	-15022
▁경찰이	-15023
▁계획에	-15024
▁남편과	-15025
▁내에서	-15026
▁느끼지	-15027
▁도시에	-15028
▁때에는	-15029
▁만들지	-15030
▁머무를	-15031
▁먹었다	-15032
▁멋있는	-15033
▁메신저	-15034
▁모습은	-15035
▁못하면	-15036
▁문제없	-15037
▁보내길	-15038
▁볼게요	-15039
▁사회를	-15040
▁샐러드	-15041
▁생각도	-15042
▁생각만	-15043
▁생기는	-15044
▁선적을	-15045
▁설명할	-15046
▁스미스	-15047
▁스키를	-15048
▁시간의	-15049
▁시계를	-15050
▁안타까	-15051
▁약속한	-15052
▁예쁘고	-15053
▁올리는	-15054
▁위치에	-15055
▁이것의	-15056
▁인천에	-15057
▁장애인	-15058
▁전체에	-15059
▁제시한	-15060
▁주었다	-15061
▁중간에	-15062
▁초점을	-15063
▁축제를	-15064
▁특이한	-15065
▁한복을	-15066
▁할인을	-15067
▁휴대전	-15068
고등학교	-15069
뿐이에요	-15070
사합니다	-15071
Other	-15072
ankly	-15073
check	-15074
hetti	-15075
ieves	-15076
oween	-15077
store	-15078
▁Cons	-15079
▁Life	-15080
▁Part	-15081
▁West	-15082
▁epis	-15083
▁insu	-15084
▁lake	-15085
▁rein	-15086
▁saus	-15087
▁거기에는	-15088
▁검토하고	-15089
▁교수님이	-15090
▁그렇다고	-15091
▁다닙니다	-15092
▁들어가서	-15093
▁디자인의	-15094
▁뜻이에요	-15095
▁배웠어요	-15096
▁사정으로	-15097
▁싶었지만	-15098
▁않을까요	-15099
▁여동생은	-15100
▁여자들이	-15101
▁오프라인	-15102
▁왼쪽으로	-15103
▁자세하게	-15104
▁제품들은	-15105
▁주인공이	-15106
▁중에서도	-15107
▁즐거움을	-15108
▁처음에는	-15109
▁캐나다에	-15110
▁컨디션이	-15111
▁컴퓨터가	-15112
▁필요하신	-15113
▁효과적인	-15114
▁힘듭니다	-15115
angers	-15116
▁aging	-15117
▁anger	-15118
▁appet	-15119
▁conse	-15120
▁enorm	-15121
▁mathe	-15122
▁minor	-15123
▁moves	-15124
▁taxes	-15125
▁waves	-15126
▁아이디어를	-15127
▁알려줄게요	-15128
▁연락하세요	-15129
▁준비했어요	-15130
하시겠습니까	-15131
agement	-15132
aghetti	-15133
osexual	-15134
▁Mexico	-15135
▁doesnt	-15136
▁elimin	-15137
▁faulty	-15138
▁formed	-15139
▁nephew	-15140
▁observ	-15141
▁resume	-15142
▁rising	-15143
omething	-15144
▁Hyundai	-15145
▁Product	-15146
▁cookies	-15147
▁dreamed	-15148
▁encoura	-15149
▁enhance	-15150
▁fatigue	-15151
▁rapidly	-15152
▁reviews	-15153
▁soldier	-15154
▁strengt	-15155
▁stretch	-15156
▁virtual	-15157
▁진행하겠습니다	-15158
itionally	-15159
▁assigned	-15160
▁multiple	-15161
▁patience	-15162
▁philosop	-15163
▁resemble	-15164
▁sometime	-15165
▁KakaoTalk	-15166
▁attracted	-15167
▁conscious	-15168
▁improving	-15169
▁territory	-15170
▁compliment	-15171
▁influenced	-15172
▁installing	-15173
▁scientific	-15174
▁challenging	-15175
▁specification	-15176
13	-15177
7,	-15178
Ok	-15179
Sm	-15180
xy	-15181
▁댁	-15182
관광	-15183
님과	-15184
님은	-15185
다를	-15186
말고	-15187
번의	-15188
센터	-15189
수도	-15190
아직	-15191
았을	-15192
액을	-15193
어와	-15194
오를	-15195
처리	-15196
퍼를	-15197
"",	-15198
Tom	-15199
eks	-15200
olk	-15201
que	-15202
ria	-15203
tte	-15204
▁가라	-15205
▁격려	-15206
▁길게	-15207
▁김연	-15208
▁넣을	-15209
▁높여	-15210
▁담고	-15211
▁멀티	-15212
▁모험	-15213
▁물류	-15214
▁비트	-15215
▁사막	-15216
▁살지	-15217
▁상영	-15218
▁생존	-15219
▁성취	-15220
▁소풍	-15221
▁스와	-15222
▁심사	-15223
▁알레	-15224
▁양을	-15225
▁옳은	-15226
▁육체	-15227
▁자율	-15228
▁잠재	-15229
▁장례	-15230
▁조합	-15231
▁추후	-15232
▁출석	-15233
▁터치	-15234
▁해양	-15235
▁현황	-15236
▁후원	-15237
가지를	-15238
겁니다	-15239
스럽고	-15240
시스코	-15241
았는데	-15242
원에게	-15243
웠지만	-15244
지면서	-15245
하기는	-15246
ango	-15247
gant	-15248
norm	-15249
tail	-15250
ynam	-15251
▁AAA	-15252
▁Ben	-15253
▁Ber	-15254
▁Bup	-15255
▁Pot	-15256
▁Wal	-15257
▁ens	-15258
▁oct	-15259
▁가게를	-15260
▁걸어가	-15261
▁계기가	-15262
▁과거의	-15263
▁과일을	-15264
▁관련한	-15265
▁기억을	-15266
▁나라로	-15267
▁늘어나	-15268
▁마음껏	-15269
▁말했어	-15270
▁못했던	-15271
▁뭐든지	-15272
▁배송비	-15273
▁배워야	-15274
▁번역이	-15275
▁사이가	-15276
▁상세한	-15277
▁생각나	-15278
▁생명을	-15279
▁서울로	-15280
▁스트랩	-15281
▁스파게	-15282
▁습관을	-15283
▁식당이	-15284
▁연기를	-15285
▁영원한	-15286
▁오리지	-15287
▁오빠가	-15288
▁외국에	-15289
▁위대한	-15290
▁일하게	-15291
▁있었기	-15292
▁주려고	-15293
▁주어서	-15294
▁주제는	-15295
▁주제에	-15296
▁참석할	-15297
▁처리를	-15298
▁키우고	-15299
▁피해가	-15300
▁행사가	-15301
▁회의가	-15302
Which	-15303
atisf	-15304
ourth	-15305
▁2010	-15306
▁From	-15307
▁Jong	-15308
▁boys	-15309
▁caut	-15310
▁core	-15311
▁fake	-15312
▁laws	-15313
▁sexy	-15314
▁typh	-15315
▁겨울방학	-15316
▁결정하는	-15317
▁고양이가	-15318
▁누군가의	-15319
▁담당하고	-15320
▁되었나요	-15321
▁보내드린	-15322
▁보냈는데	-15323
▁불편하게	-15324
▁수수료를	-15325
▁스타일을	-15326
▁스타일이	-15327
▁알려줄게	-15328
▁예전부터	-15329
▁우체국에	-15330
▁운동하는	-15331
▁인터뷰를	-15332
▁저녁에는	-15333
▁제공해요	-15334
▁졸업하고	-15335
▁중요하지	-15336
▁증가하고	-15337
▁참고하여	-15338
▁책임감을	-15339
▁추천하고	-15340
▁Gangh	-15341
▁Hongk	-15342
▁amend	-15343
▁buses	-15344
▁candy	-15345
▁chest	-15346
▁femin	-15347
▁flies	-15348
▁noisy	-15349
▁persu	-15350
▁screw	-15351
▁solid	-15352
▁trips	-15353
▁고객들에게	-15354
▁대한민국의	-15355
▁봉사활동을	-15356
▁부모님에게	-15357
▁살았습니다	-15358
▁선택했어요	-15359
▁페이스북에	-15360
arbucks	-15361
▁apples	-15362
▁bakery	-15363
▁barbec	-15364
▁behave	-15365
▁betray	-15366
▁duties	-15367
▁hiding	-15368
▁horror	-15369
▁orient	-15370
▁picnic	-15371
▁shrimp	-15372
▁fantasy	-15373
▁pension	-15374
▁seconds	-15375
▁serving	-15376
▁teaches	-15377
▁trading	-15378
▁worship	-15379
▁설명하겠습니다	-15380
▁borrowed	-15381
▁climbing	-15382
▁football	-15383
▁imported	-15384
▁offering	-15385
▁punished	-15386
▁reviewed	-15387
▁treasure	-15388
▁Halloween	-15389
▁abandoned	-15390
▁classical	-15391
▁destroyed	-15392
▁excessive	-15393
▁expresses	-15394
▁specialty	-15395
▁instrument	-15396
▁interviews	-15397
▁mechanical	-15398
▁competitors	-15399
▁composition	-15400
▁distributed	-15401
▁fundamental	-15402
▁meaningless	-15403
▁applications	-15404
▁misunderstand	-15405
14	-15406
99	-15407
DA	-15408
ka	-15409
▁닉	-15410
▁엽	-15411
▁튼	-15412
가능	-15413
가족	-15414
권이	-15415
너는	-15416
당에	-15417
당이	-15418
라가	-15419
러를	-15420
리티	-15421
마저	-15422
모가	-15423
번을	-15424
속을	-15425
아는	-15426
요즘	-15427
우며	-15428
유한	-15429
이상	-15430
일과	-15431
쟁이	-15432
제의	-15433
프란	-15434
200	-15435
Add	-15436
Put	-15437
axy	-15438
aza	-15439
guk	-15440
oop	-15441
oto	-15442
▁AR	-15443
▁FC	-15444
▁값을	-15445
▁같고	-15446
▁구별	-15447
▁기내	-15448
▁기한	-15449
▁농담	-15450
▁뉴스	-15451
▁대량	-15452
▁도면	-15453
▁돌봐	-15454
▁때를	-15455
▁라는	-15456
▁룸메	-15457
▁문이	-15458
▁바르	-15459
▁발음	-15460
▁방사	-15461
▁보실	-15462
▁부자	-15463
▁부재	-15464
▁분홍	-15465
▁붉은	-15466
▁비닐	-15467
▁빛을	-15468
▁사냥	-15469
▁사로	-15470
▁사의	-15471
▁수면	-15472
▁씨는	-15473
▁얻어	-15474
▁유도	-15475
▁유창	-15476
▁이따	-15477
▁일일	-15478
▁잡는	-15479
▁전날	-15480
▁조회	-15481
▁줬어	-15482
▁첫날	-15483
▁체중	-15484
▁치는	-15485
▁해본	-15486
▁해줘	-15487
▁향이	-15488
▁호기	-15489
▁화폐	-15490
▁회화	-15491
▁휴무	-15492
개월이	-15493
겠군요	-15494
당에서	-15495
봤는데	-15496
팀에서	-15497
하므로	-15498
acle	-15499
cont	-15500
cuit	-15501
ench	-15502
list	-15503
weet	-15504
well	-15505
▁Dan	-15506
▁Dok	-15507
▁EXO	-15508
▁Los	-15509
▁Mid	-15510
▁NVR	-15511
▁Sim	-15512
▁Sup	-15513
▁Ven	-15514
▁ast	-15515
▁bot	-15516
▁der	-15517
▁fur	-15518
▁mud	-15519
▁tap	-15520
▁가능해	-15521
▁거라는	-15522
▁건물을	-15523
▁경기도	-15524
▁고객과	-15525
▁고민이	-15526
▁교육이	-15527
▁내려가	-15528
▁내리는	-15529
▁놀이터	-15530
▁눈물이	-15531
▁느꼈어	-15532
▁늦어도	-15533
▁도서관	-15534
▁때로는	-15535
▁똑똑한	-15536
▁라면을	-15537
▁메일은	-15538
▁모양을	-15539
▁몸무게	-15540
▁물어본	-15541
▁미스터	-15542
▁배우기	-15543
▁보이고	-15544
▁부분의	-15545
▁선적이	-15546
▁선택이	-15547
▁손해를	-15548
▁스타벅	-15549
▁싶었던	-15550
▁않기를	-15551
▁연결이	-15552
▁유치원	-15553
▁이번엔	-15554
▁인생이	-15555
▁일기를	-15556
▁전문가	-15557
▁좋은데	-15558
▁직업에	-15559
▁충격을	-15560
▁친하게	-15561
▁탔어요	-15562
▁토대로	-15563
▁특징은	-15564
▁파일에	-15565
▁편리한	-15566
▁호텔이	-15567
▁흥미가	-15568
대학교에	-15569
적으로는	-15570
하면서도	-15571
했습니까	-15572
essed	-15573
issue	-15574
udden	-15575
▁Hang	-15576
▁Line	-15577
▁Port	-15578
▁Were	-15579
▁Yout	-15580
▁blog	-15581
▁dent	-15582
▁diss	-15583
▁edge	-15584
▁inse	-15585
▁lamp	-15586
▁leaf	-15587
▁mand	-15588
▁ours	-15589
▁poet	-15590
▁subt	-15591
▁wifi	-15592
▁가르치는	-15593
▁기숙사에	-15594
▁도움으로	-15595
▁들어오는	-15596
▁마케팅을	-15597
▁만들었다	-15598
▁비디오를	-15599
▁사람한테	-15600
▁사랑하지	-15601
▁아버지와	-15602
▁않았다고	-15603
▁외국에서	-15604
▁운전면허	-15605
▁전반적인	-15606
▁첨부하여	-15607
▁취소하고	-15608
▁프로그래	-15609
▁휴대폰을	-15610
hentic	-15611
ishing	-15612
rating	-15613
▁FedEx	-15614
▁Islam	-15615
▁Store	-15616
▁Three	-15617
▁Ulsan	-15618
▁White	-15619
▁champ	-15620
▁equal	-15621
▁essay	-15622
▁rides	-15623
▁split	-15624
▁stere	-15625
▁width	-15626
▁그중에서도	-15627
▁다이어트를	-15628
▁대중교통을	-15629
▁보였습니다	-15630
▁외국인에게	-15631
areness	-15632
▁Pyeong	-15633
▁Turkey	-15634
▁Winter	-15635
▁abnorm	-15636
▁arrest	-15637
▁belief	-15638
▁estate	-15639
▁facing	-15640
▁poster	-15641
▁refers	-15642
▁smiles	-15643
▁spaces	-15644
▁throat	-15645
▁washed	-15646
▁다하겠습니다	-15647
Whenever	-15648
▁belongs	-15649
▁closing	-15650
▁conclud	-15651
▁fastest	-15652
▁fingers	-15653
▁genuine	-15654
▁illness	-15655
▁inquire	-15656
▁jewelry	-15657
▁lacking	-15658
▁nations	-15659
▁routine	-15660
▁settled	-15661
▁만들어졌습니다	-15662
▁Hongkong	-15663
▁beverage	-15664
▁prettier	-15665
▁province	-15666
▁relieved	-15667
▁sandwich	-15668
▁supplier	-15669
▁Education	-15670
▁cleansing	-15671
▁daughters	-15672
▁institute	-15673
▁reflected	-15674
▁strengths	-15675
▁automobile	-15676
▁guesthouse	-15677
▁researcher	-15678
▁measurement	-15679
▁stomachache	-15680
▁expectations	-15681
▁insufficient	-15682
▁reservations	-15683
67	-15684
ma	-15685
▁,	-15686
▁둥	-15687
▁랜	-15688
▁맵	-15689
▁뼈	-15690
▁쾌	-15691
거래	-15692
거지	-15693
교를	-15694
구이	-15695
구조	-15696
급이	-15697
기능	-15698
년대	-15699
단계	-15700
단은	-15701
따라	-15702
러그	-15703
리콘	-15704
리트	-15705
박스	-15706
보를	-15707
복지	-15708
산의	-15709
스탄	-15710
양을	-15711
업이	-15712
연을	-15713
용품	-15714
저녁	-15715
절을	-15716
지런	-15717
테고	-15718
팀에	-15719
프의	-15720
행을	-15721
,""	-15722
ban	-15723
dae	-15724
isa	-15725
ora	-15726
udy	-15727
▁AM	-15728
▁DC	-15729
▁Tw	-15730
▁가짜	-15731
▁갖는	-15732
▁거쳐	-15733
▁경계	-15734
▁고백	-15735
▁관객	-15736
▁그로	-15737
▁기관	-15738
▁길로	-15739
▁길은	-15740
▁깨어	-15741
▁나만	-15742
▁낮아	-15743
▁데는	-15744
▁동반	-15745
▁로스	-15746
▁마켓	-15747
▁맞은	-15748
▁맞춤	-15749
▁명시	-15750
▁몸은	-15751
▁밑에	-15752
▁반도	-15753
▁분노	-15754
▁불쌍	-15755
▁상하	-15756
▁슬리	-15757
▁약한	-15758
▁열고	-15759
▁왕이	-15760
▁일한	-15761
▁자금	-15762
▁재배	-15763
▁적게	-15764
▁정비	-15765
▁정체	-15766
▁주민	-15767
▁죽기	-15768
▁지고	-15769
▁지진	-15770
▁침해	-15771
▁탁월	-15772
▁튼튼	-15773
▁팀의	-15774
▁팔고	-15775
▁포토	-15776
▁한다	-15777
관계를	-15778
단에서	-15779
라인을	-15780
볼까요	-15781
았으면	-15782
일에는	-15783
작업을	-15784
주시고	-15785
하오니	-15786
lege	-15787
rain	-15788
▁Ass	-15789
▁Glo	-15790
▁Hye	-15791
▁Net	-15792
▁PDF	-15793
▁dum	-15794
▁fle	-15795
▁god	-15796
▁lip	-15797
▁san	-15798
▁wis	-15799
▁가방은	-15800
▁가시면	-15801
▁가져갈	-15802
▁가지로	-15803
▁개발을	-15804
▁결혼식	-15805
▁경우도	-15806
▁계좌를	-15807
▁관광지	-15808
▁그러고	-15809
▁기숙사	-15810
▁놀라운	-15811
▁늦어서	-15812
▁다녀요	-15813
▁달러를	-15814
▁대회에	-15815
▁도전을	-15816
▁들어와	-15817
▁디저트	-15818
▁마이클	-15819
▁만나야	-15820
▁문화의	-15821
▁미팅이	-15822
▁바람을	-15823
▁베스트	-15824
▁부담이	-15825
▁분들은	-15826
▁뽀로로	-15827
▁사업이	-15828
▁산책을	-15829
▁상담을	-15830
▁성인이	-15831
▁성장할	-15832
▁세금을	-15833
▁스타트	-15834
▁시끄러	-15835
▁실험을	-15836
▁아시안	-15837
▁안경을	-15838
▁어두운	-15839
▁어디를	-15840
▁어떨까	-15841
▁연구는	-15842
▁열정이	-15843
▁옛날에	-15844
▁오나요	-15845
▁오빠는	-15846
▁움직일	-15847
▁워크숍	-15848
▁원산지	-15849
▁입어야	-15850
▁장면을	-15851
▁장점을	-15852
▁정보와	-15853
▁중간고	-15854
▁중국의	-15855
▁지역을	-15856
▁취업을	-15857
▁카페에	-15858
▁케이스	-15859
▁클럽에	-15860
▁특성을	-15861
▁프린트	-15862
▁회의에	-15863
eline	-15864
endar	-15865
etime	-15866
▁2019	-15867
▁Moon	-15868
▁Thai	-15869
▁buff	-15870
▁chop	-15871
▁duck	-15872
▁hire	-15873
▁lied	-15874
▁lips	-15875
▁noon	-15876
▁rely	-15877
▁sake	-15878
▁seek	-15879
▁sung	-15880
▁wild	-15881
▁writ	-15882
▁강아지가	-15883
▁그때부터	-15884
▁놀았어요	-15885
▁대해서도	-15886
▁드라이브	-15887
▁마음대로	-15888
▁몰랐어요	-15889
▁바라보는	-15890
▁시스템은	-15891
▁아픕니다	-15892
▁오리지널	-15893
▁원하시는	-15894
▁유치원에	-15895
▁일러스트	-15896
▁일어나지	-15897
▁제출해야	-15898
▁제품들을	-15899
▁지급해야	-15900
▁지원하게	-15901
▁출발하는	-15902
▁확실하게	-15903
시켰습니다	-15904
주시겠어요	-15905
giving	-15906
stairs	-15907
▁43001	-15908
▁Black	-15909
▁First	-15910
▁Inter	-15911
▁Write	-15912
▁brave	-15913
▁disag	-15914
▁expos	-15915
▁fancy	-15916
▁gorge	-15917
▁salon	-15918
▁가능하다고	-15919
▁도서관에서	-15920
▁맛있습니다	-15921
▁사랑한다고	-15922
▁생각입니다	-15923
▁영화입니다	-15924
▁읽었습니다	-15925
▁barely	-15926
▁formal	-15927
▁narrow	-15928
▁planet	-15929
▁silver	-15930
▁stated	-15931
▁100,000	-15932
▁Complex	-15933
▁Nothing	-15934
▁Science	-15935
▁delight	-15936
▁greater	-15937
▁mindset	-15938
▁quietly	-15939
▁typical	-15940
▁변경되었습니다	-15941
icultural	-15942
▁assembly	-15943
▁bringing	-15944
▁brothers	-15945
▁calendar	-15946
▁inspired	-15947
▁intended	-15948
▁protects	-15949
▁symptoms	-15950
▁weekdays	-15951
▁Everybody	-15952
▁Starbucks	-15953
▁announced	-15954
▁committed	-15955
▁conflicts	-15956
▁confusion	-15957
▁continues	-15958
▁designing	-15959
▁prejudice	-15960
▁respected	-15961
▁worldwide	-15962
▁correction	-15963
▁literature	-15964
▁mysterious	-15965
▁translating	-15966
▁photographer	-15967
.7	-15968
??	-15969
GO	-15970
Or	-15971
Se	-15972
fu	-15973
ms	-15974
ux	-15975
▁갱	-15976
▁넉	-15977
▁맹	-15978
각형	-15979
맞은	-15980
문은	-15981
방이	-15982
빨리	-15983
스테	-15984
시의	-15985
실로	-15986
실은	-15987
정도	-15988
제에	-15989
졌을	-15990
천에	-15991
통에	-15992
편을	-15993
프레	-15994
히지	-15995
ait	-15996
bow	-15997
lar	-15998
roc	-15999
she	-16000
ula	-16001
▁3-	-16002
▁33	-16003
▁3~	-16004
▁BM	-16005
▁By	-16006
▁Cr	-16007
▁ED	-16008
▁Em	-16009
▁Jj	-16010
▁OK	-16011
▁PI	-16012
▁ST	-16013
▁TA	-16014
▁갈비	-16015
▁갔던	-16016
▁거북	-16017
▁나니	-16018
▁났어	-16019
▁녹음	-16020
▁닮은	-16021
▁도달	-16022
▁두께	-16023
▁뜻이	-16024
▁마크	-16025
▁막을	-16026
▁명은	-16027
▁모으	-16028
▁변환	-16029
▁불과	-16030
▁사인	-16031
▁삽입	-16032
▁서운	-16033
▁소주	-16034
▁시달	-16035
▁쓰기	-16036
▁액션	-16037
▁양의	-16038
▁언덕	-16039
▁예비	-16040
▁오징	-16041
▁왕복	-16042
▁외식	-16043
▁유래	-16044
▁의도	-16045
▁일해	-16046
▁읽은	-16047
▁잤어	-16048
▁줄이	-16049
▁지낸	-16050
▁지친	-16051
▁지킬	-16052
▁추적	-16053
▁카운	-16054
▁콜라	-16055
▁토끼	-16056
▁특성	-16057
▁패킹	-16058
▁포도	-16059
▁폭력	-16060
▁합쳐	-16061
▁혁신	-16062
▁호주	-16063
▁흐름	-16064
▁힘내	-16065
드리는	-16066
으로도	-16067
임에도	-16068
ales	-16069
ault	-16070
icip	-16071
itis	-16072
opus	-16073
part	-16074
rete	-16075
ttes	-16076
what	-16077
▁Bob	-16078
▁FOB	-16079
▁Gir	-16080
▁Sec	-16081
▁boo	-16082
▁hug	-16083
▁pin	-16084
▁관련이	-16085
▁교훈을	-16086
▁나와요	-16087
▁날짜가	-16088
▁느껴요	-16089
▁다문화	-16090
▁떠나는	-16091
▁말해줄	-16092
▁모델이	-16093
▁모르게	-16094
▁모습에	-16095
▁모임이	-16096
▁바다가	-16097
▁바라고	-16098
▁변경을	-16099
▁부지런	-16100
▁불만을	-16101
▁살아남	-16102
▁설치할	-16103
▁순수한	-16104
▁시까지	-16105
▁시장을	-16106
▁야구를	-16107
▁영화도	-16108
▁오토바	-16109
▁음식도	-16110
▁제주도	-16111
▁조치를	-16112
▁처리할	-16113
▁최초의	-16114
▁카테고	-16115
▁학교로	-16116
▁햄버거	-16117
▁행운이	-16118
그러므로	-16119
으시다면	-16120
줬습니다	-16121
하겠다고	-16122
Event	-16123
Maybe	-16124
Right	-16125
craft	-16126
irect	-16127
irman	-16128
▁List	-16129
▁Mary	-16130
▁Miss	-16131
▁Such	-16132
▁Yuna	-16133
▁ages	-16134
▁butt	-16135
▁cure	-16136
▁curi	-16137
▁fuel	-16138
▁issu	-16139
▁perf	-16140
▁unav	-16141
▁vert	-16142
▁고양이는	-16143
▁당신들은	-16144
▁데이터가	-16145
▁들으면서	-16146
▁디자인에	-16147
▁맞습니까	-16148
▁바이어가	-16149
▁번역기를	-16150
▁보내려고	-16151
▁사용자가	-16152
▁서비스는	-16153
▁쉽습니다	-16154
▁스타일의	-16155
▁시험에서	-16156
▁아름답고	-16157
▁아침부터	-16158
▁운영하고	-16159
▁이미지가	-16160
▁이야기해	-16161
▁자신만의	-16162
▁친구한테	-16163
▁카메라는	-16164
▁한국말을	-16165
▁합리적인	-16166
▁해결해야	-16167
주었습니다	-16168
ashimi	-16169
inseng	-16170
iverse	-16171
moking	-16172
▁amuse	-16173
▁funds	-16174
▁grass	-16175
▁holds	-16176
▁prose	-16177
▁spons	-16178
▁stain	-16179
▁금요일까지	-16180
▁기다립니다	-16181
▁모르겠네요	-16182
▁불가합니다	-16183
▁카카오톡을	-16184
▁효과적으로	-16185
▁20,000	-16186
▁Jeonju	-16187
▁Joseon	-16188
▁appeal	-16189
▁assess	-16190
▁associ	-16191
▁banana	-16192
▁inevit	-16193
▁infect	-16194
▁signal	-16195
▁stands	-16196
▁widely	-16197
▁노력했습니다	-16198
▁발생했습니다	-16199
▁위해서입니다	-16200
▁Someone	-16201
▁divorce	-16202
▁gallery	-16203
▁publish	-16204
▁quarter	-16205
▁regions	-16206
▁sadness	-16207
▁snowing	-16208
▁thermal	-16209
▁typhoon	-16210
▁winning	-16211
▁controll	-16212
▁frequent	-16213
▁generous	-16214
▁gorgeous	-16215
▁hesitate	-16216
▁invented	-16217
▁necklace	-16218
▁nickname	-16219
▁postpone	-16220
▁rejected	-16221
▁Indonesia	-16222
▁President	-16223
▁awareness	-16224
▁cigarette	-16225
▁comparing	-16226
▁complaint	-16227
▁lifestyle	-16228
▁processes	-16229
▁completion	-16230
▁officially	-16231
▁professors	-16232
▁maintaining	-16233
▁negotiation	-16234
▁verification	-16235
▁recommendation	-16236
Me	-16237
NT	-16238
vi	-16239
▁래	-16240
▁몬	-16241
▁젓	-16242
▁큐	-16243
공간	-16244
글라	-16245
너무	-16246
념을	-16247
드니	-16248
률을	-16249
보드	-16250
사업	-16251
상태	-16252
시쯤	-16253
여기	-16254
오가	-16255
오염	-16256
우니	-16257
율은	-16258
음식	-16259
있다	-16260
쟁을	-16261
호가	-16262
.""	-16263
Mom	-16264
aki	-16265
ini	-16266
▁55	-16267
▁MP	-16268
▁SD	-16269
▁Si	-16270
▁간다	-16271
▁거면	-16272
▁경유	-16273
▁교사	-16274
▁그쪽	-16275
▁금메	-16276
▁낮에	-16277
▁내린	-16278
▁누나	-16279
▁니가	-16280
▁다짐	-16281
▁담겨	-16282
▁답이	-16283
▁대사	-16284
▁대접	-16285
▁독점	-16286
▁동화	-16287
▁드린	-16288
▁레슨	-16289
▁말자	-16290
▁매칭	-16291
▁모터	-16292
▁묘사	-16293
▁묻고	-16294
▁미디	-16295
▁바꿨	-16296
▁바삭	-16297
▁부과	-16298
▁산에	-16299
▁설날	-16300
▁설비	-16301
▁송장	-16302
▁숨을	-16303
▁스태	-16304
▁않니	-16305
▁얼음	-16306
▁옮기	-16307
▁옷에	-16308
▁왜곡	-16309
▁유료	-16310
▁의자	-16311
▁이성	-16312
▁자가	-16313
▁잡지	-16314
▁점차	-16315
▁조만	-16316
▁주름	-16317
▁크루	-16318
▁편히	-16319
▁포워	-16320
▁한꺼	-16321
▁향후	-16322
▁헤드	-16323
놀이를	-16324
렀어요	-16325
산으로	-16326
에게도	-16327
티스트	-16328
하지도	-16329
해줘서	-16330
aked	-16331
gypt	-16332
live	-16333
mbur	-16334
osis	-16335
otic	-16336
▁032	-16337
▁CMS	-16338
▁Cam	-16339
▁Cup	-16340
▁FTA	-16341
▁Hel	-16342
▁MCS	-16343
▁pil	-16344
▁toy	-16345
▁가수가	-16346
▁걸까요	-16347
▁경험과	-16348
▁고통을	-16349
▁국가의	-16350
▁군대에	-16351
▁그날은	-16352
▁나무를	-16353
▁내려서	-16354
▁다름이	-16355
▁도시락	-16356
▁도시를	-16357
▁되면서	-16358
▁드라이	-16359
▁라벨을	-16360
▁마카오	-16361
▁모여서	-16362
▁받으실	-16363
▁버리고	-16364
▁보내도	-16365
▁보내서	-16366
▁보시면	-16367
▁봉사를	-16368
▁삶에서	-16369
▁상황은	-16370
▁샌프란	-16371
▁샘플에	-16372
▁생산이	-16373
▁소식이	-16374
▁순간을	-16375
▁신나게	-16376
▁아내가	-16377
▁아니기	-16378
▁아닐까	-16379
▁아이와	-16380
▁않다면	-16381
▁알아봐	-16382
▁압니다	-16383
▁언급한	-16384
▁옵션을	-16385
▁요청할	-16386
▁용돈을	-16387
▁운동이	-16388
▁웃음을	-16389
▁위험이	-16390
▁윈도우	-16391
▁유학을	-16392
▁인증을	-16393
▁저희의	-16394
▁전달할	-16395
▁정신을	-16396
▁종이를	-16397
▁주까지	-16398
▁주말을	-16399
▁주소는	-16400
▁줄이기	-16401
▁중국인	-16402
▁중요시	-16403
▁처리가	-16404
▁컨트롤	-16405
▁태국에	-16406
▁토마토	-16407
▁파란색	-16408
▁파일이	-16409
▁하겠다	-16410
▁하다가	-16411
▁하려면	-16412
▁해결을	-16413
▁행동에	-16414
▁행사에	-16415
▁화나게	-16416
들로부터	-16417
뿐입니다	-16418
하기에는	-16419
해주시고	-16420
aired	-16421
allow	-16422
celer	-16423
dered	-16424
iches	-16425
itage	-16426
overy	-16427
style	-16428
▁Ever	-16429
▁Gold	-16430
▁Land	-16431
▁Mike	-16432
▁bite	-16433
▁dece	-16434
▁grat	-16435
▁lean	-16436
▁skip	-16437
▁tong	-16438
▁감사하고	-16439
▁게임에서	-16440
▁계약서에	-16441
▁고려하여	-16442
▁공부해야	-16443
▁관점에서	-16444
▁남자에게	-16445
▁대화하고	-16446
▁대회에서	-16447
▁마셨어요	-16448
▁말씀하신	-16449
▁못했지만	-16450
▁방문하여	-16451
▁부산에서	-16452
▁사이즈로	-16453
▁서비스에	-16454
▁스튜디오	-16455
▁아파트에	-16456
▁액세서리	-16457
▁여자에게	-16458
▁여행에서	-16459
▁유지하고	-16460
▁잃어버린	-16461
▁있는지요	-16462
▁있잖아요	-16463
▁정상적인	-16464
▁주셨으면	-16465
▁주인공은	-16466
▁진행되는	-16467
▁집안일을	-16468
▁창의적인	-16469
▁친절하고	-16470
▁한꺼번에	-16471
▁화장실이	-16472
▁확인해서	-16473
▁활용하여	-16474
▁힘들었어	-16475
arious	-16476
rifice	-16477
▁Apply	-16478
▁Being	-16479
▁Thats	-16480
▁euros	-16481
▁incom	-16482
▁proof	-16483
▁ratio	-16484
▁roles	-16485
▁shake	-16486
▁shell	-16487
▁spots	-16488
▁갔었습니다	-16489
▁것만으로도	-16490
▁나라에서는	-16491
▁남자친구와	-16492
▁무엇일까요	-16493
▁생각하기에	-16494
▁소개합니다	-16495
▁시간이에요	-16496
▁어디입니까	-16497
▁음식이에요	-16498
▁좋아했어요	-16499
▁진행됩니다	-16500
▁텔레비전을	-16501
▁했었습니다	-16502
iculous	-16503
itution	-16504
▁Health	-16505
▁Indust	-16506
▁Spring	-16507
▁bodies	-16508
▁casual	-16509
▁conver	-16510
▁gently	-16511
▁hospit	-16512
▁larger	-16513
▁lenses	-16514
▁output	-16515
▁rained	-16516
▁speaks	-16517
▁terror	-16518
▁thirty	-16519
▁tiring	-16520
▁샌프란시스코	-16521
▁College	-16522
▁blanket	-16523
▁capable	-16524
▁causing	-16525
▁hardest	-16526
▁letting	-16527
▁resting	-16528
▁utilize	-16529
▁Business	-16530
▁barbecue	-16531
▁cheering	-16532
▁midnight	-16533
▁occasion	-16534
▁politics	-16535
▁vehicles	-16536
▁worrying	-16537
Eventually	-16538
▁authentic	-16539
▁gratitude	-16540
▁adjustment	-16541
▁delivering	-16542
▁disposable	-16543
▁membership	-16544
▁refreshing	-16545
▁achievement	-16546
▁instruction	-16547
▁headquarters	-16548
▁communicating	-16549
▁misunderstood	-16550
1.	-16551
25	-16552
FP	-16553
bn	-16554
ea	-16555
▁끔	-16556
▁잉	-16557
▁춘	-16558
▁칩	-16559
▁탕	-16560
▁톰	-16561
개씩	-16562
과학	-16563
그때	-16564
동은	-16565
됐어	-16566
디는	-16567
리며	-16568
매일	-16569
바람	-16570
비아	-16571
스텔	-16572
씨는	-16573
정책	-16574
진다	-16575
튀김	-16576
형은	-16577
호선	-16578
600	-16579
800	-16580
Rec	-16581
azz	-16582
car	-16583
oli	-16584
▁4,	-16585
▁48	-16586
▁HQ	-16587
▁TT	-16588
▁Yu	-16589
▁겸손	-16590
▁공중	-16591
▁구운	-16592
▁그립	-16593
▁끔찍	-16594
▁넉넉	-16595
▁노란	-16596
▁달콤	-16597
▁듣게	-16598
▁리그	-16599
▁보드	-16600
▁보살	-16601
▁빌릴	-16602
▁섞어	-16603
▁성경	-16604
▁세안	-16605
▁소포	-16606
▁식탁	-16607
▁써요	-16608
▁쓰러	-16609
▁엑스	-16610
▁여왕	-16611
▁오실	-16612
▁옥수	-16613
▁워킹	-16614
▁원격	-16615
▁원숭	-16616
▁이집	-16617
▁잃은	-16618
▁입국	-16619
▁장치	-16620
▁전국	-16621
▁제약	-16622
▁조명	-16623
▁조치	-16624
▁죽음	-16625
▁중고	-16626
▁지향	-16627
▁진심	-16628
▁짓는	-16629
▁창업	-16630
▁측에	-16631
▁필터	-16632
▁한옥	-16633
▁헌신	-16634
▁화면	-16635
▁환승	-16636
▁환자	-16637
동으로	-16638
들과의	-16639
스트라	-16640
편으로	-16641
해서는	-16642
했으며	-16643
힙니다	-16644
aken	-16645
case	-16646
cipe	-16647
down	-16648
ints	-16649
suit	-16650
ulum	-16651
▁See	-16652
▁Set	-16653
▁VIP	-16654
▁dye	-16655
▁fed	-16656
▁hip	-16657
▁ske	-16658
▁가득한	-16659
▁간호사	-16660
▁갈아타	-16661
▁공원에	-16662
▁과목을	-16663
▁그리는	-16664
▁기술의	-16665
▁긴장을	-16666
▁나눠서	-16667
▁날에는	-16668
▁날짜는	-16669
▁놀이기	-16670
▁다음주	-16671
▁대답을	-16672
▁대학의	-16673
▁돌아온	-16674
▁마을에	-16675
▁말해서	-16676
▁말해야	-16677
▁메뉴가	-16678
▁목적을	-16679
▁무거운	-16680
▁미소를	-16681
▁바꾸는	-16682
▁바라보	-16683
▁받기를	-16684
▁받으러	-16685
▁방학이	-16686
▁배터리	-16687
▁변화에	-16688
▁보내줘	-16689
▁본인이	-16690
▁분들이	-16691
▁서버에	-16692
▁선적할	-16693
▁성공한	-16694
▁성분이	-16695
▁세계에	-16696
▁속도가	-16697
▁속도를	-16698
▁솔루션	-16699
▁시설이	-16700
▁시장이	-16701
▁알아서	-16702
▁여성이	-16703
▁오로지	-16704
▁오스트	-16705
▁오페라	-16706
▁오해가	-16707
▁올리고	-16708
▁의사는	-16709
▁의자를	-16710
▁의지가	-16711
▁이것과	-16712
▁이유에	-16713
▁있으나	-16714
▁자원봉	-16715
▁잡니다	-16716
▁저번에	-16717
▁전화로	-16718
▁주변의	-16719
▁줄이고	-16720
▁증상이	-16721
▁지역은	-16722
▁차이는	-16723
▁콘서트	-16724
▁트레이	-16725
▁패턴을	-16726
▁프리미	-16727
▁플러그	-16728
▁하늘이	-16729
▁해결책	-16730
▁혜택을	-16731
▁힘들지	-16732
장입니다	-16733
하더라도	-16734
elled	-16735
ghter	-16736
ician	-16737
liest	-16738
wards	-16739
▁Char	-16740
▁Mart	-16741
▁More	-16742
▁Seok	-16743
▁Stop	-16744
▁mill	-16745
▁obst	-16746
▁pose	-16747
▁ribs	-16748
▁rose	-16749
▁stab	-16750
▁vend	-16751
▁가능하게	-16752
▁너희들이	-16753
▁다양하게	-16754
▁때입니다	-16755
▁마십니다	-16756
▁먹으면서	-16757
▁보내줄게	-16758
▁생각해야	-16759
▁생깁니다	-16760
▁서비스로	-16761
▁선생님과	-16762
▁소중함을	-16763
▁어머니가	-16764
▁여러분께	-16765
▁연락할게	-16766
▁원했어요	-16767
▁의미해요	-16768
▁이벤트를	-16769
▁자신들의	-16770
▁친구들도	-16771
▁친구들의	-16772
▁커뮤니티	-16773
▁프로모션	-16774
▁하나님의	-16775
▁할아버지	-16776
▁홈페이지	-16777
▁확인하는	-16778
▁효율적인	-16779
encies	-16780
iences	-16781
uction	-16782
▁Cheon	-16783
▁Egypt	-16784
▁Lunar	-16785
▁Seong	-16786
▁abuse	-16787
▁coord	-16788
▁defin	-16789
▁diagn	-16790
▁dumpl	-16791
▁mocha	-16792
▁mouse	-16793
▁notes	-16794
▁디자인으로	-16795
▁방법이에요	-16796
▁사용됩니다	-16797
▁소개하려고	-16798
▁싫어합니다	-16799
▁아이디어가	-16800
▁홈페이지에	-16801
▁확인합니다	-16802
jection	-16803
ologies	-16804
uddenly	-16805
utation	-16806
▁Family	-16807
▁Having	-16808
▁Myeong	-16809
▁Sports	-16810
▁Travel	-16811
▁battle	-16812
▁buyers	-16813
▁checks	-16814
▁covers	-16815
▁deeper	-16816
▁digest	-16817
▁endure	-16818
▁evenly	-16819
▁hambur	-16820
▁indoor	-16821
▁murder	-16822
▁ranked	-16823
▁taller	-16824
▁tomato	-16825
▁돌아왔습니다	-16826
▁사과드립니다	-16827
▁알려드립니다	-16828
▁우리나라에서	-16829
▁Gangwon	-16830
▁Gwangju	-16831
▁bottles	-16832
▁circuit	-16833
▁endless	-16834
▁finance	-16835
▁inspect	-16836
▁midterm	-16837
▁primary	-16838
▁replied	-16839
▁screens	-16840
▁unemplo	-16841
▁unknown	-16842
▁dinosaur	-16843
▁enormous	-16844
▁fluently	-16845
▁greeting	-16846
▁guidance	-16847
▁humidity	-16848
▁laughing	-16849
▁outgoing	-16850
▁relation	-16851
▁amusement	-16852
▁curiosity	-16853
▁decreased	-16854
▁exchanged	-16855
▁expansion	-16856
▁fermented	-16857
▁occurring	-16858
▁sacrifice	-16859
▁telephone	-16860
▁cigarettes	-16861
▁discovered	-16862
▁prohibited	-16863
▁surprising	-16864
▁experiments	-16865
▁understands	-16866
▁consistently	-16867
▁modification	-16868
▁particularly	-16869
▁organizations	-16870
4.	-16871
89	-16872
HA	-16873
RA	-16874
SA	-16875
py	-16876
감은	-16877
권은	-16878
났어	-16879
대왕	-16880
대화	-16881
라미	-16882
법이	-16883
색이	-16884
석은	-16885
여야	-16886
옷을	-16887
움에	-16888
입을	-16889
있지	-16890
[...]
