<unk>	0
<s>	0
</s>	0
..	-0
영화	-1
▁영화	-2
▁이	-3
▁아	-4
...	-5
▁그	-6
▁보	-7
▁재	-8
ᄏᄏ	-9
니다	-10
▁정	-11
▁나	-12
는데	-13
너무	-14
▁다	-15
▁좋	-16
▁하	-17
▁없	-18
▁어	-19
▁너무	-20
▁사	-21
▁진	-22
▁내	-23
▁감	-24
▁재미	-25
▁연	-26
▁있	-27
▁지	-28
!!	-29
으로	-30
지만	-31
하고	-32
▁최	-33
▁한	-34
▁시	-35
네요	-36
▁안	-37
▁1	-38
▁정말	-39
▁스	-40
▁만	-41
▁가	-42
에서	-43
....	-44
▁재밌	-45
▁기	-46
▁봤	-47
▁평	-48
▁대	-49
▁전	-50
▁진짜	-51
▁연기	-52
▁마	-53
하는	-54
▁무	-55
▁모	-56
▁수	-57
▁여	-58
▁생	-59
▁잘	-60
어요	-61
▁주	-62
▁최고	-63
▁않	-64
▁더	-65
▁평점	-66
드라	-67
습니다	-68
▁오	-69
토리	-70
▁개	-71
이다	-72
▁제	-73
▁인	-74
하다	-75
▁이런	-76
▁말	-77
▁배	-78
드라마	-79
▁생각	-80
▁왜	-81
▁ᄏᄏ	-82
▁자	-83
들이	-84
▁같	-85
▁못	-86
▁스토리	-87
▁소	-88
▁남	-89
까지	-90
▁알	-91
▁본	-92
▁느	-93
▁볼	-94
▁유	-95
▁미	-96
하게	-97
▁감동	-98
▁보고	-99
▁별	-100
▁일	-101
이라	-102
▁비	-103
▁것	-104
보다	-105
▁장	-106
었다	-107
▁쓰	-108
▁우	-109
▁지루	-110
▁드라마	-111
▁많	-112
▁작	-113
▁중	-114
▁그냥	-115
▁재미있	-116
▁공	-117
▁부	-118
▁아니	-119
▁배우	-120
레기	-121
▁2	-122
▁사람	-123
▁조	-124
~~	-125
해서	-126
▁내용	-127
면서	-128
▁뭐	-129
ᅲᅲ	-130
▁역	-131
▁10	-132
▁완	-133
▁만들	-134
▁감독	-135
▁끝	-136
▁저	-137
▁애	-138
적인	-139
▁좀	-140
렇게	-141
▁재미없	-142
다는	-143
▁고	-144
리고	-145
▁해	-146
▁사랑	-147
▁쓰레기	-148
▁명	-149
▁되	-150
▁참	-151
▁영화를	-152
▁반	-153
▁보는	-154
;;	-155
▁영	-156
▁웃	-157
▁결	-158
^^	-159
▁예	-160
보고	-161
▁다시	-162
▁봐	-163
▁좋아	-164
액션	-165
▁상	-166
지막	-167
▁거	-168
??	-169
라고	-170
▁시간	-171
▁싶	-172
으면	-173
▁실	-174
▁매	-175
▁좋은	-176
▁신	-177
▁눈	-178
▁처	-179
▁바	-180
입니다	-181
▁이거	-182
들의	-183
▁영화는	-184
▁노	-185
▁영화가	-186
▁작품	-187
▁봤는데	-188
▁불	-189
하지	-190
▁없는	-191
▁살	-192
▁이건	-193
▁원	-194
▁기대	-195
▁내가	-196
▁최고의	-197
인공	-198
지는	-199
▁마지막	-200
ᄏᄏᄏᄏ	-201
▁난	-202
▁좋았	-203
다가	-204
▁액션	-205
▁완전	-206
!!!	-207
▁있는	-208
▁3	-209
▁하나	-210
다고	-211
▁코	-212
▁할	-213
▁넘	-214
▁의	-215
야기	-216
ᄒᄒ	-217
▁성	-218
▁처음	-219
▁도	-220
▁때	-221
어서	-222
없는	-223
적이	-224
▁한국	-225
▁죽	-226
▁추	-227
같은	-228
▁후	-229
▁지금	-230
▁없다	-231
세요	-232
▁몰	-233
했다	-234
▁나오	-235
▁하는	-236
▁현	-237
들은	-238
인데	-239
▁괜	-240
▁이게	-241
,,	-242
▁이렇게	-243
에게	-244
▁최악	-245
▁김	-246
▁극	-247
▁모르	-248
합니다	-249
ᅳᅳ	-250
▁세	-251
▁아깝	-252
▁별로	-253
▁또	-254
라는	-255
적으로	-256
부터	-257
대로	-258
▁이해	-259
▁멋	-260
▁강	-261
▁허	-262
겠다	-263
이나	-264
▁관	-265
▁연출	-266
▁초	-267
연기	-268
▁분	-269
▁짜	-270
있는	-271
▁위	-272
▁돈	-273
▁두	-274
▁느낌	-275
▁동	-276
▁심	-277
한다	-278
▁화	-279
▁명작	-280
▁따	-281
▁잼	-282
▁이야기	-283
▁구	-284
▁역시	-285
▁우리	-286
▁평점이	-287
▁로	-288
▁기억	-289
▁재밌게	-290
▁했	-291
▁뭔	-292
▁음	-293
되는	-294
▁캐	-295
OO	-296
▁많이	-297
▁괜찮	-298
▁당	-299
정도	-300
▁아이	-301
▁들	-302
▁그래	-303
▁장면	-304
지도	-305
배우	-306
주는	-307
▁이영화	-308
▁여자	-309
문에	-310
▁엄	-311
▁아름	-312
▁만든	-313
▁에	-314
▁요	-315
▁그리고	-316
▁잔	-317
리는	-318
▁발	-319
▁아까	-320
▁그런	-321
▁와	-322
ᄏᄏᄏ	-323
▁차	-324
▁보여	-325
▁막	-326
▁꼭	-327
재미	-328
▁주인공	-329
사람	-330
았다	-331
드는	-332
▁마음	-333
▁아닌	-334
▁슬	-335
▁공포	-336
▁단	-337
▁포	-338
것도	-339
필요	-340
▁특	-341
▁귀	-342
▁같은	-343
만에	-344
▁울	-345
▁일본	-346
진짜	-347
▁박	-348
!!!!	-349
▁졸	-350
▁설	-351
▁유치	-352
▁볼만	-353
을까	-354
하나	-355
가는	-356
아서	-357
▁표	-358
▁무슨	-359
▁없고	-360
▁줄	-361
▁아무	-362
▁ᅲᅲ	-363
▁현실	-364
▁힘	-365
▁존	-366
없이	-367
▁점	-368
▁망	-369
▁결말	-370
었는데	-371
였다	-372
▁ᄏᄏᄏ	-373
▁이상	-374
인가	-375
하기	-376
▁서	-377
▁소재	-378
▁아깝다	-379
▁흥	-380
없다	-381
▁몰입	-382
▁보면	-383
시간	-384
▁다른	-385
하면	-386
▁가장	-387
▁보기	-388
▁짱	-389
나는	-390
▁누	-391
니까	-392
▁매력	-393
▁과	-394
▁반전	-395
▁속	-396
▁남자	-397
▁.	-398
▁리	-399
구나	-400
▁절	-401
▁뻔	-402
▁짜증	-403
▁가슴	-404
하지만	-405
보는	-406
▁..	-407
▁OO	-408
▁선	-409
▁걸	-410
▁말이	-411
▁눈물	-412
▁영화다	-413
▁낮	-414
▁얼	-415
▁애니	-416
▁빠	-417
▁솔	-418
▁스릴	-419
▁맞	-420
미디	-421
인지	-422
이고	-423
▁높	-424
▁대한	-425
▁계	-426
스럽	-427
▁인생	-428
▁20	-429
▁긴	-430
▁충	-431
는다	-432
▁ᄒᄒ	-433
▁원작	-434
▁드	-435
▁인간	-436
▁정도	-437
▁억	-438
재밌	-439
▁방	-440
릭터	-441
봐도	-442
▁있다	-443
는지	-444
▁ᄏ	-445
▁만들어	-446
▁영상	-447
아요	-448
더라	-449
었던	-450
에는	-451
▁전개	-452
ᅮᅮ	-453
▁몇	-454
리즈	-455
려고	-456
▁솔직	-457
▁많은	-458
▁극장	-459
지마	-460
▁음악	-461
스러	-462
지않	-463
▁집	-464
지고	-465
▁4	-466
나서	-467
▁돌	-468
▁게	-469
▁'	-470
▁적	-471
▁필요	-472
▁건	-473
▁ᄏᄏᄏᄏ	-474
▁머	-475
▁모든	-476
▁한번	-477
▁굿	-478
처럼	-479
▁아름다	-480
▁간	-481
▁듯	-482
▁9	-483
▁아직	-484
▁ᅳᅳ	-485
▁끝까지	-486
▁피	-487
▁새	-488
정말	-489
메이	-490
▁순	-491
▁수준	-492
▁문	-493
▁8	-494
점이	-495
다니	-496
▁억지	-497
었음	-498
▁근	-499
나오	-500
밖에	-501
▁욕	-502
▁찾	-503
들을	-504
▁이제	-505
▁하지만	-506
된다	-507
▁하고	-508
▁올	-509
▁외	-510
▁봐도	-511
▁재밋	-512
▁행	-513
▁프	-514
▁솔직히	-515
▁받	-516
▁편	-517
▁파	-518
떨어	-519
중에	-520
▁모두	-521
▁언	-522
▁...	-523
스터	-524
▁실망	-525
▁엄청	-526
떻게	-527
▁추천	-528
▁열	-529
▁뭔가	-530
▁전혀	-531
나라	-532
▁7	-533
▁경	-534
▁찍	-535
▁아주	-536
타임	-537
기도	-538
▁캐릭터	-539
▁5	-540
했던	-541
▁연기력	-542
▁코미디	-543
▁딱	-544
▁좋다	-545
▁여운	-546
이는	-547
▁긴장	-548
▁호	-549
주고	-550
▁봤다	-551
준다	-552
을때	-553
장면	-554
▁같다	-555
.....	-556
▁갈	-557
▁공감	-558
▁독	-559
▁출	-560
리가	-561
▁치	-562
는거	-563
에도	-564
주인공	-565
▁먹	-566
▁약	-567
▁개봉	-568
▁대박	-569
스트	-570
▁놀	-571
▁버	-572
건지	-573
감독	-574
▁대단	-575
▁답	-576
때문에	-577
▁배우들	-578
이랑	-579
▁계속	-580
▁영화의	-581
........	-582
이지	-583
만들	-584
▁나온	-585
▁최악의	-586
수록	-587
친구	-588
▁가족	-589
▁달	-590
▁이걸	-591
▁0	-592
했는데	-593
▁엉	-594
▁어떻게	-595
생각	-596
점도	-597
▁모습	-598
▁영화에	-599
이가	-600
▁재미있게	-601
▁교	-602
▁크	-603
▁내내	-604
▁믿	-605
▁표현	-606
영화는	-607
라도	-608
이라는	-609
▁흥미	-610
▁손	-611
▁등	-612
▁재밌다	-613
▁함	-614
없고	-615
▁대사	-616
▁아니라	-617
▁야	-618
기는	-619
▁않고	-620
수가	-621
▁즐	-622
▁잔잔	-623
어야	-624
▁레	-625
▁질	-626
10	-627
▁그래도	-628
▁내용이	-629
었어요	-630
하네요	-631
던데	-632
엔딩	-633
▁제목	-634
▁악	-635
최고	-636
아니	-637
있다	-638
▁싸	-639
하네	-640
스토리	-641
▁나오는	-642
▁어디	-643
내내	-644
봤는데	-645
▁연기가	-646
▁삶	-647
▁그렇	-648
내용	-649
라리	-650
▁기분	-651
▁담	-652
▁베	-653
▁카	-654
▁진심	-655
▁물	-656
▁아니다	-657
▁아쉽	-658
▁조금	-659
▁떨어	-660
▁느껴	-661
어도	-662
한테	-663
~~~	-664
▁않은	-665
▁보다	-666
전에	-667
▁-	-668
기에	-669
영화가	-670
리오	-671
▁잠	-672
▁시리즈	-673
▁긴장감	-674
해요	-675
보면	-676
▁연기도	-677
성이	-678
하면서	-679
▁만드는	-680
▁재미없다	-681
▁잊	-682
▁아쉬	-683
들도	-684
▁요즘	-685
이라고	-686
▁자체	-687
▁스릴러	-688
▁메	-689
리스	-690
▁아름다운	-691
▁막장	-692
▁떠	-693
▁개인	-694
만큼	-695
▁봐야	-696
▁오랜	-697
대체	-698
▁네	-699
▁근데	-700
같다	-701
으나	-702
▁제일	-703
▁천	-704
▁제대로	-705
훌륭	-706
이란	-707
인듯	-708
▁앞	-709
▁나는	-710
▁부족	-711
▁나름	-712
▁목	-713
▁홍	-714
▁나왔	-715
▁중간	-716
▁제작	-717
▁재미도	-718
▁알바	-719
▁내용도	-720
▁보다가	-721
이상	-722
▁노래	-723
만한	-724
기가	-725
난다	-726
▁않는	-727
▁잼있	-728
▁정신	-729
▁날	-730
▁아까운	-731
년대	-732
▁데	-733
▁아니고	-734
치는	-735
▁웃기	-736
▁어설	-737
▁미국	-738
▁감독이	-739
▁형	-740
▁이유	-741
▁디	-742
▁시작	-743
▁스토리가	-744
▁각	-745
ᄏᄏᄏᄏᄏᄏᄏᄏ	-746
싶다	-747
▁삼	-748
▁타	-749
▁때문에	-750
▁왜이	-751
점은	-752
▁킬	-753
▁된	-754
▁시간이	-755
▁영화라고	-756
거리	-757
▁훌륭	-758
▁복	-759
▁싶다	-760
할수	-761
▁따뜻	-762
▁국	-763
해도	-764
라이	-765
▁뒤	-766
▁그러	-767
진다	-768
에요	-769
▁의미	-770
나고	-771
▁될	-772
▁통	-773
▁나와	-774
▁남는	-775
▁출연	-776
▁너무나	-777
▁영화로	-778
▁살아	-779
▁로맨	-780
▁보게	-781
▁싶은	-782
감동	-783
군요	-784
▁뻔한	-785
영화를	-786
마다	-787
▁케	-788
더니	-789
▁느끼	-790
나리오	-791
▁차라리	-792
았는데	-793
▁감정	-794
적이고	-795
기를	-796
이네	-797
▁모르겠	-798
▁아직도	-799
▁절대	-800
▁티	-801
하는데	-802
스팅	-803
▁세상	-804
▁6	-805
▁스토리도	-806
▁뭘	-807
나요	-808
▁어린	-809
▁작가	-810
▁특히	-811
▁무서	-812
▁무엇	-813
▁산	-814
▁싫	-815
▁수작	-816
▁신선	-817
▁영화입니다	-818
▁글	-819
스러운	-820
소리	-821
▁재밌어요	-822
로운	-823
▁^^	-824
▁보면서	-825
▁여운이	-826
▁그저	-827
▁주는	-828
▁"	-829
▁나도	-830
으로도	-831
학교	-832
▁영화였	-833
었습니다	-834
▁무섭	-835
▁안되	-836
▁감독의	-837
▁괜찮은	-838
▁친구	-839
사랑	-840
▁되는	-841
▁좋고	-842
▁판	-843
▁얼마	-844
▁도대체	-845
▁장난	-846
없음	-847
이런	-848
▁C	-849
▁황	-850
▁사실	-851
▁행복	-852
▁희	-853
▁ᅲ	-854
▁옛	-855
▁어이	-856
▁훨	-857
해야	-858
▁변	-859
▁부분	-860
▁멋진	-861
▁t	-862
이야	-863
▁점수	-864
▁B	-865
점을	-866
▁만화	-867
메이션	-868
▁걍	-869
▁용	-870
▁갑	-871
▁깊	-872
▁관객	-873
▁좋아하는	-874
▁시청	-875
▁언제	-876
지가	-877
▁좋았다	-878
▁자신	-879
▁우리나라	-880
▁이해가	-881
싶은	-882
▁답답	-883
▁첨	-884
나게	-885
???	-886
▁없음	-887
이네요	-888
▁빼	-889
▁확	-890
▁오랜만에	-891
▁빨	-892
▁토	-893
▁봤던	-894
▁전쟁	-895
▁니	-896
한데	-897
▁봤습니다	-898
▁인상	-899
▁허접	-900
;;;	-901
_-	-902
▁시나리오	-903
▁소름	-904
▁초반	-905
▁깨	-906
▁어색	-907
▁입	-908
인이	-909
▁마지막에	-910
성도	-911
▁양	-912
것이	-913
▁킬링	-914
▁재미가	-915
치고	-916
ᄃᄃ	-917
▁생각이	-918
▁청	-919
▁슬프	-920
▁배우들의	-921
▁추억	-922
▁힘들	-923
한거	-924
▁분위	-925
ᄍᄍ	-926
▁준	-927
▁어떤	-928
▁종	-929
▁완벽	-930
▁결국	-931
▁최고다	-932
▁길	-933
아깝	-934
▁지루하고	-935
부분	-936
▁시대	-937
▁낚	-938
▁둘	-939
▁총	-940
디오	-941
▁배경	-942
동안	-943
▁궁	-944
이지만	-945
▁영화관	-946
▁헐	-947
▁다큐	-948
▁오늘	-949
,,,	-950
▁엔딩	-951
▁잡	-952
▁안타	-953
▁뛰	-954
구만	-955
▁OOO	-956
▁귀여	-957
▁없이	-958
놓고	-959
▁흐	-960
▁들어	-961
아까	-962
▁이딴	-963
▁함께	-964
들에게	-965
▁지루함	-966
점대	-967
▁지루한	-968
▁어릴	-969
▁아름답	-970
▁환	-971
럽게	-972
▁문제	-973
▁졸작	-974
▁큰	-975
▁못한	-976
리지	-977
▁범	-978
다면	-979
▁스타	-980
▁역사	-981
▁임	-982
▁당시	-983
▁보는내내	-984
▁유쾌	-985
▁개인적으로	-986
을듯	-987
▁태	-988
▁식	-989
▁팬	-990
▁왠	-991
▁클	-992
▁진부	-993
▁만들었	-994
▁암	-995
좋아	-996
▁있었	-997
▁강추	-998
▁혼	-999
▁찾아	-1000
~!	-1001
▁러	-1002
▁뿐	-1003
▁아무리	-1004
건가	-1005
나마	-1006
▁예술	-1007
▁영화도	-1008
▁꿈	-1009
는게	-1010
보니	-1011
▁킬링타임	-1012
▁코믹	-1013
낭비	-1014
보단	-1015
▁그렇게	-1016
▁연기는	-1017
▁진정	-1018
▁애니메이션	-1019
평점	-1020
▁개연	-1021
▁주연	-1022
그냥	-1023
그래	-1024
시길	-1025
텐데	-1026
▁보세요	-1027
▁맘	-1028
▁돌아	-1029
▁공포영화	-1030
▁얼마나	-1031
▁민	-1032
▁책	-1033
▁포스터	-1034
▁지루하다	-1035
▁오래	-1036
구요	-1037
▁재밌는	-1038
주의	-1039
▁웃음	-1040
▁몸	-1041
레이	-1042
▁ᄒ	-1043
oo	-1044
▁설정	-1045
▁기억에	-1046
▁영화라	-1047
▁캐스팅	-1048
▁후회	-1049
쓰레기	-1050
▁사람이	-1051
있고	-1052
▁폭	-1053
지루	-1054
작품	-1055
▁더빙	-1056
▁몰입도	-1057
▁제발	-1058
▁백	-1059
▁보지	-1060
하며	-1061
▁얘	-1062
들과	-1063
▁충격	-1064
▁브	-1065
▁옛날	-1066
▁안되는	-1067
▁주제	-1068
▁여러	-1069
▁지나	-1070
▁충분	-1071
▁T	-1072
마디	-1073
한영화	-1074
▁낫	-1075
▁한국영화	-1076
▁알고	-1077
▁패	-1078
당히	-1079
st	-1080
▁엄마	-1081
▁좋아요	-1082
만든	-1083
길래	-1084
이버	-1085
00	-1086
▁않았	-1087
가지	-1088
했음	-1089
▁궁금	-1090
~~~~	-1091
▁극장에서	-1092
같이	-1093
▁주고	-1094
려는	-1095
▁보지마	-1096
▁꽤	-1097
▁것이	-1098
▁같이	-1099
▁어느	-1100
▁병	-1101
학생	-1102
▁하나도	-1103
인줄	-1104
▁집중	-1105
▁매우	-1106
▁있고	-1107
▁모르겠다	-1108
▁채	-1109
자기	-1110
▁미친	-1111
▁터	-1112
▁재밌음	-1113
하시	-1114
▁군	-1115
▁굳	-1116
말이	-1117
▁먼	-1118
▁색	-1119
렸다	-1120
▁잔인	-1121
▁괴	-1122
웠다	-1123
▁중국	-1124
▁커	-1125
▁뛰어	-1126
▁느낌이	-1127
버린	-1128
▁빠져	-1129
▁여기	-1130
▁한다	-1131
르는	-1132
▁ᅮᅮ	-1133
▁흘	-1134
▁봤어요	-1135
▁감동적이	-1136
것같	-1137
▁상상	-1138
▁순수	-1139
▁은	-1140
꿀잼	-1141
▁말도	-1142
▁불쌍	-1143
▁영화중	-1144
▁따라	-1145
▁투	-1146
거지	-1147
력이	-1148
▁탄	-1149
▁이름	-1150
▁풀	-1151
야지	-1152
▁후반	-1153
▁광	-1154
▁나올	-1155
▁하지	-1156
좋은	-1157
성을	-1158
▁비슷	-1159
▁영화네요	-1160
편이	-1161
이야기	-1162
했지만	-1163
▁엉성	-1164
▁블	-1165
▁마음이	-1166
▁끌	-1167
▁첫	-1168
함을	-1169
▁위해	-1170
......	-1171
▁돋	-1172
▁너	-1173
전개	-1174
▁걸작	-1175
▁이쁘	-1176
▁눈물이	-1177
수있	-1178
자체	-1179
▁않는다	-1180
▁약간	-1181
▁그만	-1182
굉장	-1183
▁대체	-1184
기만	-1185
▁숨	-1186
봤다	-1187
▁여주인공	-1188
▁얼굴	-1189
▁위한	-1190
해지는	-1191
▁b	-1192
▁사람들	-1193
이거	-1194
▁영상미	-1195
▁번	-1196
워서	-1197
자가	-1198
▁프로	-1199
▁,	-1200
▁감동도	-1201
▁훨씬	-1202
▁없었다	-1203
▁o	-1204
▁똥	-1205
노잼	-1206
이라도	-1207
▁읽	-1208
가서	-1209
듯한	-1210
▁갈수록	-1211
▁감사	-1212
▁똑	-1213
이었다	-1214
것을	-1215
▁이정도	-1216
▁실화	-1217
▁히	-1218
▁비교	-1219
리를	-1220
라서	-1221
으니	-1222
▁그나마	-1223
▁내용은	-1224
▁왕	-1225
▁키	-1226
▁가슴이	-1227
▁!	-1228
▁철	-1229
그리고	-1230
▁로맨스	-1231
▁굉장	-1232
▁누가	-1233
▁전체	-1234
▁g	-1235
느낌	-1236
시절	-1237
▁연기를	-1238
▁벌	-1239
대한	-1240
겠지만	-1241
▁취	-1242
멜로	-1243
인생	-1244
함이	-1245
▁19	-1246
▁단순	-1247
▁S	-1248
▁재미없음	-1249
▁죄	-1250
♥♥	-1251
재밋	-1252
▁CG	-1253
▁그래서	-1254
라면	-1255
▁기억이	-1256
보게	-1257
▁것을	-1258
▁있을	-1259
시키	-1260
▁알았	-1261
▁장르	-1262
▁존나	-1263
▁보여주는	-1264
타지	-1265
▁맛	-1266
▁흔	-1267
▁초딩	-1268
▁감동이	-1269
겠지	-1270
년도	-1271
▁어렸	-1272
▁오글	-1273
▁네이버	-1274
▁비디오	-1275
▁갖	-1276
지지	-1277
▁없어	-1278
보기	-1279
▁노잼	-1280
▁발연기	-1281
▁밖에	-1282
▁상황	-1283
▁어설픈	-1284
재미있	-1285
린다	-1286
수준	-1287
아이	-1288
▁200	-1289
년이	-1290
한번	-1291
이건	-1292
▁것도	-1293
▁느낄	-1294
▁한마디	-1295
▁티비	-1296
▁재밌고	-1297
▁c	-1298
▁화려	-1299
스럽다	-1300
ood	-1301
▁인물	-1302
▁s	-1303
▁알게	-1304
▁사람들이	-1305
나온	-1306
든다	-1307
▁100	-1308
▁다음	-1309
이라면	-1310
려서	-1311
머니	-1312
▁바로	-1313
말고	-1314
▁대해	-1315
개도	-1316
연히	-1317
▁딸	-1318
그런	-1319
인의	-1320
▁시즌	-1321
▁이미	-1322
버지	-1323
론가	-1324
▁이것	-1325
▁영화였다	-1326
▁풍	-1327
▁귀엽	-1328
▁쓰레기영화	-1329
다시	-1330
▁다들	-1331
적이다	-1332
▁않다	-1333
▁....	-1334
편은	-1335
으면서	-1336
▁결말이	-1337
▁영화관에서	-1338
었고	-1339
짜리	-1340
잖아	-1341
▁등장	-1342
▁늘	-1343
▁트	-1344
거같	-1345
주세요	-1346
▁같아요	-1347
▁섹	-1348
▁송	-1349
▁성룡	-1350
▁좋겠	-1351
▁테	-1352
감이	-1353
되고	-1354
▁생각보다	-1355
▁스토리는	-1356
▁30	-1357
▁독특	-1358
▁보니	-1359
▁애들	-1360
마지막	-1361
▁꼬	-1362
▁으	-1363
정이	-1364
▁보았	-1365
▁멍	-1366
다른	-1367
완전	-1368
▁감동적인	-1369
건데	-1370
스가	-1371
▁이후	-1372
▁잘봤	-1373
▁평가	-1374
▁킬링타임용	-1375
▁온	-1376
▁잘못	-1377
▁간만에	-1378
▁두번	-1379
er	-1380
▁~	-1381
땜에	-1382
해라	-1383
▁ᄍᄍ	-1384
▁맘에	-1385
▁사회	-1386
영화의	-1387
▁상당히	-1388
▁항	-1389
거야	-1390
▁교훈	-1391
▁훈	-1392
▁전부	-1393
어가	-1394
아깝다	-1395
▁생각을	-1396
▁잔잔한	-1397
여자	-1398
이팅	-1399
정도로	-1400
▁다운	-1401
▁아님	-1402
▁해서	-1403
▁영화임	-1404
▁그리	-1405
▁?	-1406
▁틀	-1407
▁직	-1408
아닌	-1409
▁높은	-1410
▁삼류	-1411
▁존재	-1412
▁여배우	-1413
▁했는데	-1414
분들	-1415
졌다	-1416
▁별점	-1417
스타	-1418
▁아쉽다	-1419
▁라	-1420
▁쓸	-1421
▁당신	-1422
▁좋은데	-1423
수를	-1424
할때	-1425
▁거의	-1426
▁뭐야	-1427
중간	-1428
▁마이	-1429
▁그대로	-1430
모르	-1431
여서	-1432
▁중간에	-1433
▁휴	-1434
거나	-1435
▁혼자	-1436
▁세계	-1437
나오는	-1438
▁진정한	-1439
,.	-1440
▁혹	-1441
워요	-1442
▁감동을	-1443
▁있을까	-1444
▁윤	-1445
▁어울	-1446
▁정도로	-1447
▁배우들이	-1448
▁다르	-1449
▁기다	-1450
보다는	-1451
▁재미는	-1452
하자	-1453
▁소설	-1454
간다	-1455
▁마음에	-1456
▁뭐지	-1457
▁같은데	-1458
▁굉장히	-1459
▁이영화를	-1460
▁봐서	-1461
▁있지만	-1462
▁재미있어요	-1463
▁빵	-1464
본다	-1465
어나	-1466
▁하다	-1467
▁어른	-1468
▁평점을	-1469
▁슬픈	-1470
에서도	-1471
였음	-1472
▁자기	-1473
▁저런	-1474
▁제가	-1475
▁영화인데	-1476
▁실제	-1477
▁허무	-1478
▁나와서	-1479
▁보고싶	-1480
▁구성	-1481
▁재미있는	-1482
시대	-1483
▁몇번	-1484
▁자연	-1485
▁볼만한	-1486
▁각본	-1487
▁멜로	-1488
▁재미있다	-1489
▁준다	-1490
▁봤지만	-1491
▁재밌네요	-1492
댓글	-1493
이게	-1494
들어	-1495
아야	-1496
▁예상	-1497
▁잃	-1498
▁나의	-1499
을텐데	-1500
▁착	-1501
▁했다	-1502
▁밑	-1503
가고	-1504
라니	-1505
▁개그	-1506
었지만	-1507
영화다	-1508
▁권	-1509
을수	-1510
▁압	-1511
▁볼수	-1512
▁좀비	-1513
지를	-1514
▁더욱	-1515
▁어쩌	-1516
하냐	-1517
▁낮은	-1518
▁O	-1519
에선	-1520
▁에로	-1521
▁질질	-1522
▁ᅳ	-1523
▁봣	-1524
▁쳐	-1525
▁흑	-1526
에서는	-1527
▁멋있	-1528
▁방송	-1529
▁이번	-1530
▁감독님	-1531
▁90	-1532
▁가치	-1533
이트	-1534
▁극장판	-1535
▁생각하게	-1536
▁(	-1537
년전	-1538
랑스	-1539
음악	-1540
▁뭐냐	-1541
▁믿고	-1542
▁빨리	-1543
▁듣	-1544
던가	-1545
다는게	-1546
▁빛	-1547
▁멋지	-1548
▁까	-1549
▁맨	-1550
예요	-1551
▁불편	-1552
▁있어서	-1553
와서	-1554
▁장면이	-1555
저히	-1556
▁끝나	-1557
▁예쁘	-1558
????	-1559
▁묘	-1560
▁운	-1561
일이	-1562
▁재미없는	-1563
▁밀	-1564
▁갑자기	-1565
시다	-1566
▁상영	-1567
때마다	-1568
▁시청률	-1569
▁봄	-1570
▁머리	-1571
▁항상	-1572
▁슈	-1573
▁겁	-1574
고는	-1575
▁TV	-1576
▁확실	-1577
!!!!!!!!	-1578
기대	-1579
▁뭐가	-1580
▁여주	-1581
▁평범	-1582
▁판타지	-1583
▁써	-1584
인다	-1585
~!!	-1586
▁있어	-1587
▁중요	-1588
이라니	-1589
▁어디서	-1590
속에	-1591
▁원작을	-1592
ᄋᄋ	-1593
리의	-1594
에겐	-1595
-_-	-1596
▁그녀	-1597
▁새로운	-1598
▁흥행	-1599
▁봐라	-1600
▁예고	-1601
▁즐거	-1602
▁해도	-1603
▁자체가	-1604
▁탄탄	-1605
▁화면	-1606
▁평론가	-1607
▁역대	-1608
▁있었다	-1609
▁벗	-1610
도록	-1611
현실	-1612
▁생각해	-1613
▁훌륭한	-1614
리티	-1615
사가	-1616
▁누구	-1617
▁의도	-1618
▁못하는	-1619
▁크리스	-1620
▁너무너무	-1621
▁M	-1622
메디	-1623
▁만드	-1624
보면서	-1625
▁빈	-1626
내가	-1627
▁꿀잼	-1628
▁봤음	-1629
▁저는	-1630
▁필	-1631
▁처음부터	-1632
▁빌	-1633
러운	-1634
했어요	-1635
▁사람은	-1636
았음	-1637
하니	-1638
▁충분히	-1639
▁놓	-1640
▁회	-1641
들아	-1642
하지않	-1643
▁있는데	-1644
▁향	-1645
▁흠	-1646
▁리얼	-1647
스럽고	-1648
▁그런지	-1649
▁영화보다	-1650
남자	-1651
▁꺼	-1652
봐서	-1653
유의	-1654
▁성우	-1655
▁아닐	-1656
▁가지고	-1657
▁이런영화	-1658
우드	-1659
▁돋보	-1660
▁전형	-1661
▁그러나	-1662
▁대단한	-1663
▁보여주	-1664
스의	-1665
없어	-1666
립니다	-1667
▁왔	-1668
근데	-1669
▁tv	-1670
코미디	-1671
▁감성	-1672
▁된다	-1673
▁안타깝	-1674
▁없어서	-1675
▁살인	-1676
▁프랑스	-1677
이코	-1678
▁주인공이	-1679
▁능	-1680
거다	-1681
무리	-1682
진진	-1683
▁비해	-1684
▁일단	-1685
ᅲᅲᅲᅲ	-1686
▁개연성	-1687
▁그때	-1688
▁분위기	-1689
았던	-1690
효과	-1691
▁점점	-1692
▁잘만들	-1693
▁헤	-1694
당한	-1695
민국	-1696
했고	-1697
▁한심	-1698
영화중	-1699
▁아닌가	-1700
▁합니다	-1701
in	-1702
조건	-1703
▁됐	-1704
으며	-1705
▁짝	-1706
▁good	-1707
▁ᄉ	-1708
▁금	-1709
▁맥	-1710
들만	-1711
시리즈	-1712
하지도	-1713
별로	-1714
최악	-1715
▁것은	-1716
▁댓글	-1717
▁순간	-1718
▁좋네요	-1719
웃음	-1720
▁진행	-1721
▁아까움	-1722
기고	-1723
일까	-1724
▁검	-1725
▁급	-1726
신이	-1727
짜증	-1728
한게	-1729
▁관람	-1730
▁더럽게	-1731
지금	-1732
▁나이	-1733
▁시절	-1734
▁201	-1735
▁쉽	-1736
▁씨	-1737
▁몰랐	-1738
▁선택	-1739
▁소리	-1740
었으면	-1741
▁수가	-1742
▁식상	-1743
▁어려	-1744
▁헐리	-1745
▁사람들은	-1746
아도	-1747
▁엉망	-1748
▁자극	-1749
만으로도	-1750
▁한마디로	-1751
되어	-1752
히려	-1753
▁없네	-1754
▁젊	-1755
조차	-1756
▁카메	-1757
▁엄청난	-1758
▁이영화는	-1759
▁섬	-1760
내는	-1761
봐야	-1762
▁훈훈	-1763
▁놈	-1764
▁루	-1765
사회	-1766
처음	-1767
편의	-1768
▁어쩔	-1769
▁그림	-1770
▁참고	-1771
▁케이	-1772
▁하게	-1773
▁홍콩	-1774
것같다	-1775
▁어릴때	-1776
애니	-1777
저씨	-1778
▁만족	-1779
▁보는데	-1780
하긴	-1781
촬영	-1782
어지는	-1783
;;;;	-1784
▁그닥	-1785
▁여전	-1786
▁좋은영화	-1787
▁찌	-1788
▁-_-	-1789
▁다시봐도	-1790
인물	-1791
▁80	-1792
▁망작	-1793
▁원래	-1794
▁참신	-1795
▁감독은	-1796
▁사랑을	-1797
▁안타까	-1798
▁짧	-1799
그러	-1800
▁가는	-1801
▁얘기	-1802
▁아쉬운	-1803
▁묻	-1804
▁전개가	-1805
▁재밌는데	-1806
▁흥미진진	-1807
▁m	-1808
났다	-1809
이냐	-1810
추천	-1811
▁범죄	-1812
▁줄거리	-1813
▁겨	-1814
▁뮤	-1815
▁승	-1816
파이	-1817
▁먹먹	-1818
▁평점은	-1819
했습니다	-1820
▁페	-1821
▁영웅	-1822
▁힘든	-1823
▁좋겠다	-1824
▁이것도	-1825
▁재밌었다	-1826
▁깔	-1827
대박	-1828
리게	-1829
막장	-1830
▁진지	-1831
▁편집	-1832
▁지금까지	-1833
▁북	-1834
▁안나	-1835
▁안보	-1836
▁영화인	-1837
▁뜬	-1838
▁쓴	-1839
이면	-1840
▁감상	-1841
▁그게	-1842
▁만점	-1843
▁멍청	-1844
▁자꾸	-1845
▁해야	-1846
많은	-1847
방송	-1848
▁미안	-1849
하다고	-1850
▁따뜻한	-1851
▁모르고	-1852
▁인간의	-1853
.......	-1854
없네	-1855
▁나쁜	-1856
▁아빠	-1857
▁돈주고	-1858
▁대한민국	-1859
▁창	-1860
▁갔	-1861
년에	-1862
▁끝내	-1863
▁무조건	-1864
▁결혼	-1865
지마라	-1866
하는거	-1867
만이	-1868
연출	-1869
▁병맛	-1870
보세요	-1871
▁도저히	-1872
▁로맨틱	-1873
▁후반부	-1874
▁a	-1875
오는	-1876
▁불륜	-1877
▁액션도	-1878
▁오글거	-1879
▁법	-1880
겠네	-1881
스런	-1882
시고	-1883
시는	-1884
▁ᄃᄃ	-1885
▁물론	-1886
▁있음	-1887
▁우연히	-1888
그램	-1889
▁소중	-1890
▁죽음	-1891
▁진실	-1892
였는데	-1893
영화로	-1894
▁그래픽	-1895
하여	-1896
▁과거	-1897
메이크	-1898
▁그럴	-1899
▁별루	-1900
▁좋음	-1901
▁학교	-1902
▁것이다	-1903
▁완벽한	-1904
▁평점에	-1905
▁대작	-1906
▁웃긴	-1907
▁골	-1908
당시	-1909
어로	-1910
이하	-1911
▁억지로	-1912
▁아버지	-1913
▁기대하고	-1914
▁좋았어요	-1915
님의	-1916
영상	-1917
▁알려	-1918
▁이리	-1919
▁초등	-1920
▁있다는	-1921
▁괜히	-1922
▁최근	-1923
▁친	-1924
▁전설	-1925
▁무서운	-1926
▁안된다	-1927
▁d	-1928
우는	-1929
▁가볍	-1930
▁바보	-1931
▁저질	-1932
▁희망	-1933
▁배우가	-1934
▁넣	-1935
▁핵	-1936
명작	-1937
자의	-1938
▁없을	-1939
▁봤네요	-1940
▁오히려	-1941
랄까	-1942
스를	-1943
▁가능	-1944
▁미화	-1945
▁느끼게	-1946
▁스타일	-1947
▁없네요	-1948
▁견	-1949
▁깜	-1950
움이	-1951
따위	-1952
실망	-1953
▁느꼈	-1954
▁천재	-1955
▁환상	-1956
것이다	-1957
▁이야기를	-1958
것은	-1959
내고	-1960
함과	-1961
▁되어	-1962
▁하면	-1963
▁내인생	-1964
님이	-1965
▁바람	-1966
▁사라	-1967
▁요소	-1968
▁목소리	-1969
였습니다	-1970
▁전형적인	-1971
봐라	-1972
▁흘러	-1973
▁줘	-1974
있게	-1975
▁메세	-1976
▁분명	-1977
▁설명	-1978
▁유명	-1979
▁어설프	-1980
▁완성도	-1981
ST	-1982
▁SF	-1983
▁죽는	-1984
안되는	-1985
▁모르는	-1986
▁재미없어	-1987
.5	-1988
▁덕	-1989
공포	-1990
▁독립	-1991
▁바라	-1992
▁신기	-1993
▁예전에	-1994
▁듯한	-1995
▁전기	-1996
그래도	-1997
하는게	-1998
대의	-1999
▁나쁘	-2000
▁낫다	-2001
▁동화	-2002
▁싫어	-2003
▁잊혀	-2004
▁유치한	-2005
▁만들었다	-2006
▁아무것도	-2007
심을	-2008
지게	-2009
프로	-2010
▁복수	-2011
작가	-2012
▁나라	-2013
▁유머	-2014
보다가	-2015
▁입니다	-2016
리다	-2017
▁다행	-2018
▁저도	-2019
같은데	-2020
,,,,	-2021
▁이런거	-2022
▁영화에서	-2023
예산	-2024
인간	-2025
▁웃겨	-2026
▁전달	-2027
보는데	-2028
▁알았다	-2029
▁지루해	-2030
네여	-2031
심이	-2032
▁!!	-2033
▁노출	-2034
▁코메디	-2035
▁노력	-2036
▁전문	-2037
▁연출이	-2038
웠던	-2039
▁인정	-2040
안하고	-2041
▁연출력	-2042
▁화이팅	-2043
▁리메이크	-2044
▁아이들이	-2045
▁처음으로	-2046
식이	-2047
평가	-2048
▁돈이	-2049
▁서로	-2050
▁어렸을때	-2051
ᅲᅲᅲ	-2052
▁성장	-2053
▁전작	-2054
▁즐겁	-2055
▁재미있고	-2056
나면	-2057
편을	-2058
▁영원	-2059
▁이러	-2060
▁중반	-2061
▁허술	-2062
▁모습이	-2063
▁놀라	-2064
▁우울	-2065
▁풀어	-2066
됩니다	-2067
▁비슷한	-2068
▁이상한	-2069
▁지금도	-2070
▁알았는데	-2071
▁끼	-2072
▁멀	-2073
세가	-2074
자들	-2075
▁뜬금	-2076
최고의	-2077
▁ost	-2078
▁재미없고	-2079
▁촌	-2080
▁팔	-2081
기엔	-2082
어울	-2083
▁관계	-2084
▁장면은	-2085
▁탈	-2086
아먹	-2087
역시	-2088
▁말고	-2089
▁아오	-2090
▁촬영	-2091
▁재밌어	-2092
▁합	-2093
화가	-2094
▁경찰	-2095
▁아프	-2096
▁청춘	-2097
▁앞으로	-2098
많이	-2099
▁현재	-2100
▁다운받	-2101
▁좋았습니다	-2102
................	-2103
he	-2104
▁찬	-2105
분이	-2106
점준	-2107
▁게임	-2108
▁중에	-2109
▁행동	-2110
더군요	-2111
ᄏᄏᄏᄏᄏ	-2112
리아	-2113
▁거지	-2114
▁깊은	-2115
▁부모	-2116
봅니다	-2117
▁말하고	-2118
▁부족한	-2119
▁작품이	-2120
▁유치하고	-2121
▁D	-2122
고싶	-2123
반전	-2124
줄알	-2125
만하면	-2126
▁보여준	-2127
▁특유의	-2128
▁영화였습니다	-2129
▁워	-2130
▁이런걸	-2131
▁화려한	-2132
▁면	-2133
스로	-2134
▁그의	-2135
▁아마	-2136
재밌게	-2137
▁왜이리	-2138
▁스토리에	-2139
?)	-2140
대사	-2141
르고	-2142
소한	-2143
하겠	-2144
드가	-2145
만의	-2146
였던	-2147
▁하는데	-2148
▁보고나서	-2149
강추	-2150
무슨	-2151
▁라는	-2152
▁못보	-2153
영화에	-2154
▁같네요	-2155
인거	-2156
▁좋았고	-2157
자는	-2158
치게	-2159
▁가득	-2160
▁명작이다	-2161
▁최악이다	-2162
▁그려	-2163
▁만큼	-2164
▁사건	-2165
▁이어	-2166
▁ᄒᄒᄒ	-2167
▁류	-2168
▁학	-2169
▁피해	-2170
하면서도	-2171
▁너무나도	-2172
▁무엇보다	-2173
▁전체적으로	-2174
▁증	-2175
그라	-2176
▁어렵	-2177
▁그렇고	-2178
▁이야기가	-2179
▁나에게	-2180
▁잘만든	-2181
▁아니지만	-2182
▁재밌었어요	-2183
던지	-2184
분에	-2185
▁누군	-2186
▁먼저	-2187
▁해피	-2188
▁진부한	-2189
▁시간낭비	-2190
감을	-2191
자를	-2192
▁또한	-2193
▁뭔지	-2194
▁스케	-2195
▁지난	-2196
아니고	-2197
▁마음을	-2198
▁ᅮ	-2199
려면	-2200
물이	-2201
인은	-2202
▁그랬	-2203
▁돌려	-2204
▁비추	-2205
▁여성	-2206
점준다	-2207
▁만들지	-2208
▁모습을	-2209
▁플	-2210
걸까	-2211
마저	-2212
인을	-2213
해주	-2214
▁않을	-2215
▁잘생	-2216
배우들	-2217
▁아닐까	-2218
//	-2219
▁힐	-2220
가요	-2221
개봉	-2222
놓은	-2223
져서	-2224
~^^	-2225
▁본다	-2226
▁드라마가	-2227
▁생각한다	-2228
극장	-2229
상을	-2230
정을	-2231
지못	-2232
▁애들이	-2233
▁뒷	-2234
▁응	-2235
▁접	-2236
리에	-2237
세계	-2238
▁12	-2239
▁귀신	-2240
▁왠지	-2241
었네요	-2242
▁반전이	-2243
▁않았다	-2244
▁드라마를	-2245
기다	-2246
기억	-2247
▁어찌	-2248
▁귀여운	-2249
▁부분이	-2250
▁여자가	-2251
▁영화중에	-2252
▁짐	-2253
다운	-2254
번째	-2255
보이	-2256
▁삶을	-2257
▁성공	-2258
▁자유	-2259
사람이	-2260
하는지	-2261
한다는	-2262
▁자신의	-2263
▁월	-2264
었나	-2265
좋다	-2266
▁안맞	-2267
▁이래	-2268
▁정치	-2269
이에요	-2270
▁그런데	-2271
▁못하고	-2272
▁이런게	-2273
▁인상깊	-2274
로는	-2275
좋고	-2276
▁나만	-2277
▁마치	-2278
▁않음	-2279
▁졸라	-2280
▁ᄏᄏᄏᄏᄏᄏᄏᄏᄏᄏᄏᄏ	-2281
시간이	-2282
▁안나오	-2283
▁대단하다	-2284
▁매력적인	-2285
▁영화이다	-2286
▁왜이렇게	-2287
▁이영화가	-2288
or	-2289
▁춤	-2290
로서	-2291
한듯	-2292
▁cg	-2293
봤어요	-2294
▁잘봤습니다	-2295
▁다소	-2296
▁밑에	-2297
수있는	-2298
였어요	-2299
해주는	-2300
▁좋았음	-2301
▁얻	-2302
모습	-2303
일뿐	-2304
▁15	-2305
▁미래	-2306
▁이연	-2307
▁조연	-2308
있는데	-2309
했으면	-2310
▁케이블	-2311
▁해주는	-2312
▁같습니다	-2313
▁샤	-2314
▁퍼	-2315
장이	-2316
▁가끔	-2317
▁남아	-2318
▁사이	-2319
▁알겠	-2320
▁이젠	-2321
▁사랑이	-2322
▁소재는	-2323
▁제작비	-2324
▁보고싶은	-2325
절한	-2326
▁눈을	-2327
▁메시	-2328
▁실패	-2329
▁나온다	-2330
▁뜨	-2331
알바	-2332
이해	-2333
할듯	-2334
▁러브	-2335
▁심리	-2336
▁아는	-2337
▁취향	-2338
면서도	-2339
▁별로다	-2340
▁허접한	-2341
▁논	-2342
마음	-2343
성애	-2344
이제	-2345
..?	-2346
▁나를	-2347
▁나머	-2348
▁황당	-2349
▁느껴지는	-2350
▁늙	-2351
내요	-2352
새끼	-2353
심히	-2354
▁낭비	-2355
▁눈이	-2356
▁드는	-2357
▁미소	-2358
나온다	-2359
▁감동적	-2360
▁있었던	-2361
▁확실히	-2362
▁지금봐도	-2363
수도	-2364
스릴	-2365
특히	-2366
▁;;	-2367
▁외국	-2368
▁짱짱	-2369
지도않	-2370
.2	-2371
▁다가	-2372
▁철학	-2373
점짜리	-2374
▁카메라	-2375
▁좋았는데	-2376
▁웬	-2377
발이	-2378
하하	-2379
▁알아	-2380
만으로	-2381
사람들	-2382
▁감사합니다	-2383
가족	-2384
한건	-2385
▁심심	-2386
▁와닿	-2387
닝타임	-2388
스럽게	-2389
스는	-2390
시켜	-2391
▁감탄	-2392
▁아놔	-2393
▁한계	-2394
▁내용을	-2395
▁사람을	-2396
▁어린이	-2397
▁프로그램	-2398
▁짓	-2399
소재	-2400
움을	-2401
▁고민	-2402
▁나서	-2403
▁했지만	-2404
▁보지마세요	-2405
▁:	-2406
어라	-2407
었을	-2408
저럭	-2409
▁아닌데	-2410
▁저예산	-2411
▁스토리와	-2412
보여	-2413
사는	-2414
▁느낀	-2415
▁든다	-2416
▁맞는	-2417
▁예전	-2418
▁의외	-2419
없어서	-2420
▁아니면	-2421
▁짜증나	-2422
▁스토리를	-2423
▁아름답고	-2424
▁끊	-2425
순간	-2426
지컬	-2427
쩐다	-2428
터리	-2429
▁넘어	-2430
하세요	-2431
▁OST	-2432
▁나오고	-2433
▁어이없는	-2434
▁처음이다	-2435
▁곳	-2436
▁젤	-2437
더만	-2438
▁시도	-2439
▁여전히	-2440
▁예고편	-2441
▁영화지만	-2442
▁감동적이고	-2443
려다	-2444
▁같음	-2445
▁대충	-2446
▁이하	-2447
▁젊은	-2448
지않는	-2449
▁영화보고	-2450
니아	-2451
명이	-2452
▁예쁜	-2453
▁유일	-2454
▁화가	-2455
도없고	-2456
▁감정이	-2457
대가	-2458
▁해준	-2459
▁소재를	-2460
▁연기에	-2461
▁밤	-2462
되지	-2463
소년	-2464
▁글쎄	-2465
▁했던	-2466
퀄리티	-2467
▁슬프다	-2468
▁A	-2469
▁씁	-2470
▁엑	-2471
거냐	-2472
(?)	-2473
▁ᄉᄇ	-2474
▁오락	-2475
럭저럭	-2476
하기만	-2477
▁그들의	-2478
▁끝나고	-2479
▁보이는	-2480
말로	-2481
▁난다	-2482
이렇게	-2483
▁세상에	-2484
▁아저씨	-2485
▁액션이	-2486
▁어색한	-2487
▁제작진	-2488
▁중간중간	-2489
▁딴	-2490
럽다	-2491
해보	-2492
▁리뷰	-2493
▁사극	-2494
▁종교	-2495
▁해주	-2496
식으로	-2497
▁독특한	-2498
▁유쾌한	-2499
▁ᄏᄏᄏᄏᄏ	-2500
▁꼴	-2501
▁붙	-2502
있네	-2503
더라도	-2504
▁어이가	-2505
▁역시나	-2506
▁드라마는	-2507
과는	-2508
▁겁나	-2509
▁굳이	-2510
▁남주	-2511
▁일어	-2512
▁찍은	-2513
▁이유가	-2514
▁떨어지는	-2515
▁꾸	-2516
▁가서	-2517
▁하루	-2518
▁호러	-2519
만드는	-2520
영화도	-2521
▁기대를	-2522
▁매력이	-2523
▁보는게	-2524
▁흥미롭	-2525
▁까지	-2526
▁용서	-2527
하다는	-2528
▁재미를	-2529
▁쩔	-2530
겟다	-2531
구려	-2532
무서	-2533
▁그럼	-2534
하지마	-2535
▁아까워	-2536
▁짜증나는	-2537
▁G	-2538
다지	-2539
있음	-2540
티비	-2541
했을	-2542
ᄒᄒᄒ	-2543
▁과연	-2544
▁이기	-2545
▁적당	-2546
▁남는다	-2547
았습니다	-2548
▁아름답다	-2549
▁하나하나	-2550
▁폐	-2551
나올	-2552
서야	-2553
▁굿굿	-2554
▁내생	-2555
▁마라	-2556
▁조폭	-2557
▁한편	-2558
있어요	-2559
▁재미있음	-2560
▁+	-2561
▁<	-2562
▁녹	-2563
대는	-2564
사를	-2565
하던	-2566
▁기본	-2567
▁라이	-2568
▁슬픔	-2569
▁시선	-2570
▁연애	-2571
▁통해	-2572
▁그런가	-2573
▁싸이코	-2574
▁있다면	-2575
▁그럭저럭	-2576
▁연기력이	-2577
▁주인공의	-2578
▁헛	-2579
끼리	-2580
들고	-2581
으론	-2582
▁연예	-2583
▁특별	-2584
았어요	-2585
▁액션은	-2586
▁영화냐	-2587
▁겉	-2588
▁풋	-2589
유치	-2590
▁보러	-2591
▁블랙	-2592
▁살짝	-2593
▁시원	-2594
▁역할	-2595
▁평생	-2596
보고싶	-2597
지네요	-2598
▁기분이	-2599
▁나왔으면	-2600
▁보고싶다	-2601
▁씬	-2602
리도	-2603
먹고	-2604
시아	-2605
펑펑	-2606
▁사는	-2607
▁전에	-2608
▁봤다가	-2609
▁전기세가	-2610
--	-2611
▁w	-2612
▁돼	-2613
디어	-2614
와르	-2615
위해	-2616
▁가진	-2617
▁모자	-2618
▁전편	-2619
버렸다	-2620
▁순수한	-2621
▁안되고	-2622
▁평범한	-2623
할까	-2624
화를	-2625
▁미스	-2626
에서의	-2627
▁어릴적	-2628
▁밥	-2629
결말	-2630
레스	-2631
른다	-2632
이의	-2633
즈니	-2634
트가	-2635
▁분노	-2636
▁상처	-2637
▁섹시	-2638
▁채널	-2639
이라서	-2640
한다면	-2641
▁소름끼	-2642
▁볼때마다	-2643
▁사랑하는	-2644
▁생각합니다	-2645
었어	-2646
주얼	-2647
▁결론	-2648
▁슈퍼	-2649
지않은	-2650
▁보기엔	-2651
▁안하고	-2652
▁재밋게	-2653
▁저렇게	-2654
▁봤었는데	-2655
▁I	-2656
기로	-2657
상이	-2658
씨가	-2659
었네	-2660
▁고전	-2661
▁깔끔	-2662
▁다만	-2663
▁산만	-2664
▁소녀	-2665
▁후속	-2666
▁귀엽고	-2667
▁연기와	-2668
ou	-2669
▁짠	-2670
▁칼	-2671
아라	-2672
▁안됨	-2673
▁올라	-2674
▁포장	-2675
으로서	-2676
▁소름돋	-2677
▁티비에서	-2678
▁재밌었는데	-2679
▁뭉	-2680
▁밝	-2681
▁십	-2682
▁톰	-2683
듯이	-2684
원이	-2685
▁영환	-2686
▁되었다	-2687
▁작품성	-2688
▁진심으로	-2689
▁쇼	-2690
는가	-2691
안되	-2692
▁개판	-2693
▁스트	-2694
▁볼만함	-2695
▁사랑에	-2696
▁없지만	-2697
▁재밌습니다	-2698
an	-2699
까진	-2700
▁레이	-2701
▁무지	-2702
▁자막	-2703
구하고	-2704
하려는	-2705
▁공감이	-2706
▁몰입이	-2707
▁보시길	-2708
▁수준이	-2709
▁지루하지	-2710
▁추천합니다	-2711
▁덜	-2712
▁침	-2713
기의	-2714
돌아	-2715
▁고생	-2716
▁무협	-2717
▁부끄	-2718
▁비극	-2719
▁압권	-2720
▁사랑과	-2721
▁음악이	-2722
▁잼있게	-2723
▁격	-2724
걸로	-2725
나가	-2726
나이	-2727
래기	-2728
오빠	-2729
이유	-2730
▁흐름	-2731
▁다큐멘	-2732
▁말이필요	-2733
▁재밌었음	-2734
▁축	-2735
▁나타	-2736
▁난해	-2737
▁아침	-2738
▁신선한	-2739
▁있습니다	-2740
무비	-2741
었지	-2742
이터	-2743
줌마	-2744
▁그지	-2745
▁깊이	-2746
▁놀랍	-2747
▁힐링	-2748
▁볼수록	-2749
▁오그라	-2750
▁이건뭐	-2751
더라구요	-2752
▁만들어진	-2753
▁필요없는	-2754
▁썩	-2755
아주	-2756
어진	-2757
▁되게	-2758
평점이	-2759
▁마무리	-2760
▁추억의	-2761
!!!!!	-2762
나와	-2763
▁거짓	-2764
▁몸매	-2765
▁수도	-2766
▁스포	-2767
▁아련	-2768
버리고	-2769
연기도	-2770
▁가볍게	-2771
▁그렇다	-2772
▁뮤지컬	-2773
▁어렸을	-2774
▁현실을	-2775
▁엘	-2776
같음	-2777
명의	-2778
무섭	-2779
▁미치	-2780
▁사기	-2781
▁오버	-2782
▁재난	-2783
▁전투	-2784
했다는	-2785
▁더이상	-2786
▁상상력	-2787
▁재미없네	-2788
▁꼽	-2789
▁징	-2790
들에	-2791
따라	-2792
봤음	-2793
▁눈빛	-2794
▁형편	-2795
▁감동과	-2796
▁시간을	-2797
▁열심히	-2798
▁처음엔	-2799
▁등장인물	-2800
▁좋습니다	-2801
물을	-2802
버렸	-2803
이크	-2804
진심	-2805
쵝오	-2806
한국	-2807
▁막판	-2808
▁포기	-2809
▁표절	-2810
연기가	-2811
▁소재로	-2812
▁이유는	-2813
▁정말로	-2814
20	-2815
?!	-2816
▁잇	-2817
▁챙	-2818
▁활	-2819
가능	-2820
시킨	-2821
▁동생	-2822
▁불쾌	-2823
▁일상	-2824
▁있나	-2825
▁크게	-2826
▁표정	-2827
▁희생	-2828
년전에	-2829
▁배우의	-2830
▁소재가	-2831
웠음	-2832
▁남녀	-2833
▁되고	-2834
▁보시	-2835
▁어제	-2836
▁정서	-2837
▁좋을	-2838
▁폭력	-2839
점주는	-2840
▁슬프고	-2841
▁아닌듯	-2842
▁우리가	-2843
▁이정도면	-2844
▁해피엔딩	-2845
▁농	-2846
▁쉬	-2847
라스	-2848
리기	-2849
이니	-2850
제목	-2851
▁군대	-2852
▁부터	-2853
▁설레	-2854
▁이때	-2855
▁스케일	-2856
▁하네요	-2857
표현	-2858
▁감명	-2859
▁같아	-2860
▁북한	-2861
▁조잡	-2862
▁태어	-2863
▁현대	-2864
▁홍보	-2865
▁봤으면	-2866
▁던	-2867
겹다	-2868
그렇	-2869
느라	-2870
만화	-2871
전쟁	-2872
정신	-2873
친다	-2874
한것	-2875
▁그립	-2876
▁심각	-2877
▁이루	-2878
속에서	-2879
▁제목이	-2880
▁맡	-2881
▁윌	-2882
류의	-2883
수는	-2884
의미	-2885
지말	-2886
▁드러	-2887
▁말을	-2888
▁쉽게	-2889
▁싫다	-2890
▁쓸데	-2891
▁없나	-2892
재미없	-2893
▁끝나는	-2894
▁디즈니	-2895
▁이연걸	-2896
▁퀄리티	-2897
▁필요한	-2898
영화라고	-2899
재밌어요	-2900
▁생각나는	-2901
▁i	-2902
▁몽	-2903
아님	-2904
지의	-2905
해준	-2906
▁그린	-2907
▁떠나	-2908
▁말로	-2909
▁악역	-2910
까지는	-2911
지않고	-2912
하시는	-2913
▁그다지	-2914
▁뛰어난	-2915
▁반전도	-2916
▁연출도	-2917
▁지루해서	-2918
줘서	-2919
▁강렬	-2920
▁김기	-2921
▁반성	-2922
▁혹시	-2923
▁멋지다	-2924
▁아이들	-2925
▁음악도	-2926
재미없다	-2927
▁잤	-2928
▁줬	-2929
▁쩌	-2930
나왔	-2931
르노	-2932
▁건지	-2933
▁두고	-2934
▁삶의	-2935
▁아나	-2936
좋아요	-2937
캐릭터	-2938
▁만들고	-2939
▁좋았던	-2940
▁ᄌ	-2941
가가	-2942
거운	-2943
도가	-2944
와는	-2945
▁40	-2946
▁선생	-2947
▁악당	-2948
▁이쁜	-2949
▁인터	-2950
거리는	-2951
아까운	-2952
하다가	-2953
▁봐야할	-2954
▁여기서	-2955
▁필요없다	-2956
▁재미있네요	-2957
▁늦	-2958
▁뜻	-2959
안에	-2960
엄마	-2961
이자	-2962
히는	-2963
▁ᄋᄋ	-2964
▁새벽	-2965
▁싶어	-2966
▁오랫	-2967
▁의문	-2968
▁의심	-2969
▁있지	-2970
보는게	-2971
장면이	-2972
겼다	-2973
구니	-2974
자단	-2975
▁나은	-2976
▁스티	-2977
▁역겨	-2978
▁있게	-2979
▁평이	-2980
▁풋풋	-2981
사람은	-2982
▁몇번을	-2983
▁비주얼	-2984
▁재밌네	-2985
▁액션영화	-2986
▁익	-2987
우리	-2988
있어	-2989
▁그것	-2990
▁말할	-2991
▁무시	-2992
▁보이	-2993
▁지구	-2994
봣는데	-2995
▁사람의	-2996
,2	-2997
▁뇌	-2998
트콤	-2999
▁라고	-3000
▁벌써	-3001
수없는	-3002
영화라	-3003
감도	-3004
두고	-3005
자고	-3006
중의	-3007
해진	-3008
▁가까	-3009
▁받아	-3010
▁소장	-3011
▁죄다	-3012
▁지금은	-3013
▁초반에	-3014
▁재미있었다	-3015
독교	-3016
▁니콜	-3017
▁않게	-3018
▁외계	-3019
▁통쾌	-3020
▁펑펑	-3021
인가요	-3022
▁결말도	-3023
▁언제나	-3024
.1	-3025
▁뉴	-3026
▁닥	-3027
▁컨	-3028
란다	-3029
시에	-3030
이를	-3031
이며	-3032
하려	-3033
▁동물	-3034
▁스크	-3035
▁씁쓸	-3036
하기도	-3037
▁인생을	-3038
ad	-3039
▁체	-3040
▁퇴	-3041
밋밋	-3042
을거	-3043
한지	-3044
▁국민	-3045
▁나가	-3046
▁능력	-3047
▁둘다	-3048
▁올해	-3049
▁나중에	-3050
▁몰라도	-3051
▁싸구려	-3052
▁하면서	-3053
re	-3054
▁끄	-3055
▁찡	-3056
관계	-3057
불가	-3058
수의	-3059
식을	-3060
오글	-3061
이후	-3062
피소	-3063
▁그걸	-3064
영화임	-3065
자체가	-3066
▁드럽게	-3067
▁연기자	-3068
▁이해할	-3069
▁좋아서	-3070
on	-3071
▁끔	-3072
그인	-3073
점주	-3074
▁광고	-3075
▁깨닫	-3076
▁발전	-3077
▁방금	-3078
▁성인	-3079
▁일반	-3080
▁인생의	-3081
▁있어요	-3082
▁다시한번	-3083
▁불구하고	-3084
▁좌	-3085
가락	-3086
줘야	-3087
찝찝	-3088
하신	-3089
▁뒤로	-3090
▁분들	-3091
▁속편	-3092
▁에휴	-3093
▁일부	-3094
감독이	-3095
▁어려운	-3096
▁웃기고	-3097
▁영화라는	-3098
▁나옴	-3099
▁남을	-3100
▁무언	-3101
▁섬세	-3102
▁죽여	-3103
▁결말은	-3104
▁누구나	-3105
▁시사회	-3106
▁이제야	-3107
▁영화보는	-3108
▁헐리우드	-3109
▁쪽	-3110
▁흡	-3111
버리	-3112
작이	-3113
하셨	-3114
▁생애	-3115
▁시각	-3116
▁이뻐	-3117
▁할말	-3118
▁낮아서	-3119
▁단순한	-3120
▁떠나서	-3121
▁마이너	-3122
▁어머니	-3123
▁엉성한	-3124
봤습니다	-3125
▁일본영화	-3126
▁현실적인	-3127
▁폴	-3128
▁푹	-3129
괜찮	-3130
로도	-3131
마스	-3132
봐요	-3133
이션	-3134
일본	-3135
져요	-3136
학년	-3137
▁괴물	-3138
▁단연	-3139
▁시걸	-3140
▁신경	-3141
▁않아	-3142
▁에이	-3143
▁연결	-3144
▁좀더	-3145
더라면	-3146
랍니다	-3147
아니다	-3148
▁느낌을	-3149
▁납	-3150
▁움	-3151
나도	-3152
사의	-3153
우고	-3154
하구	-3155
▁살다	-3156
▁아픔	-3157
아까워	-3158
▁모든게	-3159
▁못했다	-3160
▁사랑스러운	-3161
▁냉	-3162
▁쌍	-3163
드의	-3164
성에	-3165
함에	-3166
▁70	-3167
▁고등	-3168
▁본방	-3169
▁우주	-3170
▁존경	-3171
▁쵝오	-3172
▁하하	-3173
겠네요	-3174
한다고	-3175
▁무엇을	-3176
▁베스트	-3177
▁산으로	-3178
▁점수를	-3179
▁청소년	-3180
▁그렇다고	-3181
▁영화에요	-3182
▁^	-3183
▁f	-3184
▁줌	-3185
겠음	-3186
눈물	-3187
만점	-3188
아가	-3189
▁00	-3190
▁고통	-3191
▁되지	-3192
▁하이	-3193
내용도	-3194
아니라	-3195
었는지	-3196
했는지	-3197
▁마세요	-3198
▁뻔하고	-3199
▁시대를	-3200
▁지루할	-3201
▁생각없이	-3202
▁ᄋ	-3203
▁잭	-3204
계속	-3205
남는	-3206
▁18	-3207
▁때문	-3208
▁밋밋	-3209
▁시시	-3210
▁왜케	-3211
▁특수	-3212
하려고	-3213
▁옛날에	-3214
▁좋아할	-3215
▁아직까지	-3216
봤던	-3217
불어	-3218
여운	-3219
하라	-3220
▁대표	-3221
▁많다	-3222
▁생생	-3223
▁외모	-3224
▁전반	-3225
▁한데	-3226
처구니	-3227
...?	-3228
▁눈물을	-3229
▁이따위	-3230
▁있어야	-3231
▁작가가	-3232
▁쥐	-3233
았고	-3234
▁잊을	-3235
재밌다	-3236
하다니	-3237
▁견자단	-3238
▁없는데	-3239
▁있네요	-3240
▁정신병	-3241
▁출연진	-3242
배우들의	-3243
▁생각하고	-3244
▁꽝	-3245
계의	-3246
인들	-3247
으로써	-3248
▁느와르	-3249
▁싶네요	-3250
▁없다는	-3251
▁볼만하다	-3252
▁기대안하고	-3253
at	-3254
도안	-3255
시작	-3256
애들	-3257
▁끝난	-3258
▁다니	-3259
▁발로	-3260
▁울고	-3261
아까움	-3262
캐스팅	-3263
▁스스로	-3264
▁쓰래기	-3265
▁이거보고	-3266
▁싱	-3267
답답	-3268
따구	-3269
만드	-3270
했네	-3271
▁놀랐	-3272
▁다양	-3273
▁바뀌	-3274
▁복잡	-3275
▁아들	-3276
▁느끼는	-3277
▁로그인	-3278
▁하는지	-3279
▁잔잔하고	-3280
▁빡	-3281
▁앤	-3282
거임	-3283
에만	-3284
온다	-3285
▁내려	-3286
▁무비	-3287
▁볼게	-3288
▁슬퍼	-3289
겠어요	-3290
봤지만	-3291
스릴러	-3292
▁대부분	-3293
▁만든다	-3294
▁보니까	-3295
▁보았다	-3296
▁사랑의	-3297
▁에피소	-3298
▁이쁘고	-3299
▁러닝타임	-3300
▁시간가는	-3301
▁흉	-3302
과의	-3303
되서	-3304
럽고	-3305
부족	-3306
▁맨날	-3307
▁명품	-3308
▁못할	-3309
▁살고	-3310
▁섹스	-3311
▁타임	-3312
가지고	-3313
아버지	-3314
였지만	-3315
▁봣는데	-3316
▁의미를	-3317
▁즐겁게	-3318
▁탄탄한	-3319
▁할말이	-3320
▁배우들도	-3321
BS	-3322
▁푸	-3323
간의	-3324
거면	-3325
셔서	-3326
씬은	-3327
이로	-3328
장난	-3329
▁거기	-3330
▁빼고	-3331
▁상업	-3332
집니다	-3333
▁ᅲᅲᅲ	-3334
▁않지만	-3335
▁있으면	-3336
▁닮	-3337
노래	-3338
로우	-3339
지어	-3340
▁높다	-3341
▁문화	-3342
▁민망	-3343
▁반복	-3344
▁발견	-3345
▁인도	-3346
▁찝찝	-3347
리스마	-3348
▁남자가	-3349
▁시트콤	-3350
▁아쉬움	-3351
▁집에서	-3352
▁쓰레기다	-3353
.4	-3354
▁떡	-3355
▁뽑	-3356
▁쫌	-3357
석이	-3358
성은	-3359
소설	-3360
아프	-3361
▁50	-3362
▁검색	-3363
▁딱히	-3364
▁떠오	-3365
▁뭉클	-3366
▁안돼	-3367
▁연속	-3368
▁은근	-3369
줍니다	-3370
▁아이돌	-3371
▁작품을	-3372
▁재밋다	-3373
▁헐리웃	-3374
▁다시보고	-3375
▁신선하고	-3376
▁ᄏᄏᄏᄏᄏᄏᄏᄏ	-3377
나옴	-3378
어주	-3379
호가	-3380
▁극치	-3381
▁남겨	-3382
▁동안	-3383
▁먹고	-3384
▁묘사	-3385
▁영국	-3386
▁코난	-3387
▁편견	-3388
갈수록	-3389
시키는	-3390
았지만	-3391
으니까	-3392
▁김기덕	-3393
▁더러운	-3394
▁말하는	-3395
▁본영화	-3396
▁비현실	-3397
▁사랑은	-3398
▁안보고	-3399
▁울었다	-3400
▁전문가	-3401
▁이런영화가	-3402
날때	-3403
제작	-3404
트맨	-3405
▁가져	-3406
▁공부	-3407
▁국내	-3408
▁눈에	-3409
▁단지	-3410
▁아류	-3411
▁작은	-3412
▁주변	-3413
▁한참	-3414
▁대사가	-3415
▁덕분에	-3416
▁빠져들	-3417
▁어처구니	-3418
▁영화인듯	-3419
ar	-3420
▁꽃	-3421
려요	-3422
씨의	-3423
저도	-3424
쳐서	-3425
편도	-3426
ver	-3427
▁거슬	-3428
▁경험	-3429
▁무척	-3430
▁믿을	-3431
▁속에	-3432
▁지켜	-3433
▁흔한	-3434
급영화	-3435
▁같아서	-3436
▁멍청한	-3437
▁본다면	-3438
▁아깝지	-3439
▁작품이다	-3440
▁기대했는데	-3441
▁재미없어요	-3442
▁최고입니다	-3443
bs	-3444
▁E	-3445
▁멘	-3446
▁섞	-3447
나다	-3448
받고	-3449
양이	-3450
인트	-3451
ing	-3452
▁갈등	-3453
▁과장	-3454
▁노답	-3455
▁신파	-3456
▁우와	-3457
거같다	-3458
스러움	-3459
에대한	-3460
재밌음	-3461
차라리	-3462
▁의외로	-3463
▁표현한	-3464
▁긴장감도	-3465
▁아쉽네요	-3466
▁지루하게	-3467
▁영화였어요	-3468
가를	-3469
영이	-3470
▁다룬	-3471
▁불러	-3472
▁쩐다	-3473
▁최강	-3474
▁허세	-3475
내용이	-3476
▁기독교	-3477
▁남자의	-3478
▁생각나	-3479
▁영화들	-3480
▁몰입해서	-3481
▁장면에서	-3482
ie	-3483
ll	-3484
관이	-3485
우기	-3486
100	-3487
▁새롭	-3488
▁어우	-3489
▁어휴	-3490
▁찌질	-3491
▁007	-3492
▁더불어	-3493
▁마이클	-3494
▁안타깝다	-3495
리언	-3496
아직	-3497
이스	-3498
쳤다	-3499
하진	-3500
▁11	-3501
▁관심	-3502
▁끌어	-3503
▁높아	-3504
▁바꿔	-3505
▁조합	-3506
▁직접	-3507
비디오	-3508
용으로	-3509
▁위대한	-3510
▁독립영화	-3511
▁모르겠고	-3512
▁업	-3513
만을	-3514
설정	-3515
키는	-3516
▁미모	-3517
▁세월	-3518
▁제이	-3519
▁죽은	-3520
▁199	-3521
▁the	-3522
▁게다가	-3523
▁음악과	-3524
▁이후로	-3525
▁히어로	-3526
▁따뜻해지는	-3527
▁사랑이야기	-3528
▁쿠	-3529
냐고	-3530
아아	-3531
제가	-3532
제발	-3533
▁망쳐	-3534
▁보길	-3535
▁아역	-3536
▁와우	-3537
▁우정	-3538
▁짝퉁	-3539
▁처럼	-3540
▁박수를	-3541
▁빼고는	-3542
▁쓰레기같은	-3543
▁됨	-3544
▁척	-3545
▁컴	-3546
거라	-3547
기분	-3548
긴다	-3549
미가	-3550
이래	-3551
▁똑같	-3552
▁레전	-3553
▁못해	-3554
▁미드	-3555
▁조용	-3556
▁치밀	-3557
▁할까	-3558
시간에	-3559
었을까	-3560
하겠다	-3561
▁무섭다	-3562
▁이해하기	-3563
▁[	-3564
것만	-3565
어이	-3566
▁13	-3567
▁기가	-3568
▁꿈을	-3569
▁보긴	-3570
▁여행	-3571
▁제로	-3572
▁특이	-3573
▁학생	-3574
▁해리	-3575
했네요	-3576
▁봤더니	-3577
▁아줌마	-3578
▁좋았을	-3579
▁힘들다	-3580
▁흥미로운	-3581
▁재미있었어요	-3582
ᄏᄏᄏᄏᄏᄏᄏᄏᄏᄏᄏᄏᄏᄏᄏᄏ	-3583
▁낳	-3584
▁센	-3585
버트	-3586
성치	-3587
젠장	-3588
▁방법	-3589
▁않나	-3590
▁오바	-3591
▁웃김	-3592
▁자살	-3593
버리는	-3594
▁감정을	-3595
▁웃음이	-3596
▁인간이	-3597
▁좋지만	-3598
겠습니다	-3599
▁잊혀지지	-3600
▁ᄀ	-3601
식의	-3602
영환	-3603
인도	-3604
해지	-3605
▁결과	-3606
▁고마	-3607
▁달달	-3608
▁많아	-3609
▁슬펐	-3610
▁암튼	-3611
끝까지	-3612
장에서	-3613
▁!!!	-3614
▁몰입감	-3615
▁볼거리	-3616
▁생각하는	-3617
▁유쾌하고	-3618
▁재밌다고	-3619
▁초등학생	-3620
▁좋아하는데	-3621
▁갠	-3622
가슴	-3623
느니	-3624
라가	-3625
사이	-3626
살다	-3627
▁기술	-3628
▁깜짝	-3629
▁늘어	-3630
▁비판	-3631
▁조선	-3632
▁죽을	-3633
▁나오면	-3634
▁들었다	-3635
▁완전히	-3636
▁우리의	-3637
▁원작의	-3638
▁즐거운	-3639
드립니다	-3640
▁카리스마	-3641
것들	-3642
그리	-3643
려나	-3644
로만	-3645
시즌	-3646
▁겨울	-3647
▁로봇	-3648
▁박진	-3649
▁인내	-3650
긴한데	-3651
▁아이가	-3652
▁개연성이	-3653
▁연기력도	-3654
▁왠만하면	-3655
▁학교에서	-3656
ov	-3657
▁런	-3658
▁팀	-3659
갔다	-3660
먹는	-3661
버그	-3662
자나	-3663
체가	-3664
함은	-3665
▁타이	-3666
소리가	-3667
편보다	-3668
▁넘치는	-3669
▁보인다	-3670
▁없었던	-3671
▁한번쯤	-3672
▁좋았지만	-3673
▁모르겠지만	-3674
냄새	-3675
대를	-3676
세상	-3677
임을	-3678
테일	-3679
했나	-3680
▁가면	-3681
▁가벼	-3682
▁많고	-3683
▁모를	-3684
▁안본	-3685
▁움직	-3686
▁정의	-3687
▁좋게	-3688
▁챙겨	-3689
이영화	-3690
▁않을까	-3691
지마세요	-3692
▁좋았으나	-3693
VD	-3694
▁뱀	-3695
▁썼	-3696
머리	-3697
몰입	-3698
엇다	-3699
원작	-3700
했어	-3701
▁보며	-3702
▁이용	-3703
▁커플	-3704
▁투자	-3705
년만에	-3706
버스터	-3707
▁못한다	-3708
▁반개도	-3709
▁손발이	-3710
▁이유를	-3711
▁작품은	-3712
▁행복한	-3713
사람들이	-3714
▁보고나면	-3715
▁봉	-3716
▁탁	-3717
▁탐	-3718
배경	-3719
요일	-3720
적은	-3721
▁관한	-3722
▁교육	-3723
▁못생	-3724
▁아닙	-3725
▁야동	-3726
▁이정	-3727
그대로	-3728
야말로	-3729
▁느껴진다	-3730
▁보여주고	-3731
▁옆	-3732
받은	-3733
사수	-3734
성의	-3735
이들	-3736
▁깨달	-3737
▁끝이	-3738
▁레알	-3739
▁영혼	-3740
▁필름	-3741
감독의	-3742
본영화	-3743
인들이	-3744
▁대해서	-3745
▁봤을때	-3746
▁역대급	-3747
▁우리는	-3748
▁재미와	-3749
▁재미잇	-3750
▁포르노	-3751
▁유치하다	-3752
▁좋아해서	-3753
▁p	-3754
▁엽	-3755
러디	-3756
루스	-3757
명을	-3758
슬프	-3759
아쉽	-3760
언니	-3761
였고	-3762
이러	-3763
편에	-3764
▁개뿔	-3765
▁따로	-3766
▁올려	-3767
▁이도	-3768
▁일품	-3769
▁잠깐	-3770
그래서	-3771
배우가	-3772
없네요	-3773
점이다	-3774
▁그렇지	-3775
▁멋있다	-3776
▁스크린	-3777
▁할머니	-3778
▁사람들의	-3779
▁좋겠어요	-3780
▁다큐멘터리	-3781
니깐	-3782
상황	-3783
얘기	-3784
와의	-3785
이걸	-3786
있나	-3787
▁만나	-3788
▁예뻐	-3789
되었다	-3790
▁보여줬	-3791
▁알바들	-3792
▁잔인한	-3793
▁하나의	-3794
▁이제서야	-3795
▁짜증난다	-3796
▁평점보고	-3797
om	-3798
▁멈	-3799
▁옷	-3800
놈들	-3801
무지	-3802
비가	-3803
요즘	-3804
함의	-3805
▁내면	-3806
▁빌려	-3807
▁설마	-3808
▁아동	-3809
▁악마	-3810
▁이럴	-3811
▁착한	-3812
▁풍경	-3813
기에는	-3814
▁주성치	-3815
▁참으로	-3816
▁개연성도	-3817
▁어린시절	-3818
▁지나치게	-3819
▁l	-3820
▁쏘	-3821
▁픽	-3822
다음	-3823
모든	-3824
소녀	-3825
요소	-3826
주가	-3827
▁담아	-3828
▁어지	-3829
▁지겨	-3830
▁개막장	-3831
▁모르게	-3832
▁죽이고	-3833
▁있었지만	-3834
▁엠	-3835
▁쩝	-3836
▁콜	-3837
분은	-3838
시청	-3839
아무	-3840
억지	-3841
역사	-3842
정은	-3843
▁겨우	-3844
▁김민	-3845
▁당연	-3846
▁대중	-3847
▁무리	-3848
▁신비	-3849
▁없지	-3850
▁일이	-3851
▁자주	-3852
▁주말	-3853
점정도	-3854
하던데	-3855
학교때	-3856
해진다	-3857
했다고	-3858
..^^	-3859
▁똑같은	-3860
▁드립니다	-3861
▁부족하다	-3862
▁지루했다	-3863
.........	-3864
**	-3865
▁육	-3866
▁콩	-3867
동생	-3868
버림	-3869
보네	-3870
운드	-3871
후반	-3872
▁기발	-3873
▁드림	-3874
▁떠올	-3875
▁뭐라	-3876
▁힘이	-3877
보다도	-3878
지말고	-3879
▁1,2	-3880
▁레전드	-3881
▁명작이	-3882
▁없어요	-3883
▁잘하고	-3884
좋아하는	-3885
▁술	-3886
년의	-3887
뻔한	-3888
토록	-3889
▁그거	-3890
▁달라	-3891
▁올리	-3892
▁응원	-3893
▁인해	-3894
되네요	-3895
들이랑	-3896
▁가슴에	-3897
▁감동의	-3898
▁볼수있	-3899
▁왜이래	-3900
▁이쁘다	-3901
▁중요한	-3902
▁무섭지도	-3903
▁캐릭터가	-3904
▁이런영화를	-3905
도는	-3906
속의	-3907
솔직	-3908
임스	-3909
000	-3910
▁간다	-3911
▁감히	-3912
▁김수	-3913
▁몇몇	-3914
▁바꾸	-3915
▁세련	-3916
▁싶을	-3917
▁아기	-3918
▁아픈	-3919
▁여태	-3920
▁이민	-3921
장면은	-3922
▁가치가	-3923
▁다시는	-3924
▁문제가	-3925
▁스파이	-3926
▁영화네	-3927
▁장르가	-3928
▁점수가	-3929
▁긴장감이	-3930
▁보여준다	-3931
▁인상적이	-3932
▁보았습니다	-3933
bb	-3934
사건	-3935
생활	-3936
이기	-3937
인과	-3938
▁데이	-3939
▁둘이	-3940
▁보자	-3941
▁보통	-3942
▁봤을	-3943
▁삶에	-3944
▁새끼	-3945
▁설득	-3946
▁숨겨	-3947
▁욕망	-3948
▁우려	-3949
있어서	-3950
▁뿐이다	-3951
▁싶은데	-3952
▁이해안	-3953
▁현실성	-3954
사람들은	-3955
▁재미없게	-3956
▁탑	-3957
는건	-3958
대단	-3959
레딧	-3960
신은	-3961
아나	-3962
얼굴	-3963
자연	-3964
점줌	-3965
▁강력	-3966
▁높게	-3967
▁대본	-3968
▁도전	-3969
▁못함	-3970
▁아예	-3971
▁양심	-3972
▁인기	-3973
♥♥♥	-3974
듭니다	-3975
▁그녀의	-3976
▁색다른	-3977
▁소름이	-3978
지도않고	-3979
▁괜찮은데	-3980
▁앞으로도	-3981
▁웃기지도	-3982
▁진부하고	-3983
능력	-3984
님들	-3985
만은	-3986
문제	-3987
임새	-3988
▁영어	-3989
▁이끌	-3990
▁짝이	-3991
▁할리	-3992
어떻게	-3993
▁DVD	-3994
▁뛰어넘	-3995
▁속에서	-3996
▁위해서	-3997
▁있는지	-3998
▁자신이	-3999
▁정도의	-4000
▁하는거	-4001
▁답답하고	-4002
▁알겠는데	-4003
▁없습니다	-4004
▁시간가는줄	-4005
▁한국영화는	-4006
▁e	-4007
▁맹	-4008
▁쏟	-4009
다큐	-4010
더빙	-4011
우가	-4012
원의	-4013
▁변태	-4014
▁빈약	-4015
▁상관	-4016
▁성격	-4017
▁제시	-4018
▁치고	-4019
▁하늘	-4020
▁화끈	-4021
겁니다	-4022
려다가	-4023
연기력	-4024
▁노래도	-4025
▁모두가	-4026
▁비하면	-4027
▁생각함	-4028
▁아까울	-4029
▁연출과	-4030
것같아요	-4031
▁스토리의	-4032
▁아름다움	-4033
▁재밌던데	-4034
▁빅	-4035
▁엿	-4036
러워	-4037
로써	-4038
삭제	-4039
씬이	-4040
초반	-4041
포터	-4042
▁감흥	-4043
▁방영	-4044
▁수고	-4045
▁해결	-4046
▁해라	-4047
▁효과	-4048
분들은	-4049
▁동성애	-4050
▁말아먹	-4051
▁심하게	-4052
▁있구나	-4053
▁전개도	-4054
▁전설의	-4055
▁모르겠음	-4056
▁안타까운	-4057
▁말도안되는	-4058
▁h	-4059
▁옥	-4060
▁찰	-4061
니당	-4062
모두	-4063
세기	-4064
연이	-4065
▁21	-4066
▁그건	-4067
▁돈을	-4068
▁볼때	-4069
▁알수	-4070
▁이소	-4071
▁클레	-4072
년도에	-4073
는영화	-4074
보니까	-4075
하고자	-4076
▁나오지	-4077
▁보려고	-4078
▁수준의	-4079
▁오랜만	-4080
▁유명한	-4081
▁감동적이다	-4082
▁k	-4083
▁낙	-4084
▁웨	-4085
기지	-4086
았을	-4087
이리	-4088
추기	-4089
▁받을	-4090
▁안봤	-4091
▁어두	-4092
▁의리	-4093
▁조니	-4094
들이나	-4095
▁감명깊	-4096
▁깨닫게	-4097
▁배우를	-4098
▁예쁘고	-4099
▁자신을	-4100
▁분위기가	-4101
▁막장드라마	-4102
.,	-4103
▁끈	-4104
감은	-4105
부작	-4106
인것	-4107
출연	-4108
티브	-4109
▁공짜	-4110
▁기회	-4111
▁블록	-4112
▁사진	-4113
▁심오	-4114
▁안쓰	-4115
▁야구	-4116
▁여름	-4117
▁충실	-4118
▁테러	-4119
스타일	-4120
▁세상을	-4121
▁영원히	-4122
▁잼있어요	-4123
▁명작입니다	-4124
겨서	-4125
음이	-4126
.^^	-4127
▁낮게	-4128
▁대화	-4129
▁비밀	-4130
▁안볼	-4131
▁인디	-4132
▁잊지	-4133
▁최초	-4134
하는건	-4135
했으나	-4136
▁않네요	-4137
▁연예인	-4138
마지막에	-4139
▁있었는데	-4140
▁남자주인공	-4141
라기	-4142
멘타	-4143
바로	-4144
보자	-4145
애가	-4146
어디	-4147
절대	-4148
▁둘째	-4149
▁류승	-4150
▁만한	-4151
▁빠진	-4152
..;;	-4153
▁관객을	-4154
▁분들은	-4155
▁살면서	-4156
▁연기잘	-4157
▁죽는줄	-4158
▁평점조	-4159
▁한심한	-4160
스토리도	-4161
▁떨어진다	-4162
▁여러가지	-4163
▁주인공은	-4164
▁하나같이	-4165
▁/	-4166
▁y	-4167
▁씹	-4168
▁헬	-4169
치가	-4170
..1	-4171
▁베드	-4172
▁볼거	-4173
▁살려	-4174
▁선동	-4175
▁울컥	-4176
▁작위	-4177
인데도	-4178
▁그당시	-4179
▁기다려	-4180
▁내가본	-4181
▁답답한	-4182
▁미스터	-4183
▁유치함	-4184
▁만들어도	-4185
▁보지마라	-4186
▁생각나서	-4187
▁이상하게	-4188
영화입니다	-4189
▁깎	-4190
▁떨	-4191
관람	-4192
드시	-4193
리카	-4194
뭔가	-4195
미네	-4196
빨리	-4197
어린	-4198
좋음	-4199
통령	-4200
▁갖고	-4201
▁결정	-4202
▁무술	-4203
▁어쩜	-4204
▁잔뜩	-4205
▁전율	-4206
▁조작	-4207
▁집에	-4208
다는거	-4209
다는걸	-4210
▁가슴을	-4211
▁결말을	-4212
▁노래가	-4213
▁반전은	-4214
▁보다는	-4215
▁여운을	-4216
▁오래된	-4217
▁원작이	-4218
▁잘어울	-4219
▁잼있다	-4220
▁하는게	-4221
보는내내	-4222
▁ᅲᅲᅲᅲ	-4223
▁무엇인지	-4224
▁생각하면	-4225
▁시리즈중	-4226
▁K	-4227
받는	-4228
세포	-4229
신을	-4230
왔다	-4231
지다	-4232
▁sf	-4233
▁남은	-4234
▁유지	-4235
▁잔혹	-4236
▁젠장	-4237
나와서	-4238
~!!!	-4239
▁구성이	-4240
▁그것도	-4241
▁느낄수	-4242
▁다양한	-4243
▁애들은	-4244
▁여자의	-4245
▁죽이는	-4246
▁최고임	-4247
▁패러디	-4248
▁핵노잼	-4249
해주세요	-4250
▁2014	-4251
▁아닙니다	-4252
▁에피소드	-4253
▁영화보면서	-4254
▁ᄏᄏᄏᄏᄏᄏ	-4255
▁캬	-4256
게요	-4257
그만	-4258
상은	-4259
였어	-4260
제로	-4261
종일	-4262
OOO	-4263
▁~~	-4264
▁기준	-4265
▁배역	-4266
▁지났	-4267
▁찍어	-4268
▁무서워	-4269
▁봅니다	-4270
▁생각할	-4271
▁소소한	-4272
▁어쩔수	-4273
▁이것이	-4274
▁자체는	-4275
▁첫사랑	-4276
▁훈훈한	-4277
▁만들다니	-4278
▁시청률이	-4279
▁L	-4280
▁넌	-4281
▁묵	-4282
▁왤	-4283
▁칭	-4284
▁홀	-4285
개인	-4286
때문	-4287
르게	-4288
뭐야	-4289
분의	-4290
이쁘	-4291
잡고	-4292
장을	-4293
▁게이	-4294
▁결코	-4295
▁낚시	-4296
▁듣고	-4297
▁봐줄	-4298
▁부실	-4299
▁사고	-4300
▁오빠	-4301
▁제외	-4302
▁집착	-4303
▁하네	-4304
▁할수	-4305
으로는	-4306
▁나쁘지	-4307
▁만들면	-4308
▁비디오로	-4309
▁연기력은	-4310
▁훌륭하다	-4311
▁마지막까지	-4312
▁억지스러운	-4313
▁N	-4314
▁n	-4315
▁낭	-4316
▁휘	-4317
라인	-4318
력을	-4319
로드	-4320
만다	-4321
볼만	-4322
서는	-4323
씨는	-4324
아쉬	-4325
이어	-4326
▁다루	-4327
▁다를	-4328
▁스페	-4329
▁안에	-4330
▁연극	-4331
▁위로	-4332
▁장애	-4333
▁한명	-4334
▁해석	-4335
겠다는	-4336
레이션	-4337
점대는	-4338
▁느꼈다	-4339
▁느낌의	-4340
▁두번째	-4341
▁식상한	-4342
▁어이없	-4343
▁최근에	-4344
▁했으면	-4345
▁흥미로	-4346
배우들이	-4347
없는영화	-4348
▁극장가서	-4349
▁바랍니다	-4350
▁특수효과	-4351
▁P	-4352
▁났	-4353
▁됬	-4354
▁펼	-4355
건만	-4356
냈다	-4357
는대	-4358
박한	-4359
번은	-4360
지면	-4361
지요	-4362
허접	-4363
▁놓고	-4364
▁뭘까	-4365
▁범인	-4366
▁빼면	-4367
▁아래	-4368
▁안습	-4369
▁웃고	-4370
▁자식	-4371
▁탄생	-4372
것같은	-4373
▁실제로	-4374
▁잼나게	-4375
▁지나도	-4376
▁질리지	-4377
▁짜임새	-4378
▁처음에	-4379
▁감정이입	-4380
▁재미없었다	-4381
12	-4382
▁겪	-4383
▁택	-4384
같고	-4385
나네	-4386
누나	-4387
든지	-4388
뭥미	-4389
아는	-4390
퓨터	-4391
하군	-4392
형님	-4393
형래	-4394
▁모험	-4395
▁무한	-4396
▁오로	-4397
으로만	-4398
이었음	-4399
파이어	-4400
▁명작을	-4401
▁소재도	-4402
▁영화와	-4403
▁재밌을	-4404
▁기대이상	-4405
▁정말이지	-4406
▁재미도없고	-4407
▁크리스마스	-4408
▁재미있습니다	-4409
▁웰	-4410
▁튀	-4411
레인	-4412
묘한	-4413
부를	-4414
빼고	-4415
어여	-4416
오늘	-4417
정의	-4418
주연	-4419
▁끝났	-4420
▁달리	-4421
▁도망	-4422
▁손에	-4423
▁있던	-4424
▁짧은	-4425
▁최민	-4426
▁파워	-4427
▁헤어	-4428
나오고	-4429
연기는	-4430
이였다	-4431
해주고	-4432
▁디테일	-4433
▁매력을	-4434
▁별로임	-4435
▁의미가	-4436
▁추억이	-4437
▁한번도	-4438
미네이터	-4439
생각없이	-4440
▁어설프고	-4441
▁이야기는	-4442
▁생각했는데	-4443
▁W	-4444
▁뿌	-4445
과서	-4446
구성	-4447
년작	-4448
루즈	-4449
아름	-4450
장한	-4451
티즌	-4452
팩트	-4453
후회	-4454
▁기자	-4455
▁길게	-4456
▁넘게	-4457
▁다섯	-4458
▁담배	-4459
▁등등	-4460
▁정작	-4461
감독님	-4462
기전에	-4463
만큼은	-4464
솔직히	-4465
점에서	-4466
▁많아서	-4467
▁소중한	-4468
▁영화화	-4469
▁이래서	-4470
▁제임스	-4471
▁주기도	-4472
▁몰입도가	-4473
▁스트레스	-4474
▁블록버스터	-4475
30	-4476
▁F	-4477
▁몬	-4478
▁앉	-4479
되면	-4480
복을	-4481
스포	-4482
취향	-4483
커플	-4484
▁14	-4485
▁거부	-4486
▁들고	-4487
▁만남	-4488
▁매일	-4489
▁본지	-4490
▁살린	-4491
▁어째	-4492
▁열정	-4493
▁웃겼	-4494
▁팬이	-4495
웠지만	-4496
인줄알	-4497
있었다	-4498
적이지	-4499
전개가	-4500
줄이야	-4501
▁거기에	-4502
▁거짓말	-4503
▁나머지	-4504
▁대놓고	-4505
▁데리고	-4506
▁수많은	-4507
▁아무런	-4508
▁이런건	-4509
▁주제를	-4510
▁따뜻하고	-4511
▁살다살다	-4512
▁엉성하고	-4513
▁짜증나서	-4514
▁최고였다	-4515
거든	-4516
버려	-4517
어리	-4518
음을	-4519
트의	-4520
혼자	-4521
▁60	-4522
▁비행	-4523
▁쓰고	-4524
▁안된	-4525
점만점	-4526
▁감동은	-4527
▁낚였다	-4528
▁로버트	-4529
▁막판에	-4530
▁반전을	-4531
▁보다니	-4532
▁부분도	-4533
▁새벽에	-4534
▁스티븐	-4535
▁심지어	-4536
▁아니야	-4537
▁살아가는	-4538
▁시리즈는	-4539
▁어울리는	-4540
▁;	-4541
▁=	-4542
▁혐	-4543
♡♡	-4544
공감	-4545
긴장	-4546
나의	-4547
니퍼	-4548
대해	-4549
리면	-4550
매력	-4551
부가	-4552
선생	-4553
하길	-4554
▁시끄	-4555
▁일깨	-4556
▁정확	-4557
▁조절	-4558
▁주기	-4559
▁틀어	-4560
면에서	-4561
웠어요	-4562
▁그자체	-4563
▁많은데	-4564
▁보지말	-4565
▁소설을	-4566
재미없음	-4567
▁그저그런	-4568
▁떨어지고	-4569
▁보기에는	-4570
▁영화인가	-4571
▁만들었는지	-4572
..........	-4573
en	-4574
vd	-4575
▁를	-4576
▁샘	-4577
가의	-4578
국영	-4579
덕화	-4580
라의	-4581
바이	-4582
아빠	-4583
▁강한	-4584
▁고맙	-4585
▁끔찍	-4586
▁내게	-4587
▁본게	-4588
▁사투	-4589
▁생활	-4590
▁서부	-4591
▁열받	-4592
▁잼잇	-4593
▁조카	-4594
부분이	-4595
어버린	-4596
자들이	-4597
해지고	-4598
▁교훈을	-4599
▁그만큼	-4600
▁봤을까	-4601
▁역사를	-4602
▁영상과	-4603
보고싶다	-4604
▁돋보이는	-4605
▁아름답게	-4606
▁영화자체	-4607
▁유일하게	-4608
▁좋겠네요	-4609
~~~~~~~~	-4610
개는	-4611
낸다	-4612
데이	-4613
드를	-4614
마이	-4615
문화	-4616
야할	-4617
이도	-4618
조금	-4619
짱짱	-4620
피스	-4621
▁가르	-4622
▁가지	-4623
▁감각	-4624
▁단편	-4625
▁답이	-4626
▁때려	-4627
▁못봐	-4628
▁보던	-4629
▁안가	-4630
▁언니	-4631
▁예능	-4632
▁유아	-4633
▁정체	-4634
▁형사	-4635
보이는	-4636
엇는데	-4637
자들의	-4638
해야지	-4639
▁가벼운	-4640
▁당신은	-4641
▁동시에	-4642
▁이상의	-4643
▁집중이	-4644
▁한국인	-4645
웠습니다	-4646
▁봤는데도	-4647
▁생각으로	-4648
99	-4649
it	-4650
▁X	-4651
▁껐	-4652
강호	-4653
개그	-4654
드로	-4655
뢰매	-4656
리네	-4657
보지	-4658
시면	-4659
쓰고	-4660
어용	-4661
오브	-4662
으신	-4663
이에	-4664
치노	-4665
했지	-4666
▁가고	-4667
▁개념	-4668
▁꼬마	-4669
▁다이	-4670
▁다크	-4671
▁독일	-4672
▁명화	-4673
▁무료	-4674
▁뭐니	-4675
▁본거	-4676
▁시키	-4677
▁야한	-4678
▁재능	-4679
▁짜집	-4680
갑니다	-4681
메이드	-4682
어가는	-4683
였으면	-4684
점으로	-4685
점주고	-4686
▁돌아가	-4687
▁러시아	-4688
▁뭐하나	-4689
▁배트맨	-4690
▁브루스	-4691
▁연출은	-4692
▁웃기다	-4693
▁이보다	-4694
▁작가님	-4695
▁최고로	-4696
거같아요	-4697
▁다운받아	-4698
▁아까웠다	-4699
▁어느정도	-4700
▁집중해서	-4701
80	-4702
ut	-4703
▁첩	-4704
관객	-4705
나니	-4706
는듯	-4707
또한	-4708
래곤	-4709
성과	-4710
시오	-4711
정한	-4712
▁낮네	-4713
▁동양	-4714
▁로코	-4715
▁빵빵	-4716
▁아내	-4717
▁애기	-4718
▁이병	-4719
▁익숙	-4720
▁한숨	-4721
건가요	-4722
관에서	-4723
잖아요	-4724
▁괜찮음	-4725
▁교과서	-4726
▁놀라운	-4727
▁당연히	-4728
▁됩니다	-4729
▁많은걸	-4730
▁영화만	-4731
▁원작에	-4732
▁장면도	-4733
▁제이슨	-4734
▁중에서	-4735
▁하길래	-4736
▁하나로	-4737
있습니다	-4738
▁말하고자	-4739
▁본방사수	-4740
▁어색하고	-4741
▁재밌다는	-4742
▁처음에는	-4743
▁클레멘타	-4744
▁한국에서	-4745
▁케이블에서	-4746
▁팝	-4747
가에	-4748
겠죠	-4749
동차	-4750
리며	-4751
버스	-4752
분을	-4753
빠진	-4754
신의	-4755
싸움	-4756
햇다	-4757
▁감안	-4758
▁담겨	-4759
▁목숨	-4760
▁받은	-4761
▁수입	-4762
▁쓰는	-4763
▁영향	-4764
▁위험	-4765
▁이야	-4766
▁있네	-4767
▁적절	-4768
▁폭풍	-4769
나네요	-4770
만들어	-4771
심으로	-4772
최악의	-4773
하는것	-4774
▁기대했	-4775
▁나에겐	-4776
▁내용과	-4777
▁또다른	-4778
▁머리가	-4779
▁별로고	-4780
▁액션을	-4781
▁여주가	-4782
▁이따구	-4783
▁있다니	-4784
▁참신한	-4785
영화인데	-4786
▁볼수있는	-4787
▁아쉽지만	-4788
!!!!!!	-4789
▁쥬	-4790
게임	-4791
여행	-4792
중훈	-4793
▁읽어	-4794
▁정우	-4795
▁즐겨	-4796
▁플롯	-4797
▁혹은	-4798
기까지	-4799
는데도	-4800
봤네요	-4801
에게는	-4802
▁감독을	-4803
▁그립다	-4804
▁모든걸	-4805
▁못하다	-4806
▁약간의	-4807
▁엄마가	-4808
▁영상이	-4809
▁이해를	-4810
▁적당히	-4811
▁조니뎁	-4812
▁친구가	-4813
▁피해자	-4814
긴하지만	-4815
스토리가	-4816
영화보다	-4817
▁배경음악	-4818
▁이상하고	-4819
▁잘봤어요	-4820
▁여자주인공	-4821
▁재미없어서	-4822
11	-4823
걱정	-4824
성우	-4825
악한	-4826
였네	-4827
정화	-4828
프닝	-4829
하러	-4830
후의	-4831
▁be	-4832
▁낮지	-4833
▁두려	-4834
▁먼가	-4835
▁아버	-4836
▁유발	-4837
▁형님	-4838
있네요	-4839
하고싶	-4840
하자는	-4841
했을때	-4842
▁남네요	-4843
▁너무도	-4844
▁배우도	-4845
▁숨겨진	-4846
▁찾아볼	-4847
▁초딩때	-4848
하는영화	-4849
▁궁금하다	-4850
▁나름대로	-4851
▁재밌어서	-4852
▁태어나서	-4853
ᄏᄏᄏᄏᄏᄏ	-4854
낮은	-4855
도를	-4856
드리	-4857
분한	-4858
오래	-4859
위에	-4860
자와	-4861
▁같고	-4862
▁낮아	-4863
▁디워	-4864
▁봤네	-4865
▁신의	-4866
▁으리	-4867
▁착각	-4868
▁하여	-4869
▁확인	-4870
▁갑니다	-4871
▁내생에	-4872
▁보기에	-4873
▁싶어요	-4874
▁싸우는	-4875
▁영화같	-4876
▁이딴걸	-4877
▁일부러	-4878
▁진짜로	-4879
▁출연한	-4880
▁케릭터	-4881
▁한편의	-4882
▁괜찮았다	-4883
▁만든영화	-4884
▁매력적이	-4885
▁배우들은	-4886
▁아니라고	-4887
▁재밋어요	-4888
▁포스터가	-4889
▁해리포터	-4890
▁킬링타임용으로	-4891
!!!!!!!!!!!!!!!!	-4892
-^	-4893
as	-4894
▁굴	-4895
▁낯	-4896
▁댄	-4897
▁덤	-4898
▁옹	-4899
상의	-4900
스키	-4901
아치	-4902
쟁이	-4903
초에	-4904
▁거북	-4905
▁근래	-4906
▁꽤나	-4907
▁새로	-4908
▁손색	-4909
▁자세	-4910
▁잠시	-4911
▁책을	-4912
▁추격	-4913
▁프레	-4914
스럽지	-4915
아저씨	-4916
어야지	-4917
었다는	-4918
▁ᄍᄍᄍ	-4919
▁괜찮다	-4920
▁귀여워	-4921
▁높아서	-4922
▁아니지	-4923
▁아류작	-4924
▁여러번	-4925
▁영환데	-4926
▁유일한	-4927
▁인생에	-4928
▁잼있음	-4929
▁특별한	-4930
▁하다가	-4931
도아니고	-4932
▁영화인지	-4933
▁여주인공이	-4934
es	-4935
ᅲᅮ	-4936
▁늑	-4937
느껴	-4938
로의	-4939
만도	-4940
미는	-4941
스에	-4942
은데	-4943
이름	-4944
일듯	-4945
장르	-4946
졸작	-4947
함도	-4948
▁과학	-4949
▁끼워	-4950
▁난잡	-4951
▁말았	-4952
▁부르	-4953
▁애매	-4954
▁주윤	-4955
▁호기	-4956
포스터	-4957
?...	-4958
▁가족의	-4959
▁공포물	-4960
▁놀랍다	-4961
▁반드시	-4962
▁소재와	-4963
▁심형래	-4964
▁않아서	-4965
▁여자는	-4966
▁이소룡	-4967
▁재미로	-4968
▁짜증만	-4969
▁컴퓨터	-4970
▁한국의	-4971
▁마이너스	-4972
▁마지막이	-4973
▁이드라마	-4974
▁이런영화는	-4975
.3	-4976
▁깡	-4977
▁벤	-4978
개가	-4979
상수	-4980
스크	-4981
싫어	-4982
웃기	-4983
적임	-4984
정우	-4985
직한	-4986
진이	-4987
치곤	-4988
▁개성	-4989
▁낮다	-4990
▁망한	-4991
▁밀려	-4992
▁안될	-4993
▁앞뒤	-4994
▁이은	-4995
▁중독	-4996
▁추리	-4997
▁판단	-4998
도대체	-4999
들한테	-5000
부터가	-5001
하더라	-5002
▁나오네	-5003
▁분들이	-5004
▁불편한	-5005
▁사람도	-5006
▁아깝고	-5007
▁엔딩이	-5008
▁예쁘다	-5009
▁인터넷	-5010
▁일깨워	-5011
▁있다고	-5012
▁적어도	-5013
▁한다는	-5014
▁다시보니	-5015
▁마음으로	-5016
▁보았는데	-5017
▁불쌍하다	-5018
▁아쉬움이	-5019
.0	-5020
is	-5021
▁>	-5022
▁틈	-5023
▁헌	-5024
▁혁	-5025
따뜻	-5026
성기	-5027
아내	-5028
중이	-5029
지현	-5030
테러	-5031
▁관련	-5032
▁남기	-5033
▁달콤	-5034
▁실력	-5035
▁애국	-5036
▁위대	-5037
▁첨엔	-5038
속으로	-5039
애들이	-5040
었구나	-5041
하나도	-5042
▁dvd	-5043
▁나왔다	-5044
▁네티즌	-5045
▁매니아	-5046
▁멋있는	-5047
▁몰랐다	-5048
▁배우는	-5049
▁어우러	-5050
▁장면을	-5051
▁전쟁의	-5052
▁제목만	-5053
▁짜증남	-5054
♥♥♥♥	-5055
▁봐도봐도	-5056
▁수작이다	-5057
▁쓸데없이	-5058
▁여자친구	-5059
▁오랫만에	-5060
▁염	-5061
▁컬	-5062
같아	-5063
웃김	-5064
인건	-5065
있던	-5066
주일	-5067
팔이	-5068
▁빵터	-5069
▁서양	-5070
▁압도	-5071
▁언젠	-5072
▁유럽	-5073
▁자랑	-5074
▁주지	-5075
▁지겹	-5076
▁탈출	-5077
▁편안	-5078
▁했음	-5079
▁화장	-5080
왔는데	-5081
▁단순히	-5082
▁부모님	-5083
▁생각도	-5084
▁잘하는	-5085
▁제니퍼	-5086
▁현실이	-5087
하지마라	-5088
▁그야말로	-5089
▁리얼리티	-5090
▁시나리오가	-5091
▁최고의영화	-5092
▁터미네이터	-5093
▁R	-5094
▁객	-5095
▁링	-5096
드만	-5097
라노	-5098
민이	-5099
부로	-5100
선을	-5101
으리	-5102
죽는	-5103
줄은	-5104
지나	-5105
▁공간	-5106
▁남편	-5107
▁다신	-5108
▁땜에	-5109
▁맞춰	-5110
▁바다	-5111
▁실험	-5112
▁싶지	-5113
▁없게	-5114
▁책임	-5115
▁케빈	-5116
▁타고	-5117
▁흑인	-5118
으려고	-5119
중에서	-5120
하거나	-5121
한마디	-5122
▁감동받	-5123
▁강렬한	-5124
▁다르게	-5125
▁되네요	-5126
▁떨어짐	-5127
▁봤다면	-5128
▁사실을	-5129
▁시간에	-5130
▁없었음	-5131
▁지금의	-5132
시나리오	-5133
▁ᄒᄒᄒᄒ	-5134
▁웃으면서	-5135
▁잔잔하게	-5136
▁ᄇ	-5137
▁곧	-5138
▁든	-5139
▁벨	-5140
림이	-5141
보영	-5142
부는	-5143
어색	-5144
있을	-5145
패스	-5146
▁극복	-5147
▁꿈꾸	-5148
▁로빈	-5149
▁못미	-5150
▁배신	-5151
▁부탁	-5152
▁아냐	-5153
▁아우	-5154
▁읽고	-5155
▁하아	-5156
▁하품	-5157
는거야	-5158
생각이	-5159
▁you	-5160
▁대통령	-5161
▁박중훈	-5162
▁본건데	-5163
▁아들이	-5164
▁아무도	-5165
▁알겠다	-5166
▁액션과	-5167
▁여자들	-5168
▁후속작	-5169
▁희망을	-5170
▁아이들과	-5171
▁영상미가	-5172
▁이해할수	-5173
▁아까운영화	-5174
▁한국영화의	-5175
▁곽	-5176
▁님	-5177
때는	-5178
때매	-5179
래도	-5180
부의	-5181
분위	-5182
스케	-5183
안됨	-5184
언제	-5185
엇음	-5186
유리	-5187
전을	-5188
전이	-5189
점수	-5190
졌음	-5191
▁것에	-5192
▁나랑	-5193
▁만약	-5194
▁묻어	-5195
▁받는	-5196
▁별반	-5197
▁외로	-5198
▁인형	-5199
▁잊고	-5200
재미도	-5201
▁그동안	-5202
▁사운드	-5203
▁얼굴이	-5204
▁일본은	-5205
▁잊혀지	-5206
▁희대의	-5207
같은영화	-5208
극장에서	-5209
재미있게	-5210
하지않고	-5211
...^^	-5212
▁궁금해서	-5213
▁영화라니	-5214
▁전체적인	-5215
▁주인공들	-5216
▁사람들에게	-5217
▁재미없다고	-5218
▁ᄏᄏᄏᄏᄏᄏᄏ	-5219
▁떼	-5220
▁밖	-5221
▁숙	-5222
들여	-5223
보내	-5224
세여	-5225
식은	-5226
엄청	-5227
이여	-5228
이프	-5229
지네	-5230
차별	-5231
▁극단	-5232
▁당황	-5233
▁루즈	-5234
▁마무	-5235
▁맛이	-5236
▁무게	-5237
▁미쳤	-5238
▁반담	-5239
▁보내	-5240
▁삶이	-5241
▁서울	-5242
▁스텝	-5243
▁열연	-5244
▁줘야	-5245
▁호구	-5246
정적인	-5247
화이팅	-5248
▁도무지	-5249
▁멋지고	-5250
▁안간다	-5251
▁없나요	-5252
▁울리는	-5253
▁이토록	-5254
▁기억나는	-5255
▁내용인지	-5256
▁영화였음	-5257
▁짜증나고	-5258
▁하나하나가	-5259
▁엔	-5260
노답	-5261
들로	-5262
로맨	-5263
리나	-5264
먹은	-5265
못해	-5266
버릴	-5267
범죄	-5268
불쌍	-5269
신고	-5270
잡을	-5271
중반	-5272
해선	-5273
희가	-5274
▁of	-5275
▁김혜	-5276
▁끌고	-5277
▁무너	-5278
▁빠른	-5279
▁아놀	-5280
▁안들	-5281
▁왤케	-5282
▁자본	-5283
▁진리	-5284
▁집어	-5285
▁클래	-5286
▁폐지	-5287
▁힘내	-5288
만하다	-5289
배우의	-5290
습니까	-5291
인들의	-5292
인지도	-5293
좋았다	-5294
▁개노잼	-5295
▁귀엽다	-5296
▁다보고	-5297
▁사랑해	-5298
▁이름을	-5299
▁이뻐서	-5300
▁재밋음	-5301
▁주제가	-5302
▁줍니다	-5303
▁한개도	-5304
▁허술한	-5305
▁혹시나	-5306
▁흐르는	-5307
▁뱀파이어	-5308
▁할리우드	-5309
▁모르겠네요	-5310
90	-5311
▁깍	-5312
▁띄	-5313
▁품	-5314
▁효	-5315
딩때	-5316
말도	-5317
므로	-5318
사와	-5319
아픈	-5320
여주	-5321
장의	-5322
추억	-5323
▁냄새	-5324
▁리즈	-5325
▁무난	-5326
▁뭥미	-5327
▁받고	-5328
▁배급	-5329
▁빨갱	-5330
▁사상	-5331
▁생긴	-5332
▁선물	-5333
▁아파	-5334
▁오브	-5335
▁이준	-5336
내용은	-5337
라는게	-5338
싶은데	-5339
했다면	-5340
▁4.4	-5341
▁나이가	-5342
▁때마다	-5343
▁만화책	-5344
▁사이코	-5345
▁시간때	-5346
▁시간만	-5347
▁실화를	-5348
▁안봐도	-5349
▁어른이	-5350
▁왜이러	-5351
▁전개와	-5352
▁정도면	-5353
▁짜증이	-5354
▁사랑해요	-5355
▁괜찮았는데	-5356
▁작품입니다	-5357
▁쭉	-5358
▁햇	-5359
되게	-5360
드림	-5361
사에	-5362
살아	-5363
살인	-5364
상영	-5365
판이	-5366
▁담은	-5367
▁따위	-5368
▁맞지	-5369
▁생에	-5370
▁싸움	-5371
▁잤다	-5372
▁즐길	-5373
▁평균	-5374
▁프리	-5375
분들이	-5376
뿐이다	-5377
아닌가	-5378
었다고	-5379
할만한	-5380
▁가득한	-5381
▁괜찮고	-5382
▁나네요	-5383
▁다르다	-5384
▁들어가	-5385
▁듭니다	-5386
▁스포츠	-5387
▁울면서	-5388
▁잘못된	-5389
▁장국영	-5390
▁저평가	-5391
기도하고	-5392
▁2000	-5393
▁나레이션	-5394
▁생각난다	-5395
▁시간아깝다	-5396
▁재미있는데	-5397
▁V	-5398
갈때	-5399
높은	-5400
느끼	-5401
둥이	-5402
루토	-5403
마자	-5404
무시	-5405
비슷	-5406
싫다	-5407
쓰는	-5408
어의	-5409
저리	-5410
..!	-5411
▁각색	-5412
▁고뇌	-5413
▁기존	-5414
▁김치	-5415
▁꼭보	-5416
▁내돈	-5417
▁달려	-5418
▁담담	-5419
▁대신	-5420
▁두근	-5421
▁마약	-5422
▁망치	-5423
▁맞아	-5424
▁벗어	-5425
▁본듯	-5426
▁부담	-5427
▁엑스	-5428
▁찍고	-5429
▁참나	-5430
▁파괴	-5431
▁폭발	-5432
▁흑백	-5433
들끼리	-5434
모르고	-5435
아직도	-5436
있지만	-5437
점부터	-5438
▁내용의	-5439
▁반전에	-5440
▁설정이	-5441
▁아진짜	-5442
▁없으면	-5443
▁우뢰매	-5444
▁이름이	-5445
▁점수는	-5446
▁정도가	-5447
▁좋다고	-5448
▁최고봉	-5449
▁황당한	-5450
▁뜬금없는	-5451
▁볼만했다	-5452
▁아깝네요	-5453
▁자극적인	-5454
▁재밌었던	-5455
▁갓	-5456
▁는	-5457
▁땡	-5458
▁뗄	-5459
▁쿵	-5460
경이	-5461
미국	-5462
시원	-5463
오랜	-5464
좋게	-5465
준호	-5466
질이	-5467
하균	-5468
히고	-5469
▁몰라	-5470
▁바탕	-5471
▁빛을	-5472
▁사무	-5473
▁소피	-5474
▁어떨	-5475
▁이성	-5476
▁저급	-5477
▁혐오	-5478
▁흡입	-5479
거같음	-5480
납니다	-5481
리네요	-5482
분동안	-5483
분만에	-5484
▁개그맨	-5485
▁결론은	-5486
▁내용에	-5487
▁드디어	-5488
▁매력에	-5489
▁봐야지	-5490
▁불쌍한	-5491
▁스릴도	-5492
▁시대에	-5493
▁않았던	-5494
▁어렵다	-5495
▁없다고	-5496
▁영원한	-5497
▁인생은	-5498
▁인생이	-5499
▁일본의	-5500
▁최소한	-5501
▁갠적으로	-5502
▁기대없이	-5503
▁믿고보는	-5504
▁쓸데없는	-5505
▁사랑합니다	-5506
ow	-5507
▁뚝	-5508
▁뽀	-5509
▁킹	-5510
가리	-5511
고생	-5512
그럼	-5513
까요	-5514
데체	-5515
든가	-5516
리와	-5517
불허	-5518
서도	-5519
소름	-5520
시가	-5521
위원	-5522
의를	-5523
줬다	-5524
코믹	-5525
▁깊게	-5526
▁망친	-5527
▁몽환	-5528
▁박수	-5529
▁사용	-5530
▁손발	-5531
▁어둡	-5532
▁왜곡	-5533
▁우연	-5534
▁잠이	-5535
▁정상	-5536
▁탁월	-5537
▁하시	-5538
▁한방	-5539
그러나	-5540
스러워	-5541
임에도	-5542
했을까	-5543
▁당시에	-5544
▁뭐하는	-5545
▁미국의	-5546
▁불가능	-5547
▁영화나	-5548
▁영화야	-5549
▁이병헌	-5550
▁헛웃음	-5551
▁현실과	-5552
▁언제봐도	-5553
▁탄탄하고	-5554
ᄏᄏᄏᄏᄏᄏᄏ	-5555
al	-5556
ic	-5557
▁곱	-5558
▁꿀	-5559
▁웅	-5560
구가	-5561
귀여	-5562
께요	-5563
남기	-5564
도의	-5565
리엄	-5566
모로	-5567
번을	-5568
슨이	-5569
없지	-5570
웠고	-5571
이죠	-5572
진않	-5573
형제	-5574
▁기타	-5575
▁끝에	-5576
▁말자	-5577
▁뭐고	-5578
▁민폐	-5579
▁반대	-5580
▁수면	-5581
▁암걸	-5582
▁유행	-5583
▁이수	-5584
▁일베	-5585
▁조화	-5586
▁짐캐	-5587
▁컨셉	-5588
▁평소	-5589
게하는	-5590
는거지	-5591
답니다	-5592
아무리	-5593
제대로	-5594
▁ᄃᄃᄃ	-5595
▁공짜로	-5596
▁그것을	-5597
▁느낌은	-5598
▁다세포	-5599
▁빛나는	-5600
▁어쩌면	-5601
▁오프닝	-5602
▁이제는	-5603
▁재개봉	-5604
▁적절한	-5605
▁첨부터	-5606
▁마지막회	-5607
▁무엇인가	-5608
▁웰메이드	-5609
▁이도저도	-5610
▁포스터만	-5611
쓰레기영화	-5612
▁전반적으로	-5613
▁H	-5614
▁뭣	-5615
감과	-5616
났음	-5617
되나	-5618
롭고	-5619
발견	-5620
없나	-5621
였나	-5622
이든	-5623
자리	-5624
조연	-5625
할지	-5626
▁강간	-5627
▁개콘	-5628
▁걱정	-5629
▁겉멋	-5630
▁과대	-5631
▁나무	-5632
▁녹아	-5633
▁담백	-5634
▁동네	-5635
▁망가	-5636
▁매미	-5637
▁밤에	-5638
▁원조	-5639
▁일으	-5640
▁장동	-5641
까지도	-5642
연기를	-5643
ᄒᄒᄒᄒ	-5644
▁감독과	-5645
▁고양이	-5646
▁공감할	-5647
▁그것이	-5648
▁배경이	-5649
▁시대의	-5650
▁역겨운	-5651
▁인간은	-5652
▁점수준	-5653
▁제목을	-5654
▁지겹다	-5655
▁짜집기	-5656
▁나오는데	-5657
▁진지하게	-5658
▁초등학교	-5659
▁추천하고	-5660
▁만들었을까	-5661
▁재미있었습니다	-5662
od	-5663
ot	-5664
▁땅	-5665
▁컸	-5666
▁핸	-5667
간에	-5668
그랬	-5669
대고	-5670
라라	-5671
란티	-5672
먹을	-5673
박죽	-5674
슨의	-5675
아노	-5676
우스	-5677
있지	-5678
졌던	-5679
존나	-5680
질않	-5681
▁갖다	-5682
▁담긴	-5683
▁무겁	-5684
▁임창	-5685
▁절망	-5686
▁힘을	-5687
라이언	-5688
았으면	-5689
여운이	-5690
주기도	-5691
죽박죽	-5692
지루함	-5693
▁감독도	-5694
▁공감도	-5695
▁끝날때	-5696
▁내생애	-5697
▁누군가	-5698
▁살인마	-5699
▁아깝네	-5700
▁안어울	-5701
▁은근히	-5702
▁자동차	-5703
▁적당한	-5704
▁좋을듯	-5705
▁주윤발	-5706
▁친구랑	-5707
▁풋풋한	-5708
했었는데	-5709
▁느낌이다	-5710
▁못보겠다	-5711
▁봐야하는	-5712
▁시작부터	-5713
▁억지감동	-5714
▁엄청나게	-5715
,3	-5716
▁ᄡ	-5717
▁땐	-5718
▁붕	-5719
▁쫓	-5720
▁탓	-5721
굿굿	-5722
나쁜	-5723
랜드	-5724
법한	-5725
선이	-5726
아지	-5727
앗다	-5728
여진	-5729
원은	-5730
웨이	-5731
위한	-5732
이딴	-5733
일을	-5734
자로	-5735
주면	-5736
카프	-5737
하디	-5738
▁국가	-5739
▁김태	-5740
▁늦게	-5741
▁데뷔	-5742
▁뒤에	-5743
▁먹는	-5744
▁앞에	-5745
▁없냐	-5746
▁예수	-5747
▁오우	-5748
▁요새	-5749
▁줄리	-5750
▁즐기	-5751
▁키스	-5752
▁파격	-5753
같아서	-5754
겠는데	-5755
되는데	-5756
었다면	-5757
적으론	-5758
코메디	-5759
평론가	-5760
하니까	-5761
,.,.	-5762
~~^^	-5763
▁돈내고	-5764
▁못봐주	-5765
▁무섭고	-5766
▁뭐라고	-5767
▁세상이	-5768
▁않은데	-5769
▁어디로	-5770
▁왠만한	-5771
내용인지	-5772
드라마가	-5773
▁Good	-5774
▁다행이다	-5775
▁둘째치고	-5776
▁드라마의	-5777
▁만들어서	-5778
▁소중함을	-5779
▁시작해서	-5780
▁유치해서	-5781
▁이런류의	-5782
▁장난하냐	-5783
▁재미있어	-5784
▁할아버지	-5785
재미있어요	-5786
▁재미있었음	-5787
▁ᄆ	-5788
▁쪼	-5789
▁쫄	-5790
나름	-5791
늦게	-5792
답게	-5793
리한	-5794
물로	-5795
전혀	-5796
져야	-5797
즈의	-5798
호감	-5799
▁가정	-5800
▁개나	-5801
▁개똥	-5802
▁김희	-5803
▁깡패	-5804
▁말투	-5805
▁매끄	-5806
▁불안	-5807
▁여친	-5808
▁역량	-5809
▁이다	-5810
▁이렇	-5811
▁절로	-5812
▁점이	-5813
▁죽고	-5814
▁최소	-5815
▁축구	-5816
▁피터	-5817
▁흔들	-5818
그렇게	-5819
레이드	-5820
있으면	-5821
졌어요	-5822
▁가까운	-5823
▁괜찮게	-5824
▁만점에	-5825
▁명불허	-5826
▁무거운	-5827
▁보라고	-5828
▁안무서	-5829
▁양아치	-5830
▁어두운	-5831
▁없는게	-5832
▁외계인	-5833
▁의도가	-5834
▁진지한	-5835
지않는다	-5836
▁100%	-5837
▁목소리가	-5838
▁아이들의	-5839
▁인상적인	-5840
▁전쟁영화	-5841
▁포스터에	-5842
▁사람이라면	-5843
ᅲᅲᅲᅲᅲᅲᅲᅲ	-5844
...........	-5845
CG	-5846
▁곰	-5847
▁앨	-5848
▁콘	-5849
▁협	-5850
놨네	-5851
더맨	-5852
라에	-5853
모를	-5854
받을	-5855
보긴	-5856
았네	-5857
인게	-5858
일의	-5859
잖은	-5860
지에	-5861
짬뽕	-5862
탈출	-5863
하실	-5864
함께	-5865
▁거품	-5866
▁고어	-5867
▁로드	-5868
▁만난	-5869
▁박신	-5870
▁버려	-5871
▁자고	-5872
▁정보	-5873
▁좋네	-5874
▁짜릿	-5875
간만에	-5876
시대에	-5877
애들은	-5878
적이라	-5879
▁가족이	-5880
▁그들이	-5881
▁기대가	-5882
▁느끼고	-5883
▁드래곤	-5884
▁명복을	-5885
▁무언가	-5886
▁버리고	-5887
▁스타뎀	-5888
▁요소가	-5889
▁자기가	-5890
▁정도는	-5891
▁제시카	-5892
▁질질끌	-5893
▁찾아서	-5894
으면서도	-5895
있는영화	-5896
카프리오	-5897
▁마지막엔	-5898
▁유쾌하게	-5899
nd	-5900
▁널	-5901
▁칠	-5902
가네	-5903
국의	-5904
끝나	-5905
다르	-5906
대에	-5907
더더	-5908
들러	-5909
뚱맞	-5910
랐다	-5911
말을	-5912
얼마	-5913
없을	-5914
역할	-5915
우의	-5916
장애	-5917
정쩡	-5918
질질	-5919
프레	-5920
?..	-5921
▁--	-5922
▁가수	-5923
▁가히	-5924
▁분량	-5925
▁세번	-5926
▁실감	-5927
▁잃은	-5928
▁잠들	-5929
▁죄송	-5930
▁줄수	-5931
같아요	-5932
까지만	-5933
란티노	-5934
맙시다	-5935
ovie	-5936
▁귀여움	-5937
▁말고는	-5938
▁말아야	-5939
▁명장면	-5940
▁수준을	-5941
▁안본다	-5942
▁애초에	-5943
▁어거지	-5944
▁이만한	-5945
거같은데	-5946
시간동안	-5947
▁괜찮았음	-5948
▁꼭보세요	-5949
▁만들어라	-5950
▁영화예요	-5951
▁짜증나게	-5952
▁흘러가는	-5953
19	-5954
TV	-5955
zz	-5956
▁땀	-5957
▁맴	-5958
▁빙	-5959
▁앵	-5960
기법	-5961
기와	-5962
도로	-5963
됐다	-5964
란한	-5965
뭐냐	-5966
뭐지	-5967
민의	-5968
바라	-5969
사실	-5970
셔야	-5971
아누	-5972
워즈	-5973
잇는	-5974
전의	-5975
점에	-5976
쯧쯧	-5977
트를	-5978
▁,,	-5979
▁:)	-5980
▁강동	-5981
▁건가	-5982
▁기획	-5983
▁길이	-5984
▁깨알	-5985
▁나중	-5986
▁단어	-5987
▁보신	-5988
▁아담	-5989
▁어리	-5990
▁장진	-5991
▁첩보	-5992
▁치유	-5993
▁하도	-5994
▁환경	-5995
보지마	-5996
봐야지	-5997
빕니다	-5998
생각을	-5999
파치노	-6000
▁가능한	-6001
▁동영상	-6002
▁떨어지	-6003
▁명대사	-6004
▁보기가	-6005
▁보시면	-6006
▁보았던	-6007
▁설득력	-6008
▁시청자	-6009
▁영상도	-6010
▁요즘은	-6011
▁잊을수	-6012
▁작가의	-6013
▁잘한다	-6014
▁조금은	-6015
▁한국판	-6016
▁한번더	-6017
▁화장실	-6018
▁기대이하	-6019
▁만들어낸	-6020
▁말그대로	-6021
▁배경으로	-6022
▁사랑하고	-6023
▁산만하고	-6024
▁순수하고	-6025
▁않았지만	-6026
▁이것보단	-6027
▁이해불가	-6028
▁볼만합니다	-6029
▁생각해보게	-6030
▁좋았을텐데	-6031
▁캐릭터들이	-6032
▁드라마입니다	-6033
▁아무생각없이	-6034
▁벅	-6035
▁쌩	-6036
▁죠	-6037
▁팍	-6038
것에	-6039
만족	-6040
미스	-6041
바람	-6042
보구	-6043
신도	-6044
체적	-6045
치지	-6046
타고	-6047
▁갔다	-6048
▁객관	-6049
▁난리	-6050
▁단체	-6051
▁모욕	-6052
▁베리	-6053
▁빼곤	-6054
▁삶과	-6055
▁암울	-6056
▁예측	-6057
▁이동	-6058
▁인종	-6059
▁조차	-6060
▁졸업	-6061
▁판타	-6062
감독은	-6063
기억이	-6064
못하는	-6065
시간을	-6066
아니면	-6067
점이상	-6068
종일관	-6069
줬으면	-6070
필버그	-6071
하시고	-6072
▁교훈도	-6073
▁나을듯	-6074
▁놀랐다	-6075
▁라스트	-6076
▁라이언	-6077
▁명작은	-6078
▁모습은	-6079
▁보게된	-6080
▁볼려고	-6081
▁선생님	-6082
▁싶었다	-6083
▁싶었던	-6084
▁알았음	-6085
▁영화이	-6086
▁흥미를	-6087
우리나라	-6088
좋은영화	-6089
▁괜찮네요	-6090
▁뜬금없이	-6091
▁연출력이	-6092
▁영화인줄	-6093
▁제작비가	-6094
▁충격적인	-6095
▁평점조절	-6096
개인적으로	-6097
▁좋아하지만	-6098
▁감동적이네요	-6099
▁x	-6100
▁린	-6101
▁및	-6102
▁옳	-6103
▁털	-6104
로로	-6105
못한	-6106
볼수	-6107
부지	-6108
살이	-6109
스와	-6110
승전	-6111
시기	-6112
안타	-6113
예술	-6114
일러	-6115
주기	-6116
증이	-6117
치의	-6118
킬링	-6119
^^*	-6120
▁메이	-6121
▁묘한	-6122
▁무간	-6123
▁뮤직	-6124
▁변화	-6125
▁보단	-6126
▁보라	-6127
▁브래	-6128
▁소화	-6129
▁절제	-6130
▁진한	-6131
▁찾는	-6132
▁트랜	-6133
▁향연	-6134
▁형제	-6135
▁황정	-6136
▁후에	-6137
겠다고	-6138
류영화	-6139
하기엔	-6140
~~!!	-6141
▁공포를	-6142
▁당신이	-6143
▁모른다	-6144
▁속았다	-6145
▁싶어서	-6146
▁아프다	-6147
▁안좋아	-6148
▁여러분	-6149
▁웃기는	-6150
▁홍상수	-6151
▁감명깊게	-6152
▁그렇지만	-6153
▁만들었나	-6154
▁명불허전	-6155
▁모르지만	-6156
▁사람들을	-6157
▁영화라서	-6158
▁왔습니다	-6159
▁최고최고	-6160
▁홍콩영화	-6161
15	-6162
ay	-6163
▁&	-6164
▁록	-6165
▁섭	-6166
▁엮	-6167
가운	-6168
개를	-6169
겠어	-6170
귀엽	-6171
나간	-6172
때도	-6173
석규	-6174
소가	-6175
스틱	-6176
시나	-6177
영의	-6178
웃겨	-6179
자면	-6180
채널	-6181
편집	-6182
할뿐	-6183
ᅮᅮᅮ	-6184
▁??	-6185
▁격투	-6186
▁과정	-6187
▁김지	-6188
▁따름	-6189
▁말씀	-6190
▁망할	-6191
▁맡은	-6192
▁몇년	-6193
▁무식	-6194
▁반영	-6195
▁배꼽	-6196
▁빵점	-6197
▁소통	-6198
▁심장	-6199
▁애틋	-6200
듯하다	-6201
라이즈	-6202
목소리	-6203
보네요	-6204
았네요	-6205
지못할	-6206
지않다	-6207
최고다	-6208
하고는	-6209
햇는데	-6210
▁나루토	-6211
▁미소가	-6212
▁소재의	-6213
▁아이언	-6214
▁절대로	-6215
▁하이틴	-6216
▁하정우	-6217
▁2012	-6218
▁느껴졌다	-6219
▁뒤죽박죽	-6220
▁형편없는	-6221
▁다운받아서	-6222
▁오글거리는	-6223
▁좋겠습니다	-6224
▁삽	-6225
▁액	-6226
가면	-6227
경찰	-6228
고도	-6229
곳에	-6230
구라	-6231
다만	-6232
무엇	-6233
물론	-6234
물의	-6235
바타	-6236
번에	-6237
빠져	-6238
상에	-6239
없게	-6240
예진	-6241
의식	-6242
쥬얼	-6243
참고	-6244
추는	-6245
치도	-6246
치를	-6247
케이	-6248
하루	-6249
^-^	-6250
▁16	-6251
▁고독	-6252
▁기괴	-6253
▁나음	-6254
▁난무	-6255
▁놀란	-6256
▁늑대	-6257
▁도둑	-6258
▁따분	-6259
▁바닥	-6260
▁방해	-6261
▁별거	-6262
▁부부	-6263
▁부산	-6264
▁선사	-6265
▁에효	-6266
▁왔다	-6267
▁원주	-6268
▁이별	-6269
▁잠을	-6270
▁하기	-6271
▁하며	-6272
▁호불	-6273
나이트	-6274
년대에	-6275
다니는	-6276
없어요	-6277
을수가	-6278
▁EBS	-6279
▁더빙이	-6280
▁류승범	-6281
▁멋지게	-6282
▁무섭게	-6283
▁부자연	-6284
▁비호감	-6285
▁빕니다	-6286
▁아마추	-6287
▁알았네	-6288
▁애니는	-6289
▁영화속	-6290
▁임팩트	-6291
▁조금만	-6292
▁중학생	-6293
공포영화	-6294
지루하고	-6295
~~~~~	-6296
▁4.44	-6297
▁거지같은	-6298
▁기대하지	-6299
▁시종일관	-6300
▁안보는게	-6301
▁연기력에	-6302
▁오글오글	-6303
▁있었으면	-6304
▁장면들이	-6305
▁최고네요	-6306
▁블랙코미디	-6307
le	-6308
~♥	-6309
▁r	-6310
▁♥	-6311
▁습	-6312
▁을	-6313
▁찢	-6314
▁쿨	-6315
▁폰	-6316
감정	-6317
광고	-6318
꺼면	-6319
님은	-6320
선택	-6321
시의	-6322
아오	-6323
왕국	-6324
유발	-6325
은거	-6326
이요	-6327
집어	-6328
집에	-6329
트로	-6330
후에	-6331
▁끝도	-6332
▁넘넘	-6333
▁뭐임	-6334
▁미녀	-6335
▁볼까	-6336
▁삭제	-6337
▁상징	-6338
▁생겼	-6339
▁수록	-6340
▁스피	-6341
▁애잔	-6342
▁어떠	-6343
▁어쨌	-6344
▁없었	-6345
▁엑소	-6346
▁영구	-6347
▁음식	-6348
▁정당	-6349
▁차이	-6350
▁칭찬	-6351
▁평을	-6352
▁평화	-6353
▁풍자	-6354
▁허허	-6355
거리가	-6356
그런지	-6357
끝나고	-6358
였다면	-6359
을까요	-6360
▁개봉한	-6361
▁대사도	-6362
▁마시길	-6363
▁보이지	-6364
▁살리지	-6365
▁어정쩡	-6366
▁유덕화	-6367
▁잼있는	-6368
▁전개는	-6369
▁허무한	-6370
점만점에	-6371
졌습니다	-6372
▁개봉당시	-6373
▁내용전개	-6374
▁아니잖아	-6375
▁아이디어	-6376
▁에로영화	-6377
▁재미있을	-6378
▁현실적이	-6379
▁마지막장면	-6380
ck	-6381
▁갱	-6382
▁듬	-6383
▁멜	-6384
▁썰	-6385
간히	-6386
느냐	-6387
상한	-6388
심에	-6389
에다	-6390
였지	-6391
울뿐	-6392
위가	-6393
진창	-6394
행복	-6395
힘들	-6396
▁고문	-6397
▁공중	-6398
▁남의	-6399
▁났다	-6400
▁다녀	-6401
▁들이	-6402
▁버린	-6403
▁불과	-6404
▁승리	-6405
▁쓸쓸	-6406
▁우선	-6407
▁워낙	-6408
▁절정	-6409
더라고	-6410
뻔했다	-6411
점이나	-6412
좋네요	-6413
편에서	-6414
▁낫겠다	-6415
▁닥치고	-6416
▁똑같이	-6417
▁말인가	-6418
▁메세지	-6419
▁별점이	-6420
▁보게되	-6421
▁부분은	-6422
▁빠져서	-6423
▁상황을	-6424
▁손가락	-6425
▁이상은	-6426
▁이상해	-6427
▁키아누	-6428
▁필요가	-6429
▁한순간	-6430
▁가족영화	-6431
▁다시보기	-6432
▁드라마다	-6433
▁별로였다	-6434
▁소장하고	-6435
▁시리즈의	-6436
▁실망이다	-6437
▁어설프다	-6438
▁행복하게	-6439
▁디카프리오	-6440
▁잘만들었다	-6441
▁최악의영화	-6442
▁코미디영화	-6443
ig	-6444
▁삐	-6445
거의	-6446
결국	-6447
니가	-6448
더군	-6449
때가	-6450
바닥	-6451
비해	-6452
스톤	-6453
실히	-6454
인에	-6455
있냐	-6456
주제	-6457
태현	-6458
허무	-6459
회가	-6460
▁th	-6461
▁to	-6462
▁끝날	-6463
▁능가	-6464
▁담고	-6465
▁대결	-6466
▁대학	-6467
▁던져	-6468
▁드라	-6469
▁로망	-6470
▁밝혀	-6471
▁부정	-6472
▁소년	-6473
▁엽기	-6474
▁왠만	-6475
▁요리	-6476
▁우디	-6477
▁운명	-6478
▁이지	-6479
▁전화	-6480
▁좋지	-6481
▁지옥	-6482
▁질리	-6483
▁콜린	-6484
▁펼쳐	-6485
▁한가	-6486
리스트	-6487
옵니다	-6488
은영화	-6489
재밌어	-6490
크레딧	-6491
할수가	-6492
▁같았다	-6493
▁구성도	-6494
▁끝나서	-6495
▁누군지	-6496
▁데이빗	-6497
▁도데체	-6498
▁드네요	-6499
▁보는거	-6500
▁보는것	-6501
▁빠지는	-6502
▁신하균	-6503
▁아무튼	-6504
▁액션씬	-6505
▁있었고	-6506
▁했더니	-6507
것같네요	-6508
여주인공	-6509
하나하나	-6510
▁긴장감을	-6511
▁독특하고	-6512
▁돌아보게	-6513
▁바탕으로	-6514
▁세상에서	-6515
▁스타워즈	-6516
▁싶습니다	-6517
▁아까워서	-6518
▁연기하는	-6519
▁캐릭터들	-6520
▁한심하다	-6521
▁영화보다가	-6522
▁감동적이에요	-6523
▁재밌게봤어요	-6524
▁J	-6525
▁ᄅ	-6526
▁곤	-6527
▁젖	-6528
가장	-6529
감사	-6530
놈이	-6531
맘에	-6532
본게	-6533
성한	-6534
수선	-6535
어스	-6536
에로	-6537
여기	-6538
잔인	-6539
잡는	-6540
조현	-6541
트는	-6542
▁is	-6543
▁공유	-6544
▁끝을	-6545
▁마찬	-6546
▁먹칠	-6547
▁밑도	-6548
▁본격	-6549
▁부활	-6550
▁쉬운	-6551
▁오는	-6552
▁이승	-6553
▁재방	-6554
▁창피	-6555
갔는데	-6556
못하고	-6557
발연기	-6558
재밋게	-6559
졌으면	-6560
포인트	-6561
하기에	-6562
한테는	-6563
▁ᄒᄃᄃ	-6564
▁결국은	-6565
▁그림체	-6566
▁되돌아	-6567
▁멋있고	-6568
▁세월이	-6569
▁송강호	-6570
▁영화일	-6571
▁영화적	-6572
▁영화지	-6573
▁잘보고	-6574
▁잘생겼	-6575
▁현실은	-6576
▁귀여워요	-6577
▁답답하다	-6578
▁드라마로	-6579
▁드라마에	-6580
▁삼류영화	-6581
▁알파치노	-6582
▁언제까지	-6583
▁오래전에	-6584
▁이거보단	-6585
▁이야기의	-6586
▁지루함을	-6587
▁캐릭터도	-6588
▁캐릭터를	-6589
▁파워레인	-6590
애니메이션	-6591
ed	-6592
▁람	-6593
▁큐	-6594
관을	-6595
꺼야	-6596
롭게	-6597
분도	-6598
브리	-6599
상태	-6600
씨도	-6601
알고	-6602
원에	-6603
으러	-6604
으셨	-6605
이큰	-6606
종영	-6607
치면	-6608
표정	-6609
홧팅	-6610
희의	-6611
▁ᄌᄂ	-6612
▁공룡	-6613
▁드니	-6614
▁리암	-6615
▁말은	-6616
▁머릿	-6617
▁모아	-6618
▁뭐여	-6619
▁바이	-6620
▁베이	-6621
▁보려	-6622
▁비록	-6623
▁섬뜩	-6624
▁싸우	-6625
▁오지	-6626
▁원숭	-6627
▁지극	-6628
▁직업	-6629
▁한지	-6630
부터는	-6631
정도의	-6632
좋은데	-6633
치고는	-6634
하지말	-6635
▁2.2	-6636
▁;;;	-6637
▁bad	-6638
▁것인가	-6639
▁관심이	-6640
▁깔끔한	-6641
▁낮네요	-6642
▁만든거	-6643
▁만들수	-6644
▁못만들	-6645
▁보여줄	-6646
▁성룡의	-6647
▁시도는	-6648
▁에라이	-6649
▁역사상	-6650
▁유치해	-6651
▁의도는	-6652
▁이미지	-6653
▁첨이다	-6654
▁포인트	-6655
▁피아노	-6656
▁하다니	-6657
것같은데	-6658
▁드라마중	-6659
▁모든것이	-6660
▁안나온다	-6661
▁이영화의	-6662
▁최고라고	-6663
▁재미있었는데	-6664
????????	-6665
.-	-6666
am	-6667
▁u	-6668
▁덴	-6669
▁잉	-6670
광구	-6671
그저	-6672
녀석	-6673
덕에	-6674
렸던	-6675
마르	-6676
미를	-6677
비에	-6678
스텔	-6679
승우	-6680
안돼	-6681
어지	-6682
역을	-6683
오오	-6684
일은	-6685
자인	-6686
잔잔	-6687
제일	-6688
주행	-6689
충격	-6690
켓몬	-6691
..2	-6692
▁17	-6693
▁국어	-6694
▁권상	-6695
▁그가	-6696
▁글고	-6697
▁긴박	-6698
▁길을	-6699
▁때는	-6700
▁마냥	-6701
▁민족	-6702
▁브라	-6703
▁새삼	-6704
▁쏟아	-6705
▁엘리	-6706
▁연상	-6707
▁조낸	-6708
▁킬러	-6709
기위해	-6710
나오네	-6711
덩어리	-6712
리는데	-6713
영화제	-6714
재밌고	-6715
▁가장한	-6716
▁것들이	-6717
▁공포는	-6718
▁다시금	-6719
▁당신의	-6720
▁되는데	-6721
▁실망이	-6722
▁여자를	-6723
▁있으나	-6724
▁재밌었	-6725
▁제목에	-6726
▁페이크	-6727
▁한시간	-6728
▁했으나	-6729
드라마는	-6730
프로그램	-6731
▁나머지는	-6732
▁뭐하자는	-6733
▁살아있는	-6734
▁스필버그	-6735
▁어이없다	-6736
▁울었어요	-6737
▁캐스팅이	-6738
▁미스캐스팅	-6739
▁영화라지만	-6740
▁걷	-6741
▁숀	-6742
▁쾌	-6743
달라	-6744
도한	-6745
돌려	-6746
랑은	-6747
럽지	-6748
르네	-6749
마리	-6750
미의	-6751
미화	-6752
보러	-6753
사도	-6754
아들	-6755
장에	-6756
타쿠	-6757
하늘	-6758
▁건질	-6759
▁것만	-6760
▁괜찬	-6761
▁굳굳	-6762
▁마블	-6763
▁본질	-6764
▁불법	-6765
▁시켜	-6766
▁신은	-6767
▁억울	-6768
▁에드	-6769
▁이종	-6770
그나마	-6771
드네요	-6772
때부터	-6773
라지만	-6774
매이션	-6775
시청률	-6776
야한다	-6777
이었던	-6778
점대가	-6779
▁공포가	-6780
▁관객이	-6781
▁멋져요	-6782
▁모습에	-6783
▁미국식	-6784
▁생각만	-6785
▁설정은	-6786
▁섬세한	-6787
▁성인이	-6788
▁싶다면	-6789
▁아만다	-6790
▁아무나	-6791
▁역사에	-6792
▁오로지	-6793
▁우려먹	-6794
▁인간들	-6795
▁좋으나	-6796
▁풀어낸	-6797
▁고등학교	-6798
▁드라마도	-6799
▁아버지의	-6800
▁장난하나	-6801
▁지루하기	-6802
▁했습니다	-6803
▁환상적인	-6804
▁감동입니다	-6805
▁사랑스럽고	-6806
▁사랑스럽다	-6807
▁스토리전개	-6808
▁아이들에게	-6809
."	-6810
tv	-6811
▁년	-6812
▁덮	-6813
▁폼	-6814
▁핑	-6815
▁획	-6816
가위	-6817
구의	-6818
동근	-6819
사고	-6820
새록	-6821
시네	-6822
어쩌	-6823
었냐	-6824
은듯	-6825
조아	-6826
중국	-6827
진실	-6828
차피	-6829
천원	-6830
크로	-6831
티가	-6832
해져	-6833
▁가짜	-6834
▁걸까	-6835
▁글을	-6836
▁당장	-6837
▁데스	-6838
▁등록	-6839
▁민주	-6840
▁보구	-6841
▁숨막	-6842
▁시험	-6843
▁신고	-6844
▁신인	-6845
▁우는	-6846
▁위트	-6847
▁이쁨	-6848
▁인류	-6849
▁주온	-6850
▁지키	-6851
▁틀림	-6852
▁혼란	-6853
가면서	-6854
기영화	-6855
느낌이	-6856
돈주고	-6857
리면서	-6858
사람의	-6859
없는데	-6860
재미가	-6861
판타지	-6862
하자면	-6863
학년때	-6864
...!	-6865
▁그리워	-6866
▁기발한	-6867
▁남는게	-6868
▁낮은지	-6869
▁만드네	-6870
▁메시지	-6871
▁박보영	-6872
▁보아도	-6873
▁안맞는	-6874
▁역겹다	-6875
▁유치찬	-6876
▁음악은	-6877
▁제목은	-6878
▁조잡한	-6879
▁충분한	-6880
▁해야지	-6881
▁했을까	-6882
▁후하게	-6883
오랜만에	-6884
이런영화	-6885
▁모르겠네	-6886
▁배우들을	-6887
▁시리즈를	-6888
▁않습니다	-6889
▁어이없음	-6890
▁여러모로	-6891
▁잼있네요	-6892
▁충격적이	-6893
▁타란티노	-6894
▁강추합니다	-6895
▁오그라드는	-6896
▁점수준것들	-6897
.8	-6898
70	-6899
cg	-6900
tt	-6901
개념	-6902
데미	-6903
러스	-6904
로그	-6905
맞는	-6906
모양	-6907
부에	-6908
빼곤	-6909
시스	-6910
았나	-6911
어를	-6912
찬욱	-6913
트릭	-6914
펙트	-6915
▁극혐	-6916
▁납득	-6917
▁듣기	-6918
▁들게	-6919
▁때가	-6920
▁마다	-6921
▁마법	-6922
▁맞나	-6923
▁매번	-6924
▁별한	-6925
▁상대	-6926
▁상태	-6927
▁에서	-6928
▁연관	-6929
▁음향	-6930
▁자아	-6931
▁진수	-6932
▁짜리	-6933
▁쩔어	-6934
▁커버	-6935
▁흉내	-6936
던데요	-6937
아이가	-6938
없었다	-6939
웠는데	-6940
인영화	-6941
하나요	-6942
...(	-6943
0000	-6944
▁가족애	-6945
▁가족을	-6946
▁그럴듯	-6947
▁그려낸	-6948
▁기대한	-6949
▁다이하	-6950
▁무의미	-6951
▁박진감	-6952
▁빨갱이	-6953
▁생각은	-6954
▁슈퍼맨	-6955
▁심하다	-6956
▁아이디	-6957
▁안나옴	-6958
▁어디에	-6959
▁오리지	-6960
▁왕조현	-6961
▁웃겨서	-6962
▁웃었다	-6963
▁이라는	-6964
▁이하도	-6965
▁정신이	-6966
▁표현이	-6967
▁한다고	-6968
이라는게	-6969
▁뛰어넘는	-6970
▁쓰레기를	-6971
▁아니라면	-6972
▁제대로된	-6973
▁좀비영화	-6974
▁캐릭터는	-6975
▁.....	-6976
▁소름끼치는	-6977
▁재미없네요	-6978
▁주인공들이	-6979
.!	-6980
.6	-6981
50	-6982
bc	-6983
▁락	-6984
▁옮	-6985
▁옴	-6986
▁힙	-6987
★☆	-6988
가며	-6989
각본	-6990
공주	-6991
극을	-6992
릴때	-6993
만듬	-6994
믿고	-6995
방식	-6996
살때	-6997
스레	-6998
시지	-6999
아리	-7000
워드	-7001
이미	-7002
자도	-7003
코드	-7004
▁간지	-7005
▁감이	-7006
▁극중	-7007
▁나고	-7008
▁마녀	-7009
▁만났	-7010
▁말해	-7011
▁멋짐	-7012
▁보석	-7013
▁봤나	-7014
▁소소	-7015
▁소유	-7016
▁수는	-7017
▁숨은	-7018
▁앞서	-7019
▁어딘	-7020
▁어땠	-7021
▁열라	-7022
▁올레	-7023
▁웃을	-7024
▁일을	-7025
▁작화	-7026
▁잡아	-7027
▁준비	-7028
▁찬양	-7029
▁캐릭	-7030
▁태국	-7031
▁핸드	-7032
그런데	-7033
들만의	-7034
시키고	-7035
시키지	-7036
얼마나	-7037
편까지	-7038
하시길	-7039
하하하	-7040
▁감성을	-7041
▁거기서	-7042
▁난해한	-7043
▁남자는	-7044
▁넘어서	-7045
▁떨어뜨	-7046
▁바라는	-7047
▁시간도	-7048
▁영상은	-7049
▁원하는	-7050
▁인상적	-7051
▁일주일	-7052
▁전개에	-7053
▁줄이야	-7054
▁지극히	-7055
▁표현할	-7056
▁하지마	-7057
스러웠다	-7058
있었는데	-7059
▁2015	-7060
▁대박이다	-7061
▁마찬가지	-7062
▁미안하다	-7063
▁분위기는	-7064
▁아쉬워요	-7065
▁엉망진창	-7066
▁재미없을	-7067
▁억지스럽고	-7068
▁자연스럽게	-7069
▁말이필요없다	-7070
▁뻥	-7071
▁앙	-7072
▁얄	-7073
▁찜	-7074
내지	-7075
동이	-7076
드먼	-7077
망작	-7078
물에	-7079
배는	-7080
수로	-7081
스란	-7082
스카	-7083
스턴	-7084
승헌	-7085
장은	-7086
저것	-7087
저런	-7088
주지	-7089
팬이	-7090
형이	-7091
ost	-7092
▁거듭	-7093
▁고양	-7094
▁낭만	-7095
▁놀래	-7096
▁떡밥	-7097
▁레옹	-7098
▁마니	-7099
▁마리	-7100
▁멋져	-7101
▁모니	-7102
▁미션	-7103
▁미학	-7104
▁본것	-7105
▁빠순	-7106
▁선정	-7107
▁실사	-7108
▁안좋	-7109
▁오직	-7110
▁오해	-7111
▁온갖	-7112
▁월드	-7113
▁있긴	-7114
▁재앙	-7115
▁짬뽕	-7116
모르게	-7117
셨으면	-7118
주는데	-7119
크루즈	-7120
평점은	-7121
하기가	-7122
..!!	-7123
▁괜찮았	-7124
▁뒤늦게	-7125
▁명성에	-7126
▁뭐랄까	-7127
▁벗어나	-7128
▁세련된	-7129
▁안무섭	-7130
▁안보는	-7131
▁안봐서	-7132
▁액션만	-7133
▁여기에	-7134
▁영화란	-7135
▁웃음을	-7136
▁의미도	-7137
▁하기엔	-7138
▁한석규	-7139
너무너무	-7140
재미없어	-7141
▁개인적인	-7142
▁고등학생	-7143
▁니콜라스	-7144
▁못하겠다	-7145
▁별로네요	-7146
▁보지마셈	-7147
▁스토리로	-7148
▁아기자기	-7149
▁알려주는	-7150
▁이거보다	-7151
▁이상하다	-7152
▁있겠지만	-7153
▁필요한가	-7154
▁보고싶은데	-7155
▁보고있는데	-7156
▁스파이더맨	-7157
▁이런식으로	-7158
▁ᄂ	-7159
▁닿	-7160
▁둔	-7161
▁뚜	-7162
▁찐	-7163
가야	-7164
개의	-7165
급도	-7166
내서	-7167
력에	-7168
멤버	-7169
명한	-7170
병맛	-7171
본색	-7172
비추	-7173
아의	-7174
약한	-7175
어떤	-7176
옛날	-7177
오고	-7178
요한	-7179
저나	-7180
찾아	-7181
판을	-7182
▁나열	-7183
▁남성	-7184
▁높지	-7185
▁늙은	-7186
▁니가	-7187
▁도와	-7188
▁말아	-7189
▁맞추	-7190
▁모방	-7191
▁비정	-7192
▁설경	-7193
▁성의	-7194
▁없던	-7195
▁완젼	-7196
▁의상	-7197
▁의해	-7198
▁이탈	-7199
▁있냐	-7200
▁전도	-7201
▁찍는	-7202
▁코스	-7203
▁클리	-7204
▁한거	-7205
▁허나	-7206
▁호흡	-7207
것같음	-7208
고싶다	-7209
나라는	-7210
달라고	-7211
마저도	-7212
보려고	-7213
분짜리	-7214
엇어요	-7215
에다가	-7216
정도는	-7217
회부터	-7218
very	-7219
▁거기다	-7220
▁극장에	-7221
▁나왔던	-7222
▁느껴지	-7223
▁들어서	-7224
▁비쥬얼	-7225
▁상처를	-7226
▁아바타	-7227
▁아이를	-7228
▁아이유	-7229
▁안보면	-7230
▁연기만	-7231
▁진실을	-7232
▁해준다	-7233
▁했는지	-7234
▁했어요	-7235
더라고요	-7236
만큼이나	-7237
하는것도	-7238
할수있는	-7239
▁감동이다	-7240
▁두고두고	-7241
▁메세지를	-7242
▁몰입도도	-7243
▁슬픈영화	-7244
▁어울리지	-7245
▁연기자들	-7246
▁이것보다	-7247
▁정신병자	-7248
아까운영화	-7249
▁엔딩크레딧	-7250
BC	-7251
▁닭	-7252
▁석	-7253
▁측	-7254
계를	-7255
고한	-7256
께서	-7257
니스	-7258
렸음	-7259
베이	-7260
예쁘	-7261
원을	-7262
으려	-7263
자꾸	-7264
저냥	-7265
진행	-7266
플린	-7267
!!♥	-7268
ᄃᄃᄃ	-7269
▁공연	-7270
▁되면	-7271
▁모양	-7272
▁반응	-7273
▁불가	-7274
▁새록	-7275
▁소개	-7276
▁스토	-7277
▁이나	-7278
▁재수	-7279
▁적은	-7280
▁적이	-7281
▁정사	-7282
▁조지	-7283
▁죽이	-7284
▁쩌는	-7285
▁차승	-7286
▁한효	-7287
나가는	-7288
다는건	-7289
라는걸	-7290
스포머	-7291
인지는	-7292
입니까	-7293
장면도	-7294
하길래	-7295
▁개꿀잼	-7296
▁게스트	-7297
▁그런거	-7298
▁그럴싸	-7299
▁김수현	-7300
▁나와야	-7301
▁대사와	-7302
▁못해서	-7303
▁무서움	-7304
▁문제를	-7305
▁브래드	-7306
▁않아요	-7307
▁이딴게	-7308
▁이해도	-7309
▁적나라	-7310
▁좋더라	-7311
▁추억을	-7312
▁한동안	-7313
▁!!!!	-7314
▁가슴아프	-7315
▁마지막은	-7316
▁보게되는	-7317
▁아니었다	-7318
▁어설프게	-7319
▁재난영화	-7320
▁최고에요	-7321
▁movie	-7322
▁여주인공의	-7323
▁주인공들의	-7324
............	-7325
!~	-7326
▁ᄊ	-7327
▁똘	-7328
▁쉴	-7329
▁족	-7330
▁컷	-7331
결혼	-7332
경을	-7333
구를	-7334
궁금	-7335
극의	-7336
낫다	-7337
녀의	-7338
론의	-7339
미도	-7340
미친	-7341
신기	-7342
였을	-7343
인걸	-7344
잘못	-7345
잘생	-7346
즈가	-7347
지섭	-7348
치다	-7349
통수	-7350
혜선	-7351
▁가만	-7352
▁각각	-7353
▁나면	-7354
▁니네	-7355
▁도시	-7356
▁돼지	-7357
▁매주	-7358
▁모른	-7359
▁문득	-7360
▁미쳐	-7361
▁박평	-7362
▁봤고	-7363
▁블루	-7364
▁사과	-7365
▁삶은	-7366
▁성형	-7367
▁소품	-7368
▁시골	-7369
▁시체	-7370
▁아카	-7371
▁엉뚱	-7372
▁여신	-7373
▁올드	-7374
▁와서	-7375
▁우린	-7376
▁음모	-7377
▁저지	-7378
▁참여	-7379
라에몽	-7380
에대해	-7381
으면좋	-7382
이후로	-7383
재밋다	-7384
중간에	-7385
하고도	-7386
하기는	-7387
▁군더더	-7388
▁더욱더	-7389
▁명연기	-7390
▁보이고	-7391
▁시대가	-7392
▁심리묘	-7393
▁얘기를	-7394
▁연기의	-7395
▁원주율	-7396
▁음악을	-7397
▁이것은	-7398
▁이끌어	-7399
▁있었음	-7400
▁전라도	-7401
▁죽음을	-7402
▁짱이다	-7403
▁첨으로	-7404
▁하나가	-7405
▁하나는	-7406
▁하세요	-7407
▁하하하	-7408
보지마라	-7409
줄알았다	-7410
▁기대했던	-7411
▁나오네요	-7412
▁너무하네	-7413
▁런닝타임	-7414
▁시리즈가	-7415
▁심각하게	-7416
▁영화같다	-7417
▁인물들의	-7418
▁입장에서	-7419
▁처음본다	-7420
▁처음이네	-7421
▁호불호가	-7422
▁흥미롭게	-7423
▁재밌었습니다	-7424
vs	-7425
▁셋	-7426
▁웹	-7427
▁짙	-7428
감한	-7429
남을	-7430
누가	-7431
다들	-7432
더욱	-7433
되요	-7434
두번	-7435
땜시	-7436
렸네	-7437
맞고	-7438
보던	-7439
스틴	-7440
알아	-7441
어른	-7442
좀비	-7443
증을	-7444
쾌한	-7445
편과	-7446
~10	-7447
▁강요	-7448
▁공허	-7449
▁구조	-7450
▁그로	-7451
▁깜놀	-7452
▁날아	-7453
▁넘쳐	-7454
▁농담	-7455
▁누나	-7456
▁되서	-7457
▁레오	-7458
▁머야	-7459
▁미술	-7460
▁상큼	-7461
▁생명	-7462
▁손꼽	-7463
▁심사	-7464
▁아팠	-7465
▁역작	-7466
▁열광	-7467
▁옆에	-7468
▁외면	-7469
▁욕이	-7470
▁우왕	-7471
▁입장	-7472
▁좋앗	-7473
▁죽어	-7474
▁지경	-7475
▁지독	-7476
▁천국	-7477
▁커서	-7478
▁했나	-7479
사람을	-7480
아깝고	-7481
원에서	-7482
있을까	-7483
지라도	-7484
창시절	-7485
해가는	-7486
▁가치도	-7487
▁같지만	-7488
▁그이상	-7489
▁남기는	-7490
▁느껴질	-7491
▁들어간	-7492
▁밋밋한	-7493
▁박찬욱	-7494
▁보겠다	-7495
▁사람과	-7496
▁사회적	-7497
▁송승헌	-7498
▁아놀드	-7499
▁알바가	-7500
▁액션의	-7501
▁없어도	-7502
▁책으로	-7503
▁초반엔	-7504
▁OOOO	-7505
▁괜찮았던	-7506
▁기억난다	-7507
▁긴장감과	-7508
▁긴장감은	-7509
▁돈아까워	-7510
▁보고나니	-7511
▁스토리나	-7512
▁싫어하는	-7513
▁싶었는데	-7514
▁쓰레기는	-7515
▁영상미와	-7516
▁완벽하게	-7517
▁완벽하다	-7518
▁인생에서	-7519
줄알았는데	-7520
▁영화였는데	-7521
▁킬링타임용으로도	-7522
_^	-7523
id	-7524
im	-7525
▁꽉	-7526
▁뺏	-7527
▁쌓	-7528
깊은	-7529
놈의	-7530
래요	-7531
랬다	-7532
리즘	-7533
물은	-7534
버튼	-7535
센스	-7536
심한	-7537
연의	-7538
외로	-7539
일에	-7540
전은	-7541
▁것들	-7542
▁국산	-7543
▁그는	-7544
▁러셀	-7545
▁멘탈	-7546
▁몰아	-7547
▁미야	-7548
▁방향	-7549
▁상어	-7550
▁스펙	-7551
▁아아	-7552
▁오유	-7553
▁욕을	-7554
▁재탕	-7555
▁저러	-7556
▁졸잼	-7557
▁지가	-7558
▁팝콘	-7559
▁패션	-7560
▁피식	-7561
▁한줄	-7562
부분은	-7563
안에서	-7564
여배우	-7565
점준것	-7566
▁감성이	-7567
▁과정이	-7568
▁귀신이	-7569
▁기가막	-7570
▁나올까	-7571
▁눈으로	-7572
▁니들이	-7573
▁못하네	-7574
▁미스테	-7575
▁뻔하다	-7576
▁소리만	-7577
▁시간은	-7578
▁아련한	-7579
▁안좋은	-7580
▁알바생	-7581
▁어수선	-7582
▁역사적	-7583
▁장난치	-7584
▁장르를	-7585
▁처음이	-7586
▁티비로	-7587
▁편하게	-7588
▁포켓몬	-7589
드라마를	-7590
생각으로	-7591
▁그냥저냥	-7592
▁느껴지지	-7593
▁만들어주	-7594
▁아버지가	-7595
▁억지스런	-7596
▁여배우가	-7597
▁영화들이	-7598
▁영화인것	-7599
▁오랫동안	-7600
▁주고싶다	-7601
▁최고인듯	-7602
▁충분하다	-7603
▁캐스팅은	-7604
▁크리스찬	-7605
▁후반부로	-7606
▁힘들었다	-7607
▁뻔한스토리	-7608
▁애니매이션	-7609
▁있었습니다	-7610
▁로맨틱코미디	-7611
!?	-7612
il	-7613
▁쏠	-7614
▁짤	-7615
거에	-7616
다리	-7617
답다	-7618
대기	-7619
데렐	-7620
돈이	-7621
돌이	-7622
등장	-7623
리쉬	-7624
버츠	-7625
봤지	-7626
순수	-7627
않고	-7628
암튼	-7629
여도	-7630
여러	-7631
영은	-7632
치만	-7633
트라	-7634
프리	-7635
하의	-7636
혜교	-7637
희는	-7638
▁25	-7639
▁극본	-7640
▁껐다	-7641
▁끝남	-7642
▁나을	-7643
▁다름	-7644
▁로멘	-7645
▁막상	-7646
▁머냐	-7647
▁면이	-7648
▁비참	-7649
▁생존	-7650
▁속이	-7651
▁쉽지	-7652
▁신이	-7653
▁쓰러	-7654
▁역겹	-7655
▁자리	-7656
▁잼나	-7657
▁절반	-7658
▁줘도	-7659
▁채워	-7660
▁처절	-7661
▁초월	-7662
▁치료	-7663
▁파고	-7664
▁편의	-7665
것보다	-7666
것인가	-7667
넘치는	-7668
덕분에	-7669
였구나	-7670
였네요	-7671
있다면	-7672
죽이고	-7673
줘야지	-7674
지부지	-7675
할수도	-7676
했다가	-7677
▁꼭봐야	-7678
▁노래는	-7679
▁높은지	-7680
▁느낀다	-7681
▁느낌도	-7682
▁대학생	-7683
▁문제는	-7684
▁반지의	-7685
▁보고난	-7686
▁비해서	-7687
▁살아야	-7688
▁상황이	-7689
▁심장이	-7690
▁안가는	-7691
▁영화평	-7692
▁웃겼다	-7693
▁있는가	-7694
▁장면만	-7695
▁정주행	-7696
▁주세요	-7697
▁찬사를	-7698
▁통해서	-7699
▁편인데	-7700
▁평점왜	-7701
보고싶은	-7702
하지말고	-7703
한마디로	-7704
...;;	-7705
▁감독에게	-7706
▁걸작이다	-7707
▁만들었냐	-7708
▁몰입하게	-7709
▁빠져들게	-7710
▁쓰레기네	-7711
▁영상미도	-7712
▁웬만하면	-7713
▁의미있는	-7714
▁이영화에	-7715
▁정말정말	-7716
▁진부하다	-7717
▁후반부에	-7718
▁아직까지도	-7719
▁이렇게까지	-7720
ᄏᄏᄏᄏᄏᄏᄏᄏᄏ	-7721
40	-7722
ᅮᅲ	-7723
▁ᄍ	-7724
▁롤	-7725
▁찔	-7726
▁훔	-7727
겟네	-7728
군이	-7729
니의	-7730
닝맨	-7731
동화	-7732
뒤에	-7733
듣고	-7734
디가	-7735
러움	-7736
롭다	-7737
면을	-7738
미안	-7739
보소	-7740
상과	-7741
시켰	-7742
시킬	-7743
실패	-7744
원도	-7745
위를	-7746
이었	-7747
저기	-7748
절로	-7749
한편	-7750
혀서	-7751
호러	-7752
▁갖게	-7753
▁갖춘	-7754
▁기법	-7755
▁김명	-7756
▁깨끗	-7757
▁된장	-7758
▁모독	-7759
▁박시	-7760
▁본능	-7761
▁색채	-7762
▁싶음	-7763
▁아메	-7764
▁안겨	-7765
▁안다	-7766
▁예뻤	-7767
▁웃는	-7768
▁적극	-7769
▁제왕	-7770
▁조아	-7771
▁중의	-7772
▁커녕	-7773
▁클로	-7774
▁피곤	-7775
▁하니	-7776
▁할때	-7777
▁해요	-7778
▁황금	-7779
것같아	-7780
결말이	-7781
그래픽	-7782
깁니다	-7783
마음이	-7784
소리는	-7785
신분들	-7786
없지만	-7787
여자가	-7788
이들의	-7789
지루해	-7790
▁가족과	-7791
▁다니엘	-7792
▁도움이	-7793
▁비행기	-7794
▁사랑도	-7795
▁사회의	-7796
▁시대적	-7797
▁아이고	-7798
▁어차피	-7799
▁연기로	-7800
▁웃다가	-7801
▁작품에	-7802
▁총체적	-7803
▁크레딧	-7804
▁현실에	-7805
스토리는	-7806
아름다운	-7807
주인공이	-7808
▁가슴아픈	-7809
▁기대된다	-7810
▁만든건지	-7811
▁볼만한데	-7812
▁안나오는	-7813
▁여자들이	-7814
▁완성도가	-7815
▁이기적인	-7816
▁이따위로	-7817
▁이어지는	-7818
▁재밋네요	-7819
▁하고싶은	-7820
▁아깝습니다	-7821
▁좋아하시는	-7822
▁클레멘타인	-7823
▁현실적으로	-7824
▁감동적이었다	-7825
▁감동적입니다	-7826
34	-7827
cn	-7828
▁U	-7829
▁벽	-7830
▁숲	-7831
▁퀴	-7832
개연	-7833
거워	-7834
겠고	-7835
구역	-7836
기술	-7837
누구	-7838
드립	-7839
멋진	-7840
면이	-7841
받아	-7842
비아	-7843
수작	-7844
운데	-7845
이뻐	-7846
인해	-7847
저는	-7848
제를	-7849
줘도	-7850
진호	-7851
치기	-7852
케팅	-7853
하리	-7854
한텐	-7855
할순	-7856
흥미	-7857
~~!	-7858
▁거야	-7859
▁것과	-7860
▁고작	-7861
▁귀찮	-7862
▁나아	-7863
▁됐다	-7864
▁되나	-7865
▁딸이	-7866
▁만날	-7867
▁많네	-7868
▁모순	-7869
▁물어	-7870
▁번역	-7871
▁브로	-7872
▁빠질	-7873
▁센스	-7874
▁수십	-7875
▁신화	-7876
▁안감	-7877
▁안봄	-7878
▁욕심	-7879
▁인권	-7880
▁장소	-7881
▁조기	-7882
▁텐데	-7883
▁한정	-7884
것들이	-7885
것처럼	-7886
게다가	-7887
나저나	-7888
는거냐	-7889
러티브	-7890
보인다	-7891
손가락	-7892
아닌데	-7893
안된다	-7894
지말자	-7895
지않게	-7896
지않아	-7897
ᅮᅮᅮᅮ	-7898
▁관심을	-7899
▁당시엔	-7900
▁돈으로	-7901
▁레이첼	-7902
▁만들기	-7903
▁말았다	-7904
▁매력적	-7905
▁바란다	-7906
▁받아야	-7907
▁보지도	-7908
▁봤는지	-7909
▁상당한	-7910
▁소리가	-7911
▁아빠가	-7912
▁애니를	-7913
▁엑스맨	-7914
▁연기한	-7915
▁영향을	-7916
▁왕가위	-7917
▁윌리스	-7918
▁이루어	-7919
▁재밋고	-7920
▁재방송	-7921
▁주연의	-7922
▁차태현	-7923
▁첫번째	-7924
▁취향이	-7925
▁테이큰	-7926
▁하지말	-7927
▁흉내내	-7928
모르겠다	-7929
▁동화같은	-7930
▁마무리가	-7931
▁멋진영화	-7932
▁바라보는	-7933
▁부족하고	-7934
▁불쌍해서	-7935
▁비교하면	-7936
▁영웅본색	-7937
▁인생영화	-7938
▁일본에서	-7939
▁전편보다	-7940
▁지금보면	-7941
▁캐스팅도	-7942
▁평론가들	-7943
▁학창시절	-7944
보지마세요	-7945
하겠습니다	-7946
▁드라마라고	-7947
▁시간때우기	-7948
▁오글거리고	-7949
▁인간적으로	-7950
!!!!!!!	-7951
->	-7952
et	-7953
▁밴	-7954
▁썸	-7955
가게	-7956
년간	-7957
놈은	-7958
누라	-7959
뜨고	-7960
못함	-7961
복수	-7962
봣다	-7963
신선	-7964
아냐	-7965
앞에	-7966
작은	-7967
천재	-7968
할것	-7969
▁ᅲᅮ	-7970
▁가깝	-7971
▁간단	-7972
▁감수	-7973
▁경악	-7974
▁구경	-7975
▁기적	-7976
▁남긴	-7977
▁놈들	-7978
▁눈요	-7979
▁대부	-7980
▁동감	-7981
▁듣는	-7982
▁마틴	-7983
▁맞다	-7984
▁멀쩡	-7985
▁발음	-7986
▁방황	-7987
▁배려	-7988
▁백인	-7989
▁생기	-7990
▁신세	-7991
▁여유	-7992
▁연습	-7993
▁연인	-7994
▁오인	-7995
▁완죤	-7996
▁유승	-7997
▁이순	-7998
▁이중	-7999
▁재치	-8000
▁정석	-8001
▁졸리	-8002
▁죽인	-8003
▁지저	-8004
▁지하	-8005
▁차별	-8006
▁추가	-8007
▁하긴	-8008
▁한글	-8009
▁한쿡	-8010
▁홧팅	-8011
▁힙합	-8012
나보다	-8013
보기엔	-8014
분정도	-8015
시대의	-8016
십니다	-8017
안되고	-8018
지않음	-8019
짜증나	-8020
판으로	-8021
▁결국엔	-8022
▁공포도	-8023
▁과장된	-8024
▁관람객	-8025
▁국어책	-8026
▁그들을	-8027
▁나와도	-8028
▁내취향	-8029
▁명작임	-8030
▁무간도	-8031
▁믿기지	-8032
▁보고도	-8033
▁심오한	-8034
▁안되네	-8035
▁약하다	-8036
▁어디가	-8037
▁엄정화	-8038
▁영화랑	-8039
▁유치원	-8040
▁있어도	-8041
▁자체도	-8042
▁전율이	-8043
▁중학교	-8044
▁최악이	-8045
▁편견을	-8046
▁화끈한	-8047
없습니다	-8048
왔습니다	-8049
재미있다	-8050
점주기도	-8051
지루하다	-8052
킬링타임	-8053
하고싶은	-8054
▁감독님의	-8055
▁만화영화	-8056
▁메세지가	-8057
▁미친듯이	-8058
▁사람에게	-8059
▁사랑한다	-8060
▁아이언맨	-8061
▁야하지도	-8062
▁연기력과	-8063
▁오글거리	-8064
▁이야기도	-8065
▁이야기에	-8066
▁잊지못할	-8067
▁지루함의	-8068
점도아깝다	-8069
최고의영화	-8070
▁러닝타임이	-8071
▁명작이라고	-8072
▁자연스러운	-8073
▁트랜스포머	-8074
▁현실적이고	-8075
.(	-8076
▁넓	-8077
▁닌	-8078
▁롱	-8079
▁맑	-8080
▁헉	-8081
같네	-8082
거는	-8083
격이	-8084
공부	-8085
구는	-8086
기나	-8087
동을	-8088
들린	-8089
명은	-8090
명화	-8091
문을	-8092
부한	-8093
사라	-8094
왔던	-8095
을지	-8096
자식	-8097
자키	-8098
지원	-8099
철학	-8100
폭력	-8101
할뻔	-8102
현준	-8103
ove	-8104
▁개잼	-8105
▁거다	-8106
▁건강	-8107
▁걸로	-8108
▁고질	-8109
▁그를	-8110
▁김윤	-8111
▁끝은	-8112
▁낚인	-8113
▁남고	-8114
▁넘치	-8115
▁눈치	-8116
▁니들	-8117
▁되야	-8118
▁따듯	-8119
▁때도	-8120
▁뚝뚝	-8121
▁목적	-8122
▁반갑	-8123
▁배드	-8124
▁색깔	-8125
▁서스	-8126
▁쏘우	-8127
▁애가	-8128
▁없애	-8129
▁욕만	-8130
▁용기	-8131
▁위안	-8132
▁의사	-8133
▁장혁	-8134
▁찾기	-8135
▁최대	-8136
▁커피	-8137
▁컬트	-8138
▁쿵푸	-8139
▁팍팍	-8140
▁하드	-8141
▁해외	-8142
▁허탈	-8143
▁화질	-8144
▁흘렀	-8145
▁흥분	-8146
감동도	-8147
기보단	-8148
내용을	-8149
년동안	-8150
로맨스	-8151
방에서	-8152
보시길	-8153
샌들러	-8154
씩이나	-8155
자들은	-8156
하더니	-8157
▁가까이	-8158
▁기대안	-8159
▁나왔음	-8160
▁내시간	-8161
▁대사는	-8162
▁되어야	-8163
▁만화를	-8164
▁명배우	-8165
▁못했던	-8166
▁미래를	-8167
▁받았다	-8168
▁버렸다	-8169
▁범인이	-8170
▁설명이	-8171
▁세상의	-8172
▁시간과	-8173
▁알수있	-8174
▁애들도	-8175
▁연출을	-8176
▁예뻐서	-8177
▁우울한	-8178
▁일어나	-8179
▁임창정	-8180
▁작가는	-8181
▁재미만	-8182
▁잼없다	-8183
▁전부다	-8184
▁지나친	-8185
▁최악임	-8186
▁클리셰	-8187
▁타이틀	-8188
▁터지는	-8189
▁평점도	-8190
▁하지원	-8191
영화였다	-8192
▁2.22	-8193
▁~~~~	-8194
▁떠오르는	-8195
▁영화감독	-8196
▁우리에게	-8197
▁유치찬란	-8198
▁잘하네요	-8199
▁지금이나	-8200
▁해주세요	-8201
▁허접하고	-8202
하셨습니다	-8203
▁공포영화가	-8204
▁만들었으면	-8205
▁재미없었음	-8206
.?	-8207
:)	-8208
na	-8209
▁곡	-8210
▁콤	-8211
▁톱	-8212
▁핀	-8213
거죠	-8214
귀신	-8215
년을	-8216
노출	-8217
님을	-8218
달아	-8219
더스	-8220
데요	-8221
래셔	-8222
말까	-8223
보며	-8224
봤네	-8225
부모	-8226
뽕짝	-8227
사극	-8228
써요	-8229
어설	-8230
에휴	-8231
장센	-8232
줘요	-8233
지환	-8234
진의	-8235
짓을	-8236
차이	-8237
한가	-8238
..;	-8239
▁1~	-8240
▁가난	-8241
▁가야	-8242
▁고소	-8243
▁관대	-8244
▁그외	-8245
▁나비	-8246
▁날려	-8247
▁남친	-8248
▁넘는	-8249
▁놓은	-8250
▁더럽	-8251
▁돈벌	-8252
▁드물	-8253
▁로마	-8254
▁망설	-8255
▁못주	-8256
▁무대	-8257
▁미니	-8258
▁믿기	-8259
▁버무	-8260
▁앉아	-8261
▁오페	-8262
▁유익	-8263
▁의한	-8264
▁이란	-8265
▁이뻤	-8266
▁이전	-8267
▁인가	-8268
▁일찍	-8269
▁주관	-8270
▁지지	-8271
▁픽션	-8272
▁하셨	-8273
▁한예	-8274
갑자기	-8275
니버스	-8276
다는것	-8277
볼수록	-8278
새끼들	-8279
시네요	-8280
이해가	-8281
재밋음	-8282
****	-8283
▁강하게	-8284
▁굿굿굿	-8285
▁김희선	-8286
▁나머진	-8287
▁나올때	-8288
▁되어서	-8289
▁드림웍	-8290
▁말밖에	-8291
▁믿을게	-8292
▁베드신	-8293
▁불쌍해	-8294
▁빈약한	-8295
▁빠지게	-8296
▁사투리	-8297
▁손색이	-8298
▁신세계	-8299
▁어중간	-8300
▁언젠가	-8301
▁엔딩은	-8302
▁웃긴다	-8303
▁의도를	-8304
▁일본이	-8305
▁일본인	-8306
▁잼나요	-8307
▁점에서	-8308
감동적이	-8309
재밋어요	-8310
하고싶다	-8311
▁겨울왕국	-8312
▁드래곤볼	-8313
▁보는동안	-8314
▁새록새록	-8315
▁슬프네요	-8316
▁아마추어	-8317
▁안나오고	-8318
▁없었는데	-8319
▁여배우의	-8320
▁영화같은	-8321
▁이따구로	-8322
▁이런것도	-8323
▁이탈리아	-8324
▁인상깊게	-8325
▁잔인하고	-8326
▁재미나게	-8327
▁진행되는	-8328
▁초반에는	-8329
▁흐지부지	-8330
▁감동도없고	-8331
▁다시봤는데	-8332
▁되었습니다	-8333
▁매력적이다	-8334
▁시나리오도	-8335
▁아름다웠다	-8336
▁재밌게봤는데	-8337
;;;;;;;;	-8338
13	-8339
ᄉᄇ	-8340
▁껏	-8341
▁즉	-8342
간이	-8343
감에	-8344
괴담	-8345
구먼	-8346
끄는	-8347
랄한	-8348
번도	-8349
별루	-8350
상도	-8351
숙한	-8352
스코	-8353
시를	-8354
실화	-8355
일단	-8356
임이	-8357
자에	-8358
주를	-8359
타는	-8360
판에	-8361
평생	-8362
화면	-8363
힘든	-8364
▁거장	-8365
▁교회	-8366
▁그에	-8367
▁기록	-8368
▁꺼져	-8369
▁꿈과	-8370
▁끝판	-8371
▁내고	-8372
▁너희	-8373
▁노골	-8374
▁따스	-8375
▁때의	-8376
▁람보	-8377
▁많음	-8378
▁무색	-8379
▁박정	-8380
▁반감	-8381
▁배울	-8382
▁성찰	-8383
▁쓰나	-8384
▁얻어	-8385
▁우롱	-8386
▁우승	-8387
▁으로	-8388
▁의지	-8389
▁일관	-8390
▁점은	-8391
▁종합	-8392
▁죽일	-8393
▁지는	-8394
▁평론	-8395
▁포함	-8396
▁학살	-8397
▁한대	-8398
같네요	-8399
너무잘	-8400
눈물이	-8401
더럽게	-8402
들어서	-8403
리지만	-8404
사람도	-8405
스란히	-8406
스러울	-8407
스트라	-8408
이들이	-8409
이란게	-8410
▁기대에	-8411
▁기억을	-8412
▁끝난다	-8413
▁노래를	-8414
▁달리는	-8415
▁더러워	-8416
▁면에서	-8417
▁배우와	-8418
▁별하나	-8419
▁복잡한	-8420
▁살렸다	-8421
▁손예진	-8422
▁아이와	-8423
▁않아도	-8424
▁않으면	-8425
▁알려준	-8426
▁앞에서	-8427
▁어설퍼	-8428
▁없는듯	-8429
▁없으니	-8430
▁영화볼	-8431
▁왔는데	-8432
▁원작과	-8433
▁윌리엄	-8434
▁이딴거	-8435
▁이정재	-8436
▁장동건	-8437
▁전지현	-8438
▁정우성	-8439
▁특이한	-8440
▁한계를	-8441
▁한번씩	-8442
할수없는	-8443
▁감동적임	-8444
▁귀여워서	-8445
▁당시에는	-8446
▁도라에몽	-8447
▁말하려는	-8448
▁분위기를	-8449
▁상상력이	-8450
▁생각했던	-8451
▁소피마르	-8452
▁아이들은	-8453
▁영화제목	-8454
▁오글거림	-8455
▁의미없는	-8456
▁이것저것	-8457
▁좋아하고	-8458
▁지루했음	-8459
▁캐릭터의	-8460
▁코미디는	-8461
▁고맙습니다	-8462
▁다세포소녀	-8463
▁다크나이트	-8464
▁보고싶네요	-8465
▁영화자체는	-8466
▁우리나라의	-8467
▁좋아하네요	-8468
▁ᄏᄏᄏᄏᄏᄏᄏᄏᄏ	-8469
14	-8470
▁숭	-8471
▁싹	-8472
▁쏴	-8473
▁탱	-8474
건강	-8475
겨운	-8476
구리	-8477
남주	-8478
놀이	-8479
될듯	-8480
두사	-8481
라곤	-8482
마가	-8483
맞추	-8484
밑에	-8485
봤을	-8486
삼류	-8487
성룡	-8488
속을	-8489
수정	-8490
실력	-8491
전달	-8492
졌네	-8493
조한	-8494
지르	-8495
크가	-8496
평을	-8497
평이	-8498
할줄	-8499
해본	-8500
해줄	-8501
▁가라	-8502
▁가을	-8503
▁김선	-8504
▁나빠	-8505
▁단역	-8506
▁대역	-8507
▁들지	-8508
▁멀리	-8509
▁멈추	-8510
▁반도	-8511
▁받았	-8512
▁베트	-8513
▁봤지	-8514
▁살리	-8515
▁상실	-8516
▁성적	-8517
▁솔까	-8518
▁심한	-8519
▁예산	-8520
▁유혹	-8521
▁이를	-8522
▁이외	-8523
▁일생	-8524
▁임청	-8525
▁재현	-8526
▁지워	-8527
▁짱임	-8528
▁추구	-8529
▁크다	-8530
▁티가	-8531
▁향한	-8532
▁회상	-8533
들보다	-8534
들이다	-8535
라노말	-8536
을수도	-8537
이거나	-8538
일리언	-8539
하구나	-8540
함으로	-8541
히어로	-8542
▁8.5	-8543
▁가치를	-8544
▁낚여서	-8545
▁다른건	-8546
▁다큐를	-8547
▁답답해	-8548
▁대사를	-8549
▁따뜻해	-8550
▁또라이	-8551
▁만나는	-8552
▁모성애	-8553
▁못따라	-8554
▁무섭지	-8555
▁반전의	-8556
▁보낸다	-8557
▁봤다는	-8558
▁사람만	-8559
▁슬펐다	-8560
▁싶으면	-8561
▁아픔을	-8562
▁애니가	-8563
▁어떠한	-8564
▁어쨌든	-8565
▁어쩌다	-8566
▁오우삼	-8567
▁웃으며	-8568
▁웃음만	-8569
▁재발견	-8570
▁최고인	-8571
▁카메론	-8572
▁통쾌한	-8573
▁평가를	-8574
▁한가지	-8575
▁흠잡을	-8576
▁힘들게	-8577
떨어지는	-8578
..-_-	-8579
▁군더더기	-8580
▁다이하드	-8581
▁돋보인다	-8582
▁많은것을	-8583
▁말았어야	-8584
▁미야자키	-8585
▁스릴러물	-8586
▁어디까지	-8587
▁어이없고	-8588
▁좋아했던	-8589
▁지루함이	-8590
▁필요없음	-8591
▁하지마라	-8592
▁-_-;;	-8593
▁공포영화는	-8594
▁재미있다고	-8595
▁재미있어서	-8596
▁존경합니다	-8597
▁깝	-8598
▁뼈	-8599
▁뿜	-8600
▁싼	-8601
감상	-8602
군의	-8603
그림	-8604
금보	-8605
급이	-8606
까봐	-8607
녀가	-8608
려야	-8609
려진	-8610
맹랑	-8611
바리	-8612
비는	-8613
시도	-8614
여야	-8615
이와	-8616
재현	-8617
전문	-8618
지효	-8619
책임	-8620
토퍼	-8621
특집	-8622
파서	-8623
판은	-8624
하죠	-8625
할거	-8626
향이	-8627
▁감옥	-8628
▁골때	-8629
▁높네	-8630
▁덴젤	-8631
▁두말	-8632
▁드문	-8633
▁들여	-8634
▁마구	-8635
▁배가	-8636
▁법정	-8637
▁부각	-8638
▁부드	-8639
▁불행	-8640
▁비중	-8641
▁빨간	-8642
▁샤론	-8643
▁스킵	-8644
▁안녕	-8645
▁않네	-8646
▁의견	-8647
▁잡고	-8648
▁저게	-8649
▁주먹	-8650
▁지상	-8651
▁쯧쯧	-8652
▁친일	-8653
▁코드	-8654
긴장감	-8655
너무나	-8656
네이버	-8657
는거다	-8658
받아서	-8659
스에서	-8660
습니당	-8661
에서나	-8662
필요한	-8663
하구만	-8664
▁300	-8665
▁결과는	-8666
▁고인의	-8667
▁김민종	-8668
▁남자를	-8669
▁데뷔작	-8670
▁도중에	-8671
▁들어도	-8672
▁또봐도	-8673
▁만드냐	-8674
▁머리를	-8675
▁배경도	-8676
▁보기싫	-8677
▁본듯한	-8678
▁소재만	-8679
▁수면제	-8680
▁스페인	-8681
▁싶지만	-8682
▁여자애	-8683
▁외국인	-8684
▁원작은	-8685
▁이쁘게	-8686
▁일어날	-8687
▁참고로	-8688
▁초중반	-8689
▁탁월한	-8690
▁풀어나	-8691
▁할말을	-8692
렸습니다	-8693
말이필요	-8694
볼때마다	-8695
스럽네요	-8696
었을텐데	-8697
하겠지만	-8698
하는건지	-8699
▁고스란히	-8700
▁관객에게	-8701
▁다시보게	-8702
▁메세지도	-8703
▁메시지가	-8704
▁메시지를	-8705
▁발연기에	-8706
▁보고싶어	-8707
▁부분에서	-8708
▁생각나게	-8709
▁쓰레기가	-8710
▁예고편만	-8711
▁예술영화	-8712
▁오락영화	-8713
▁욕나온다	-8714
▁이상으로	-8715
▁졸작이다	-8716
▁주연배우	-8717
▁주인공을	-8718
▁추천한다	-8719
▁훈훈하고	-8720
영화관에서	-8721
잘봤습니다	-8722
▁뮤직비디오	-8723
▁스토리지만	-8724
▁안타깝네요	-8725
▁지루하지않	-8726
▁잔잔하면서도	-8727
el	-8728
if	-8729
▁Y	-8730
▁값	-8731
▁며	-8732
▁붉	-8733
▁쌈	-8734
▁칸	-8735
▁탕	-8736
독립	-8737
로가	-8738
사님	-8739
상욱	-8740
신분	-8741
아버	-8742
에이	-8743
연애	-8744
요미	-8745
율이	-8746
자막	-8747
줘라	-8748
체를	-8749
펭귄	-8750
..,	-8751
▁99	-8752
▁in	-8753
▁거냐	-8754
▁괴수	-8755
▁그들	-8756
▁극찬	-8757
▁길고	-8758
▁끊임	-8759
▁나참	-8760
▁냉정	-8761
▁돈만	-8762
▁로보	-8763
▁만듬	-8764
▁만세	-8765
▁명확	-8766
▁몰락	-8767
▁몸을	-8768
▁번을	-8769
▁보아	-8770
▁보일	-8771
▁비하	-8772
▁빠르	-8773
▁사로	-8774
▁사망	-8775
▁시사	-8776
▁실수	-8777
▁안남	-8778
▁애절	-8779
▁어딜	-8780
▁어떻	-8781
▁에바	-8782
▁였다	-8783
▁영광	-8784
▁예쁨	-8785
▁완성	-8786
▁이혼	-8787
▁인지	-8788
▁자위	-8789
▁잘해	-8790
▁주목	-8791
▁증명	-8792
▁총격	-8793
▁출발	-8794
▁혁명	-8795
같은거	-8796
거같아	-8797
그자체	-8798
던영화	-8799
드려요	-8800
만하고	-8801
뭡니까	-8802
슬프다	-8803
원주고	-8804
으세요	-8805
잘만들	-8806
재미는	-8807
조차도	-8808
평점을	-8809
..??	-8810
▁개같은	-8811
▁것들을	-8812
▁기승전	-8813
▁넘어가	-8814
▁두시간	-8815
▁떨어진	-8816
▁똑바로	-8817
▁만들다	-8818
▁모자라	-8819
▁보느니	-8820
▁보여줌	-8821
▁복수극	-8822
▁솔직한	-8823
▁신데렐	-8824
▁아니냐	-8825
▁아니네	-8826
▁아이러	-8827
▁않았음	-8828
▁알아야	-8829
▁없구나	-8830
▁에로물	-8831
▁엑소시	-8832
▁여운도	-8833
▁이상함	-8834
▁작품의	-8835
▁장르의	-8836
▁저절로	-8837
▁줄리아	-8838
▁쥬라기	-8839
▁채널돌	-8840
▁팀버튼	-8841
▁한장면	-8842
▁현실감	-8843
다시봐도	-8844
하기까지	-8845
하더라도	-8846
▁2003	-8847
▁2013	-8848
▁나오다니	-8849
▁남아있는	-8850
▁만으로도	-8851
▁사람들도	-8852
▁사랑으로	-8853
▁식상하다	-8854
▁어우러진	-8855
▁여기저기	-8856
▁잃어버린	-8857
▁죽기전에	-8858
▁초반부터	-8859
▁퀄리티가	-8860
▁필요하다	-8861
▁힘내세요	-8862
▁실망스럽다	-8863
▁영화중에서	-8864
▁울었습니다	-8865
▁흥미진진한	-8866
▁개인적으로는	-8867
.............	-8868
.^	-8869
op	-8870
▁좆	-8871
▁콧	-8872
▁헷	-8873
♡♥	-8874
걸작	-8875
국민	-8876
그때	-8877
급의	-8878
끼는	-8879
넘게	-8880
는뎅	-8881
다코	-8882
도와	-8883
라나	-8884
리로	-8885
리칸	-8886
많고	-8887
버전	-8888
슬퍼	-8889
양의	-8890
어느	-8891
오로	-8892
올라	-8893
완벽	-8894
왜곡	-8895
웃긴	-8896
잇고	-8897
쨋든	-8898
쳐도	-8899
초딩	-8900
치않	-8901
카메	-8902
홀로	-8903
est	-8904
▁it	-8905
▁간첩	-8906
▁공주	-8907
▁그와	-8908
▁까는	-8909
▁납치	-8910
▁내놓	-8911
▁내세	-8912
▁내일	-8913
▁노무	-8914
▁대가	-8915
▁돈과	-8916
▁모호	-8917
▁배워	-8918
▁보소	-8919
▁본인	-8920
▁부러	-8921
▁승부	-8922
▁애로	-8923
▁어마	-8924
▁에러	-8925
▁열자	-8926
▁온몸	-8927
▁유령	-8928
▁이겨	-8929
▁이태	-8930
▁일일	-8931
▁저희	-8932
▁정준	-8933
▁정통	-8934
▁증거	-8935
▁지배	-8936
▁징징	-8937
▁짱이	-8938
▁찾을	-8939
▁카피	-8940
▁캐리	-8941
▁퇴보	-8942
▁하자	-8943
거든요	-8944
그런가	-8945
냅니다	-8946
돈으로	-8947
떨어진	-8948
모습이	-8949
볼만한	-8950
빼고는	-8951
사에서	-8952
어주는	-8953
였으나	-8954
이정도	-8955
좋아서	-8956
특유의	-8957
편부터	-8958
하는듯	-8959
한건지	-8960
...1	-8961
▁강동원	-8962
▁겉멋만	-8963
▁경의를	-8964
▁고마운	-8965
▁굉장한	-8966
▁그들은	-8967
▁그시절	-8968
▁깜짝놀	-8969
▁나은듯	-8970
▁대실망	-8971
▁뛰어나	-8972
▁만화가	-8973
▁매력은	-8974
▁미장센	-8975
▁복수를	-8976
▁불륜을	-8977
▁상영관	-8978
▁안나왔	-8979
▁안되서	-8980
▁어둡고	-8981
▁영화제	-8982
▁의외의	-8983
▁인물들	-8984
▁장면의	-8985
▁잼없음	-8986
▁차이가	-8987
▁클래식	-8988
▁태어나	-8989
▁표정이	-8990
▁한숨만	-8991
▁흑역사	-8992
▁흡입력	-8993
이영화는	-8994
재미있음	-8995
할정도로	-8996
▁다음으로	-8997
▁만들어야	-8998
▁무서워서	-8999
▁사람마다	-9000
▁아니네요	-9001
▁안타까움	-9002
▁없었으면	-9003
▁여태까지	-9004
▁영상미는	-9005
▁재밋는데	-9006
▁좋아하지	-9007
▁줄거리가	-9008
▁캐릭터와	-9009
...-_-	-9010
▁명작이네요	-9011
▁비현실적인	-9012
▁잔잔하지만	-9013
.7	-9014
ce	-9015
▁j	-9016
▁놔	-9017
▁떄	-9018
▁밉	-9019
▁빗	-9020
▁셀	-9021
▁혈	-9022
권택	-9023
근석	-9024
끝내	-9025
나쁘	-9026
남아	-9027
달까	-9028
더러	-9029
덜덜	-9030
등등	-9031
리트	-9032
먼저	-9033
바보	-9034
서방	-9035
설마	-9036
소장	-9037
스도	-9038
스피	-9039
어마	-9040
열자	-9041
예고	-9042
원래	-9043
이젠	-9044
인드	-9045
점만	-9046
진은	-9047
챙겨	-9048
크의	-9049
필름	-9050
함만	-9051
해석	-9052
://	-9053
com	-9054
ttp	-9055
▁ᄅᄋ	-9056
▁ᄇᄉ	-9057
▁가해	-9058
▁고증	-9059
▁곱씹	-9060
▁날라	-9061
▁노튼	-9062
▁돈은	-9063
▁될듯	-9064
▁될수	-9065
▁록키	-9066
▁머가	-9067
▁박해	-9068
▁변호	-9069
▁본건	-9070
▁분이	-9071
▁분장	-9072
▁뻔뻔	-9073
▁숨어	-9074
▁안봐	-9075
▁어벤	-9076
▁없군	-9077
▁역쉬	-9078
▁엽문	-9079
▁우아	-9080
▁잘안	-9081
▁저기	-9082
▁정이	-9083
▁종영	-9084
▁주옥	-9085
▁차분	-9086
▁총알	-9087
▁허구	-9088
▁활용	-9089
가능한	-9090
때까지	-9091
렸는데	-9092
리다가	-9093
버리지	-9094
버린다	-9095
볼수있	-9096
에서만	-9097
연기에	-9098
하나로	-9099
▁7.5	-9100
▁가져다	-9101
▁간간히	-9102
▁개봉을	-9103
▁과정을	-9104
▁구혜선	-9105
▁권상우	-9106
▁더럽고	-9107
▁된다는	-9108
▁모티브	-9109
▁미치는	-9110
▁별로인	-9111
▁분명히	-9112
▁선택한	-9113
▁설정과	-9114
▁성우가	-9115
▁소지섭	-9116
▁시원한	-9117
▁심리를	-9118
▁아동용	-9119
▁액션에	-9120
▁엉터리	-9121
▁영화계	-9122
▁영화찍	-9123
▁오인혜	-9124
▁울었던	-9125
▁웃음과	-9126
▁의문이	-9127
▁있나요	-9128
▁장면과	-9129
▁재밌지	-9130
▁전성기	-9131
▁전편의	-9132
▁절제된	-9133
▁정확히	-9134
▁조용히	-9135
▁주제는	-9136
▁중후반	-9137
▁즐거움	-9138
▁짐캐리	-9139
▁최초의	-9140
▁클라라	-9141
▁클라이	-9142
▁할수있	-9143
▁함부로	-9144
▁흐름이	-9145
영화네요	-9146
티비에서	-9147
▁2004	-9148
▁very	-9149
▁과대평가	-9150
▁다큐멘터	-9151
▁등장하는	-9152
▁막장으로	-9153
▁몰랐는데	-9154
▁보고있는	-9155
▁아깝다는	-9156
▁아니라서	-9157
▁않았을까	-9158
▁에드워드	-9159
▁작품이라	-9160
것같습니다	-9161
▁보고싶어요	-9162
▁시나리오를	-9163
▁아쉬웠지만	-9164
▁이영화보고	-9165
▁일본영화는	-9166
▁파워레인저	-9167
.9	-9168
?"	-9169
ve	-9170
▁긍	-9171
▁꾹	-9172
▁캠	-9173
▁툭	-9174
겨울	-9175
경의	-9176
곳이	-9177
교육	-9178
국이	-9179
꺼다	-9180
나무	-9181
남길	-9182
던거	-9183
도다	-9184
두근	-9185
려니	-9186
블루	-9187
뿐만	-9188
살에	-9189
서린	-9190
서트	-9191
심의	-9192
아침	-9193
언이	-9194
영웅	-9195
이번	-9196
잇다	-9197
저질	-9198
정보	-9199
중한	-9200
진희	-9201
통에	-9202
하이	-9203
!^^	-9204
▁고딩	-9205
▁괴로	-9206
▁괴롭	-9207
▁권력	-9208
▁나니	-9209
▁내리	-9210
▁도입	-9211
▁또는	-9212
▁뛰쳐	-9213
▁맘이	-9214
▁매혹	-9215
▁물건	-9216
▁물씬	-9217
▁바랬	-9218
▁보셈	-9219
▁순진	-9220
▁슈렉	-9221
▁심히	-9222
▁싸울	-9223
▁쓰지	-9224
▁언론	-9225
▁엠마	-9226
▁오오	-9227
▁웹툰	-9228
▁이경	-9229
▁읽는	-9230
▁잘하	-9231
▁잘함	-9232
▁잼씀	-9233
▁저거	-9234
▁전락	-9235
▁존잼	-9236
▁증말	-9237
▁징그	-9238
▁찍을	-9239
▁찜찜	-9240
▁총을	-9241
▁출현	-9242
▁침묵	-9243
▁태권	-9244
▁하냐	-9245
▁환장	-9246
▁흐뭇	-9247
거에요	-9248
놈들이	-9249
로서는	-9250
말고는	-9251
발이고	-9252
번이나	-9253
봣어요	-9254
수준이	-9255
앗는데	-9256
앞에서	-9257
앞으로	-9258
어머니	-9259
인간의	-9260
주의를	-9261
집에서	-9262
편으로	-9263
▁감흥이	-9264
▁갔는데	-9265
▁강아지	-9266
▁거대한	-9267
▁게임을	-9268
▁기대는	-9269
▁기대도	-9270
▁넘어선	-9271
▁떨어져	-9272
▁막장이	-9273
▁만나고	-9274
▁명성을	-9275
▁본적이	-9276
▁부르는	-9277
▁불쾌한	-9278
▁사기꾼	-9279
▁사실이	-9280
▁상황에	-9281
▁스릴이	-9282
▁아쉬울	-9283
▁이유로	-9284
▁있으니	-9285
▁작품중	-9286
▁정당화	-9287
▁죽을때	-9288
▁하던가	-9289
▁한효주	-9290
거같네요	-9291
남기는데	-9292
보고나서	-9293
을정도로	-9294
▁best	-9295
▁감성팔이	-9296
▁결말까지	-9297
▁공감가는	-9298
▁그지같은	-9299
▁극장판은	-9300
▁나왔는데	-9301
▁마음속에	-9302
▁만들려고	-9303
▁만들었네	-9304
▁미치도록	-9305
▁볼만해요	-9306
▁부끄러운	-9307
▁분위기에	-9308
▁수준이하	-9309
▁아까워요	-9310
▁어린아이	-9311
▁에일리언	-9312
▁영화계의	-9313
▁영화내내	-9314
▁재미있네	-9315
▁재밌게봤	-9316
▁재밌었고	-9317
▁좋아해요	-9318
▁중간부터	-9319
▁지루하네	-9320
▁톰크루즈	-9321
▁허무맹랑	-9322
▁허접하다	-9323
▁기대됩니다	-9324
▁러브스토리	-9325
▁싸이코패스	-9326
▁응원합니다	-9327
▁재미있었던	-9328
▁최고였습니다	-9329
!!!!!!!!!	-9330
><	-9331
ch	-9332
ct	-9333
▁ᄃ	-9334
▁ᅩ	-9335
▁뚫	-9336
▁멸	-9337
▁밍	-9338
▁쏙	-9339
▁얽	-9340
▁왓	-9341
▁훌	-9342
가니	-9343
가라	-9344
겠냐	-9345
그게	-9346
글자	-9347
눈이	-9348
데로	-9349
라지	-9350
마는	-9351
못보	-9352
문의	-9353
민아	-9354
보셈	-9355
브라	-9356
상실	-9357
스라	-9358
시죠	-9359
았어	-9360
어난	-9361
엿다	-9362
이형	-9363
일으	-9364
지우	-9365
호의	-9366
효진	-9367
▁28	-9368
▁같네	-9369
▁걸린	-9370
▁구역	-9371
▁그대	-9372
▁기념	-9373
▁길다	-9374
▁김정	-9375
▁남발	-9376
▁내겐	-9377
▁뉴욕	-9378
▁똥을	-9379
▁맞게	-9380
▁멘붕	-9381
▁뿐만	-9382
▁상투	-9383
▁색감	-9384
▁속은	-9385
▁수사	-9386
▁애정	-9387
▁양조	-9388
▁어케	-9389
▁엉덩	-9390
▁이영	-9391
▁일탈	-9392
▁잘살	-9393
▁접근	-9394
▁정화	-9395
▁중년	-9396
▁짐승	-9397
▁집단	-9398
▁쪽팔	-9399
▁참을	-9400
▁토끼	-9401
는것도	-9402
도없는	-9403
성으로	-9404
세상에	-9405
에게도	-9406
영화냐	-9407
이라곤	-9408
작가님	-9409
하였다	-9410
하잖아	-9411
▁KBS	-9412
▁MBC	-9413
▁The	-9414
▁~~~	-9415
▁나가는	-9416
▁낚였네	-9417
▁낚이지	-9418
▁남기고	-9419
▁남는건	-9420
▁너무낮	-9421
▁느리고	-9422
▁더더욱	-9423
▁돈낭비	-9424
▁마케팅	-9425
▁많지만	-9426
▁말이다	-9427
▁머리에	-9428
▁무서울	-9429
▁무엇이	-9430
▁뭔가요	-9431
▁베트남	-9432
▁비정상	-9433
▁생각에	-9434
▁송혜교	-9435
▁실패작	-9436
▁아침에	-9437
▁안되나	-9438
▁양동근	-9439
▁엄마의	-9440
▁예쁘게	-9441
▁용두사	-9442
▁유지태	-9443
▁이번에	-9444
▁자유를	-9445
▁잘생긴	-9446
▁조금씩	-9447
▁주제도	-9448
▁죽는다	-9449
▁즐겁고	-9450
▁집중도	-9451
▁짱짱맨	-9452
▁초능력	-9453
▁태어난	-9454
▁하던데	-9455
▁행복을	-9456
▁혼자서	-9457
영화에서	-9458
영화지만	-9459
적이지만	-9460
프라이즈	-9461
하시네요	-9462
▁그들만의	-9463
▁그럼에도	-9464
▁기대되는	-9465
▁나오는거	-9466
▁내용으로	-9467
▁너무재밌	-9468
▁답답해서	-9469
▁대표적인	-9470
▁만들기도	-9471
▁말아먹은	-9472
▁받아들이	-9473
▁배우분들	-9474
▁별한개도	-9475
▁볼만했음	-9476
▁분위기도	-9477
▁생각해서	-9478
▁스릴러를	-9479
▁시간아깝	-9480
▁시선으로	-9481
▁아까웠던	-9482
▁아닌가요	-9483
▁안타깝고	-9484
▁영화라면	-9485
▁예고편이	-9486
▁이해하지	-9487
▁인간적인	-9488
▁인종차별	-9489
▁장난아니	-9490
▁재밌기만	-9491
▁정신나간	-9492
▁조기종영	-9493
▁중학교때	-9494
▁한번쯤은	-9495
▁허무하게	-9496
▁현실성이	-9497
좋아하는데	-9498
▁처음이네요	-9499
▁킬링타임용도	-9500
~8	-9501
▁빚	-9502
▁엇	-9503
▁혜	-9504
★★	-9505
가자	-9506
거니	-9507
기준	-9508
나만	-9509
내려	-9510
는디	-9511
대전	-9512
대화	-9513
데터	-9514
되네	-9515
드네	-9516
들리	-9517
맞은	-9518
보길	-9519
보임	-9520
부림	-9521
비홍	-9522
빨고	-9523
사한	-9524
생이	-9525
싱턴	-9526
씨를	-9527
어어	-9528
었죠	-9529
유머	-9530
음에	-9531
저링	-9532
점줄	-9533
제는	-9534
존재	-9535
죽을	-9536
하단	-9537
ion	-9538
▁24	-9539
▁98	-9540
▁가식	-9541
▁경계	-9542
▁구분	-9543
▁극한	-9544
▁난생	-9545
▁느슨	-9546
▁단언	-9547
▁똑똑	-9548
▁마을	-9549
▁몇개	-9550
▁못본	-9551
▁못살	-9552
▁미리	-9553
▁바꾼	-9554
▁발레	-9555
▁볼것	-9556
▁불면	-9557
▁서서	-9558
▁속의	-9559
▁씨발	-9560
▁알렉	-9561
▁어떡	-9562
▁에릭	-9563
▁여튼	-9564
▁연주	-9565
▁우스	-9566
▁울게	-9567
▁웃게	-9568
▁원표	-9569
▁유부	-9570
▁이자	-9571
▁저주	-9572
▁정재	-9573
▁조심	-9574
▁존내	-9575
▁차마	-9576
▁천만	-9577
▁퀴어	-9578
▁특징	-9579
▁틈이	-9580
▁파이	-9581
▁할배	-9582
▁할지	-9583
▁했을	-9584
▁헷갈	-9585
고싶어	-9586
당하고	-9587
됐는데	-9588
만든다	-9589
맞추기	-9590
봤으면	-9591
부분도	-9592
분위기	-9593
수준의	-9594
싶네요	-9595
영화나	-9596
인으로	-9597
있다는	-9598
잘하고	-9599
저예산	-9600
창있네	-9601
편인데	-9602
▁,,,	-9603
▁개소리	-9604
▁것인지	-9605
▁김구라	-9606
▁꿈꾸는	-9607
▁끝판왕	-9608
▁나오기	-9609
▁돈아까	-9610
▁뜨거운	-9611
▁런닝맨	-9612
▁만화는	-9613
▁모르겟	-9614
▁모르나	-9615
▁뭔가가	-9616
▁미소를	-9617
▁미이라	-9618
▁부럽다	-9619
▁살아남	-9620
▁상상을	-9621
▁소리지	-9622
▁스티브	-9623
▁슬래셔	-9624
▁알게된	-9625
▁이해못	-9626
▁이후에	-9627
▁인터뷰	-9628
▁일베충	-9629
▁있겠지	-9630
▁장면들	-9631
▁제목과	-9632
▁지나서	-9633
▁초반부	-9634
▁최대의	-9635
▁친구들	-9636
▁평점올	-9637
장면에서	-9638
▁나온다고	-9639
▁너무한다	-9640
▁만들어준	-9641
▁매력있는	-9642
▁몇번이고	-9643
▁몇번이나	-9644
▁별로였음	-9645
▁아프리카	-9646
▁안했는데	-9647
▁알겠지만	-9648
▁없다는게	-9649
▁엉성하다	-9650
▁여배우들	-9651
▁이정도로	-9652
▁이해가안	-9653
▁인간들이	-9654
▁주인공도	-9655
▁진짜진짜	-9656
▁파라노말	-9657
▁해도해도	-9658
▁화려하고	-9659
▁영화자체가	-9660
▁오글거려서	-9661
▁재미있었고	-9662
▁지루하기만	-9663
▁너무재밌어요	-9664
▁ᄏᄏᄏᄏᄏᄏᄏᄏᄏᄏ	-9665
▁ᄏᄏᄏᄏᄏᄏᄏᄏᄏᄏᄏ	-9666
22	-9667
60	-9668
ht	-9669
ne	-9670
▁♡	-9671
▁갇	-9672
▁곁	-9673
▁낸	-9674
▁맷	-9675
▁멕	-9676
▁쫒	-9677
▁쯤	-9678
▁캡	-9679
가진	-9680
간지	-9681
깊게	-9682
데기	-9683
디션	-9684
마트	-9685
맞춘	-9686
매우	-9687
부러	-9688
부턴	-9689
비를	-9690
수고	-9691
스티	-9692
시라	-9693
안나	-9694
위로	-9695
일세	-9696
키스	-9697
플렉	-9698
.10	-9699
ill	-9700
▁같지	-9701
▁검은	-9702
▁계획	-9703
▁구라	-9704
▁구멍	-9705
▁구지	-9706
▁나뿐	-9707
▁다리	-9708
▁닥터	-9709
▁되도	-9710
▁드리	-9711
▁마초	-9712
▁맛깔	-9713
▁모여	-9714
▁무관	-9715
▁미흡	-9716
▁백배	-9717
▁버리	-9718
▁보진	-9719
▁비싼	-9720
▁빠짐	-9721
▁생략	-9722
▁쓰렉	-9723
▁약한	-9724
▁우습	-9725
▁웃길	-9726
▁잡는	-9727
▁조조	-9728
▁쥐어	-9729
▁지적	-9730
▁최후	-9731
▁치는	-9732
▁큐브	-9733
▁토니	-9734
▁푸른	-9735
▁한개	-9736
▁한테	-9737
가슴이	-9738
거라고	-9739
그렇고	-9740
는지도	-9741
모르는	-9742
볼려고	-9743
아쉽다	-9744
아이돌	-9745
아줌마	-9746
었을때	-9747
였다고	-9748
왔어요	-9749
이기에	-9750
줄거리	-9751
지루한	-9752
지않나	-9753
티비로	-9754
했더니	-9755
▁198	-9756
▁ocn	-9757
▁계기가	-9758
▁관객들	-9759
▁관객의	-9760
▁괜찮네	-9761
▁교훈이	-9762
▁구성과	-9763
▁구성은	-9764
▁글쎄요	-9765
▁나홀로	-9766
▁단체로	-9767
▁당연한	-9768
▁맙시다	-9769
▁모자란	-9770
▁못보고	-9771
▁못하겠	-9772
▁받아서	-9773
▁배경과	-9774
▁범죄자	-9775
▁봤었다	-9776
▁부족함	-9777
▁생각한	-9778
▁세상은	-9779
▁슬퍼서	-9780
▁시절의	-9781
▁신나게	-9782
▁쌩뚱맞	-9783
▁아닌것	-9784
▁아쉽고	-9785
▁엄마랑	-9786
▁영화본	-9787
▁오타쿠	-9788
▁원피스	-9789
▁인물의	-9790
▁임권택	-9791
▁잘하네	-9792
▁장르는	-9793
▁재밌당	-9794
▁전쟁을	-9795
▁정신차	-9796
▁주제에	-9797
▁충격을	-9798
▁충격이	-9799
▁케이트	-9800
▁코드가	-9801
▁화면이	-9802
▁후회함	-9803
부분에서	-9804
영화중에	-9805
좋았어요	-9806
▁2005	-9807
▁2010	-9808
▁강력추천	-9809
▁남자라면	-9810
▁돈아깝다	-9811
▁되었는데	-9812
▁때문이다	-9813
▁마지막의	-9814
▁만드는지	-9815
▁모든것을	-9816
▁보냅니다	-9817
▁보이지만	-9818
▁상영관이	-9819
▁스케일이	-9820
▁쓰레기임	-9821
▁아니라는	-9822
▁어렸을적	-9823
▁어쩌라고	-9824
▁연기까지	-9825
▁영화들은	-9826
▁원작소설	-9827
▁일어나는	-9828
▁존재하는	-9829
▁졸업작품	-9830
▁지났지만	-9831
▁철학적인	-9832
▁코미디가	-9833
▁감동적으로	-9834
▁스타일리쉬	-9835
▁시간아까워	-9836
▁어이없어서	-9837
▁영화라는게	-9838
▁우리나라는	-9839
▁초등학교때	-9840
▁최고였어요	-9841
▁애니메이션이	-9842
▁델	-9843
▁턱	-9844
▁퓨	-9845
가다	-9846
가도	-9847
과정	-9848
괜히	-9849
교훈	-9850
나타	-9851
났던	-9852
라마	-9853
리타	-9854
망이	-9855
베리	-9856
보라	-9857
소를	-9858
안의	-9859
어는	-9860
영씨	-9861
일라	-9862
점짜	-9863
주네	-9864
터짐	-9865
틈이	-9866
하곤	-9867
화는	-9868
,..	-9869
hat	-9870
▁가상	-9871
▁간직	-9872
▁강호	-9873
▁건데	-9874
▁경우	-9875
▁경제	-9876
▁고찰	-9877
▁군인	-9878
▁김강	-9879
▁김영	-9880
▁꿈이	-9881
▁넘은	-9882
▁노동	-9883
▁논리	-9884
▁도통	-9885
▁둘의	-9886
▁딱딱	-9887
▁레즈	-9888
▁말만	-9889
▁말에	-9890
▁멤버	-9891
▁몸에	-9892
▁버금	-9893
▁버릴	-9894
▁버전	-9895
▁볼줄	-9896
▁부디	-9897
▁부조	-9898
▁빠지	-9899
▁샤를	-9900
▁섞어	-9901
▁속도	-9902
▁신념	-9903
▁엉엉	-9904
▁여고	-9905
▁여왕	-9906
▁은퇴	-9907
▁의학	-9908
▁이범	-9909
▁임신	-9910
▁잼없	-9911
▁정리	-9912
▁지존	-9913
▁총질	-9914
▁추락	-9915
▁퍼즐	-9916
▁펭귄	-9917
▁하던	-9918
▁황홀	-9919
▁휴먼	-9920
가는데	-9921
감동이	-9922
그것도	-9923
급으로	-9924
기억에	-9925
러워서	-9926
모습을	-9927
봤다가	-9928
봤더니	-9929
성탈출	-9930
수밖에	-9931
스트너	-9932
영화네	-9933
위해서	-9934
이것도	-9935
이런거	-9936
이쁘고	-9937
좋겠다	-9938
합시다	-9939
▁가끔씩	-9940
▁강지환	-9941
▁검색해	-9942
▁공중파	-9943
▁과거를	-9944
▁괜찮아	-9945
▁궁금해	-9946
▁기분만	-9947
▁기억될	-9948
▁깊이가	-9949
▁남았다	-9950
▁놀라울	-9951
▁누구도	-9952
▁담아낸	-9953
▁마스터	-9954
▁마음의	-9955
▁말하려	-9956
▁말해서	-9957
▁모습과	-9958
▁모습도	-9959
▁몬스터	-9960
▁방법이	-9961
▁별루다	-9962
▁서스펜	-9963
▁소재에	-9964
▁송지효	-9965
▁시작은	-9966
▁식으로	-9967
▁심각한	-9968
▁아닌지	-9969
▁않았나	-9970
▁액션물	-9971
▁액션신	-9972
▁어째서	-9973
▁없었고	-9974
▁웃기네	-9975
▁웃어야	-9976
▁의미는	-9977
▁이거는	-9978
▁인물이	-9979
▁일요일	-9980
▁있는게	-9981
▁잘표현	-9982
▁전작에	-9983
▁주상욱	-9984
▁지겨워	-9985
▁촌스럽	-9986
▁파이팅	-9987
▁평점낮	-9988
▁표현해	-9989
▁하는건	-9990
▁한건지	-9991
▁한국에	-9992
▁핸드폰	-9993
▁현실의	-9994
감동적인	-9995
긴했지만	-9996
이라고는	-9997
재미없고	-9998
점대라니	-9999
▁기분좋게	-10000
▁깔끔하고	-10001
▁말해주는	-10002
▁몽환적인	-10003
▁분위기와	-10004
▁빠져드는	-10005
▁뻔하지만	-10006
▁사무라이	-10007
▁슬프지만	-10008
▁어린이용	-10009
▁없는영화	-10010
▁영화만들	-10011
▁오글거려	-10012
▁우리들의	-10013
▁움직이는	-10014
▁이걸보고	-10015
▁인디아나	-10016
▁재밌지도	-10017
▁좋아하게	-10018
▁참신하고	-10019
▁코믹영화	-10020
▁해야하나	-10021
▁훌륭하고	-10022
보고싶어요	-10023
▁네이버평점	-10024
▁드라마네요	-10025
▁마지막으로	-10026
▁모르겠는데	-10027
▁미안하지만	-10028
▁보고있어요	-10029
▁볼만하네요	-10030
▁사실적으로	-10031
▁아침드라마	-10032
▁......	-10033
▁`	-10034
▁규	-10035
▁넋	-10036
▁덧	-10037
▁맺	-10038
▁켄	-10039
▁홈	-10040
게도	-10041
그의	-10042
근한	-10043
금을	-10044
급을	-10045
꼬마	-10046
내기	-10047
넣은	-10048
드문	-10049
마냥	-10050
많다	-10051
맹이	-10052
박이	-10053
볼까	-10054
분만	-10055
비교	-10056
사나	-10057
선수	-10058
아닐	-10059
아마	-10060
역의	-10061
올때	-10062
용이	-10063
우면	-10064
월드	-10065
이긴	-10066
이쁨	-10067
이한	-10068
인권	-10069
잼있	-10070
점점	-10071
좋았	-10072
중독	-10073
치네	-10074
틀러	-10075
피는	-10076
해피	-10077
희씨	-10078
힌다	-10079
▁1,	-10080
▁me	-10081
▁가시	-10082
▁고급	-10083
▁김성	-10084
▁나누	-10085
▁뇌가	-10086
▁달고	-10087
▁돌고	-10088
▁두명	-10089
▁로렌	-10090
▁마주	-10091
▁메가	-10092
▁몸이	-10093
▁미개	-10094
▁미키	-10095
▁보실	-10096
▁복선	-10097
▁비롯	-10098
▁빛이	-10099
▁섭외	-10100
▁스무	-10101
▁싫은	-10102
▁싶게	-10103
▁싶었	-10104
▁악몽	-10105
▁알지	-10106
▁예매	-10107
▁요약	-10108
▁이념	-10109
▁인데	-10110
▁잠수	-10111
▁조정	-10112
▁졸려	-10113
▁죽기	-10114
▁천사	-10115
▁최하	-10116
▁충무	-10117
▁치열	-10118
▁타락	-10119
▁토요	-10120
▁파악	-10121
▁파트	-10122
▁훈남	-10123
▁흐르	-10124
▁흑흑	-10125
▁히로	-10126
놈들은	-10127
됬는데	-10128
별로다	-10129
액션이	-10130
었어도	-10131
에서야	-10132
영환데	-10133
음악도	-10134
이유가	-10135
진정한	-10136
파서블	-10137
할게요	-10138
해놓고	-10139
..,,	-10140
ᄃᄃᄃᄃ	-10141
▁???	-10142
▁가르쳐	-10143
▁결말에	-10144
▁공감을	-10145
▁나이에	-10146
▁노력이	-10147
▁눈물흘	-10148
▁대단히	-10149
▁더럽다	-10150
▁더빙은	-10151
▁돌려줘	-10152
▁또보고	-10153
▁리뷰를	-10154
▁많네요	-10155
▁못생긴	-10156
▁미국이	-10157
▁박평식	-10158
▁배우만	-10159
▁별점을	-10160
▁부분을	-10161
▁사회에	-10162
▁산만한	-10163
▁새롭게	-10164
▁설경구	-10165
▁세계관	-10166
▁속아서	-10167
▁수준은	-10168
▁신나는	-10169
▁않았고	-10170
▁여주의	-10171
▁영화고	-10172
▁왜만들	-10173
▁외에는	-10174
▁요소를	-10175
▁웃겨요	-10176
▁임청하	-10177
▁있는듯	-10178
▁죽인다	-10179
▁지금껏	-10180
▁채플린	-10181
▁처음임	-10182
▁최민수	-10183
기때문에	-10184
되는영화	-10185
수가없다	-10186
스트우드	-10187
시간낭비	-10188
재미없는	-10189
▁그래픽이	-10190
▁내러티브	-10191
▁리즈시절	-10192
▁만드네요	-10193
▁만들어졌	-10194
▁먹먹하다	-10195
▁멋있어요	-10196
▁스타일의	-10197
▁아이러니	-10198
▁아카데미	-10199
▁안되네요	-10200
▁억지설정	-10201
▁역사왜곡	-10202
▁이해하고	-10203
▁잘생기고	-10204
▁재밌게본	-10205
▁중반부터	-10206
▁지들끼리	-10207
▁촌스러운	-10208
▁최고라는	-10209
▁코미디도	-10210
▁현실이다	-10211
▁흥미롭고	-10212
▁시나리오에	-10213
▁지루하지만	-10214
▁지루했어요	-10215
▁우리나라에서	-10216
▁재미없습니다	-10217
un	-10218
▁묶	-10219
것다	-10220
결론	-10221
공의	-10222
그린	-10223
기동	-10224
나지	-10225
남겨	-10226
놨다	-10227
다를	-10228
런지	-10229
려라	-10230
뭔지	-10231
미니	-10232
불륜	-10233
빈이	-10234
사진	-10235
새벽	-10236
생의	-10237
소나	-10238
스페	-10239
슬리	-10240
식에	-10241
어쩔	-10242
우니	-10243
을것	-10244
을뿐	-10245
작을	-10246
전체	-10247
죽고	-10248
카이	-10249
탄이	-10250
피아	-10251
할게	-10252
현재	-10253
홍보	-10254
훨씬	-10255
흐름	-10256
히게	-10257
.,.	-10258
ain	-10259
ore	-10260
▁bb	-10261
▁so	-10262
▁가관	-10263
▁국제	-10264
▁그딴	-10265
▁금방	-10266
▁기쁨	-10267
▁내는	-10268
▁노는	-10269
▁대략	-10270
▁덕에	-10271
▁데미	-10272
▁독창	-10273
▁매회	-10274
▁머지	-10275
▁모야	-10276
▁무기	-10277
▁물고	-10278
▁밀라	-10279
▁발상	-10280
▁벌어	-10281
▁변신	-10282
▁불친	-10283
▁비난	-10284
▁비틀	-10285
▁뻔히	-10286
▁수백	-10287
▁수정	-10288
▁식스	-10289
▁실종	-10290
▁옛다	-10291
▁오토	-10292
▁요구	-10293
▁울어	-10294
▁유오	-10295
▁이재	-10296
▁인한	-10297
▁일제	-10298
▁읽은	-10299
▁있으	-10300
▁저리	-10301
▁주원	-10302
▁직장	-10303
▁찍지	-10304
▁찢어	-10305
▁찰리	-10306
▁창의	-10307
▁찾고	-10308
▁체험	-10309
▁코엔	-10310
▁클린	-10311
▁트라	-10312
▁피라	-10313
▁후한	-10314
▁흔해	-10315
거리고	-10316
겠는가	-10317
나오면	-10318
당하는	-10319
드리고	-10320
매니아	-10321
묘하게	-10322
부분에	-10323
사랑을	-10324
위원회	-10325
이나오	-10326
이유는	-10327
있었던	-10328
하느라	-10329
하시면	-10330
한거지	-10331
한것도	-10332
할려고	-10333
할정도	-10334
해야할	-10335
▁500	-10336
▁ebs	-10337
▁각본이	-10338
▁겁니다	-10339
▁과거의	-10340
▁과도한	-10341
▁나라를	-10342
▁남긴다	-10343
▁느껴짐	-10344
▁됐는데	-10345
▁말하면	-10346
▁망쳐놓	-10347
▁못만드	-10348
▁별기대	-10349
▁별다른	-10350
▁보기는	-10351
▁보는듯	-10352
▁서로를	-10353
▁슬퍼요	-10354
▁신경쓰	-10355
▁신파극	-10356
▁아프고	-10357
▁역할을	-10358
▁연출에	-10359
▁연출의	-10360
▁오늘도	-10361
▁웃겼음	-10362
▁웬만한	-10363
▁이건좀	-10364
▁이라고	-10365
▁이작품	-10366
▁인간을	-10367
▁장나라	-10368
▁재밋는	-10369
▁적절히	-10370
▁졸면서	-10371
▁차승원	-10372
▁첨이네	-10373
▁초딩이	-10374
▁추천해	-10375
▁치밀한	-10376
▁컨저링	-10377
▁팔아먹	-10378
▁하나만	-10379
▁하려는	-10380
▁한번은	-10381
▁후덜덜	-10382
▁훌륭함	-10383
기만하고	-10384
다고생각	-10385
들에게는	-10386
스러워서	-10387
▁괜찮던데	-10388
▁그런영화	-10389
▁나에게는	-10390
▁남자들의	-10391
▁너무좋아	-10392
▁다가오는	-10393
▁다운로드	-10394
▁따뜻하게	-10395
▁무슨말이	-10396
▁미스터리	-10397
▁봐야겠다	-10398
▁사이에서	-10399
▁선동영화	-10400
▁소름돋는	-10401
▁신데렐라	-10402
▁어떻게든	-10403
▁에이리언	-10404
▁영화다운	-10405
▁오리지널	-10406
▁자극하는	-10407
▁자본주의	-10408
▁적당하다	-10409
▁팬이라면	-10410
▁허술하고	-10411
▁혹성탈출	-10412
▁히어로물	-10413
점드립니다	-10414
...;;;	-10415
▁감정이입이	-10416
▁소피마르소	-10417
▁실망스러운	-10418
▁영화에서는	-10419
▁이런영화에	-10420
▁일깨워주는	-10421
▁재밌는영화	-10422
▁좋아한다면	-10423
▁크리스토퍼	-10424
▁프랑스영화	-10425
,,,,,,,,	-10426
),	-10427
21	-10428
▁ᅵ	-10429
▁‘	-10430
▁뜯	-10431
▁슴	-10432
▁욱	-10433
▁춘	-10434
▁핫	-10435
▁혀	-10436
가치	-10437
결이	-10438
고은	-10439
그녀	-10440
껴서	-10441
높다	-10442
높아	-10443
누군	-10444
도에	-10445
되길	-10446
맛이	-10447
몰랐	-10448
무협	-10449
밖엔	-10450
방의	-10451
보일	-10452
빼면	-10453
세이	-10454
씨와	-10455
야오	-10456
연한	-10457
엿음	-10458
용도	-10459
워커	-10460
유혼	-10461
인척	-10462
입고	-10463
작에	-10464
전히	-10465
정서	-10466
졸라	-10467
주로	-10468
질때	-10469
타이	-10470
타클	-10471
트리	-10472
프트	-10473
피를	-10474
하가	-10475
▁거창	-10476
▁고발	-10477
▁고백	-10478
▁공산	-10479
▁그땐	-10480
▁글로	-10481
▁김대	-10482
▁김소	-10483
▁김재	-10484
▁김현	-10485
▁꺼내	-10486
▁나왓	-10487
▁느린	-10488
▁말라	-10489
▁맞춘	-10490
▁무얼	-10491
▁묻혀	-10492
▁믿는	-10493
▁믿어	-10494
▁믿지	-10495
▁부른	-10496
▁빼앗	-10497
▁사춘	-10498
▁스콧	-10499
▁심은	-10500
▁아가	-10501
▁안웃	-10502
▁예의	-10503
▁오만	-10504
▁위에	-10505
▁은은	-10506
▁이선	-10507
▁저렴	-10508
▁전국	-10509
▁조인	-10510
▁존중	-10511
▁짧게	-10512
▁쩌네	-10513
▁출신	-10514
▁치명	-10515
▁크로	-10516
▁허영	-10517
▁환불	-10518
▁후진	-10519
가네요	-10520
곱니다	-10521
곳에서	-10522
로서의	-10523
만큼의	-10524
머니즘	-10525
멋대로	-10526
반전이	-10527
보느니	-10528
으려는	-10529
이니까	-10530
점준거	-10531
졌지만	-10532
하려면	-10533
▁kbs	-10534
▁것처럼	-10535
▁구리다	-10536
▁그때의	-10537
▁김혜수	-10538
▁나가고	-10539
▁나름의	-10540
▁나중엔	-10541
▁남주가	-10542
▁느꼈던	-10543
▁다를게	-10544
▁대표작	-10545
▁되는거	-10546
▁때리고	-10547
▁몰입을	-10548
▁불후의	-10549
▁사라진	-10550
▁산드라	-10551
▁설정에	-10552
▁소녀의	-10553
▁시간의	-10554
▁실패한	-10555
▁심심한	-10556
▁아닌거	-10557
▁아쉽네	-10558
▁아시아	-10559
▁아이의	-10560
▁안에서	-10561
▁어지간	-10562
▁언제쯤	-10563
▁에로틱	-10564
▁영화좀	-10565
▁예뻐요	-10566
▁우리네	-10567
▁원숭이	-10568
▁위험한	-10569
▁음악에	-10570
▁이게왜	-10571
▁이번엔	-10572
▁이상도	-10573
▁자세히	-10574
▁정도다	-10575
▁조승우	-10576
▁즐기는	-10577
▁찌질한	-10578
▁처절한	-10579
▁충실한	-10580
▁케이지	-10581
▁편집이	-10582
▁평점좀	-10583
▁한없이	-10584
▁환타지	-10585
▁황정민	-10586
▁후반에	-10587
▁흥해라	-10588
배속으로	-10589
보여주는	-10590
점정도가	-10591
하는구나	-10592
...!!	-10593
▁기다리고	-10594
▁기분좋은	-10595
▁대사들이	-10596
▁두근두근	-10597
▁멜로영화	-10598
▁무서웠다	-10599
▁보기에도	-10600
▁보는듯한	-10601
▁불필요한	-10602
▁생각해도	-10603
▁생각했다	-10604
▁스릴있고	-10605
▁시청자를	-10606
▁실화라니	-10607
▁심심해서	-10608
▁쓰레기로	-10609
▁알았더니	-10610
▁어마어마	-10611
▁영화관에	-10612
▁옛날영화	-10613
▁울었네요	-10614
▁이건진짜	-10615
▁있다는게	-10616
▁작품성이	-10617
▁캐릭터에	-10618
▁표현했다	-10619
▁하는건지	-10620
▁헛웃음만	-10621
감사합니다	-10622
▁느낌이랄까	-10623
▁볼만했는데	-10624
▁소름끼친다	-10625
▁유치하지만	-10626
▁재밌게봤음	-10627
▁적나라하게	-10628
▁좋아할만한	-10629
▁좋아합니다	-10630
▁다시보고싶은	-10631
▁만들어주세요	-10632
./	-10633
dd	-10634
ld	-10635
▁]	-10636
▁겹	-10637
▁낼	-10638
▁몫	-10639
겁게	-10640
겠나	-10641
관련	-10642
구조	-10643
끌고	-10644
날의	-10645
능한	-10646
도전	-10647
뒤로	-10648
디로	-10649
따름	-10650
러브	-10651
려한	-10652
모가	-10653
무니	-10654
문이	-10655
뭐가	-10656
반복	-10657
볼일	-10658
사기	-10659
사로	-10660
센트	-10661
수다	-10662
스토	-10663
슬픈	-10664
심은	-10665
예능	-10666
운의	-10667
으다	-10668
인상	-10669
죽여	-10670
차원	-10671
타르	-10672
훼손	-10673
all	-10674
ᄍᄍᄍ	-10675
▁sh	-10676
▁각자	-10677
▁개독	-10678
▁결합	-10679
▁과잉	-10680
▁극과	-10681
▁나간	-10682
▁난국	-10683
▁넘겨	-10684
▁넣은	-10685
▁단조	-10686
▁대비	-10687
▁두개	-10688
▁때론	-10689
▁마르	-10690
▁못했	-10691
▁미칠	-10692
▁믿음	-10693
▁악플	-10694
▁암이	-10695
▁열린	-10696
▁영활	-10697
▁오마	-10698
▁이완	-10699
▁잃고	-10700
▁장미	-10701
▁제미	-10702
▁지들	-10703
▁지어	-10704
▁철저	-10705
▁첨에	-10706
▁쳐도	-10707
▁초기	-10708
▁편이	-10709
▁할거	-10710
▁허전	-10711
▁호텔	-10712
겟네요	-10713
국주의	-10714
기라도	-10715
나올때	-10716
렸어요	-10717
마음에	-10718
만들고	-10719
액션은	-10720
어디서	-10721
오르는	-10722
음악이	-10723
이건뭐	-10724
이상은	-10725
졌네요	-10726
좋았음	-10727
테이크	-10728
하는가	-10729
할수록	-10730
▁0.5	-10731
▁가볍고	-10732
▁구역질	-10733
▁그것은	-10734
▁그녀가	-10735
▁그만좀	-10736
▁기억도	-10737
▁기회가	-10738
▁남자와	-10739
▁냄새가	-10740
▁놈들은	-10741
▁눈물도	-10742
▁능력이	-10743
▁달달한	-10744
▁당하는	-10745
▁던지는	-10746
▁데려다	-10747
▁레이싱	-10748
▁로보캅	-10749
▁만나서	-10750
▁만큼은	-10751
▁매트릭	-10752
▁먹먹한	-10753
▁무료로	-10754
▁뭡니까	-10755
▁미안해	-10756
▁배우로	-10757
▁보는줄	-10758
▁비교가	-10759
▁비교해	-10760
▁비추천	-10761
▁속편이	-10762
▁수작이	-10763
▁스텝업	-10764
▁씁쓸한	-10765
▁아니죠	-10766
▁아들과	-10767
▁안든다	-10768
▁얘기가	-10769
▁연기파	-10770
▁오래전	-10771
▁이들이	-10772
▁이상을	-10773
▁일상을	-10774
▁잘나가	-10775
▁장난감	-10776
▁재밋어	-10777
▁전쟁이	-10778
▁지브리	-10779
▁지하철	-10780
▁진행이	-10781
▁최고라	-10782
▁치고는	-10783
▁하는것	-10784
▁하려고	-10785
▁한국어	-10786
▁홍금보	-10787
▁황비홍	-10788
기대하고	-10789
만든영화	-10790
만들어도	-10791
배우들도	-10792
이라는걸	-10793
적이지도	-10794
~!!!!	-10795
▁2008	-10796
▁http	-10797
▁그래픽은	-10798
▁나발이고	-10799
▁다른영화	-10800
▁담담하게	-10801
▁메세지는	-10802
▁명작이라	-10803
▁보다보다	-10804
▁분위기의	-10805
▁사랑스런	-10806
▁생각하며	-10807
▁심사위원	-10808
▁어른들이	-10809
▁여자들의	-10810
▁오그라들	-10811
▁이연걸의	-10812
▁인간들은	-10813
▁인터스텔	-10814
▁있었다니	-10815
▁작품성은	-10816
▁전문성우	-10817
▁좋아한다	-10818
▁주인공과	-10819
▁코스프레	-10820
▁개인적으론	-10821
▁끝날때까지	-10822
▁대한민국의	-10823
▁어처구니가	-10824
▁재미없다는	-10825
▁지금까지도	-10826
▁한국영화가	-10827
ᄏᄏᄏᄏᄏᄏᄏᄏᄏᄏᄏᄏᄏ	-10828
78	-10829
>>	-10830
og	-10831
▁뚱	-10832
▁뺨	-10833
▁쉐	-10834
▁헨	-10835
▁횡	-10836
갖고	-10837
겠군	-10838
공이	-10839
구석	-10840
근래	-10841
기면	-10842
기업	-10843
끼고	-10844
날이	-10845
너스	-10846
는걸	-10847
대도	-10848
동네	-10849
라를	-10850
롯데	-10851
마른	-10852
물도	-10853
미래	-10854
분명	-10855
블랙	-10856
비스	-10857
사냥	-10858
성공	-10859
셉션	-10860
스틸	-10861
쓴다	-10862
역이	-10863
올린	-10864
운이	-10865
움과	-10866
위의	-10867
일때	-10868
일지	-10869
자랑	-10870
자신	-10871
주에	-10872
질수	-10873
짜는	-10874
책을	-10875
쳤던	-10876
칼렛	-10877
코가	-10878
텔링	-10879
폭행	-10880
행을	-10881
.!!	-10882
200	-10883
▁3,	-10884
▁my	-10885
▁st	-10886
▁가미	-10887
▁고려	-10888
▁공존	-10889
▁구로	-10890
▁구매	-10891
▁기차	-10892
▁너는	-10893
▁높이	-10894
▁눈부	-10895
▁다케	-10896
▁데려	-10897
▁도덕	-10898
▁돈도	-10899
▁들려	-10900
▁라스	-10901
▁류의	-10902
▁르네	-10903
▁모냐	-10904
▁뭔데	-10905
▁보임	-10906
▁부여	-10907
▁붉은	-10908
▁빅뱅	-10909
▁삽입	-10910
▁상식	-10911
▁순정	-10912
▁실컷	-10913
▁십점	-10914
▁안젤	-10915
▁알리	-10916
▁애를	-10917
▁얼른	-10918
▁에니	-10919
▁연장	-10920
▁옹호	-10921
▁우익	-10922
▁원맨	-10923
▁제법	-10924
▁진보	-10925
▁짱구	-10926
▁쫄깃	-10927
▁참혹	-10928
▁처참	-10929
▁추잡	-10930
▁해줄	-10931
▁향해	-10932
가는게	-10933
가족이	-10934
겠더라	-10935
남는다	-10936
났는데	-10937
느와르	-10938
된다는	-10939
만큼도	-10940
버려서	-10941
버렸음	-10942
시대를	-10943
아니야	-10944
어보이	-10945
윌리스	-10946
이상실	-10947
잇어요	-10948
점이지	-10949
졌는데	-10950
주는게	-10951
평점에	-10952
하군요	-10953
하라는	-10954
하지는	-10955
합니까	-10956
해준다	-10957
▁가득찬	-10958
▁그레이	-10959
▁남편이	-10960
▁납니다	-10961
▁대박이	-10962
▁돌아오	-10963
▁된다고	-10964
▁드니로	-10965
▁리암니	-10966
▁마음은	-10967
▁많았던	-10968
▁맞추기	-10969
▁목숨을	-10970
▁묘하게	-10971
▁무책임	-10972
▁묵직한	-10973
▁배경은	-10974
▁보자고	-10975
▁본인이	-10976
▁봐줄만	-10977
▁봤다고	-10978
▁뻔해서	-10979
▁사라져	-10980
▁성룡이	-10981
▁세계를	-10982
▁스칼렛	-10983
▁실망한	-10984
▁안가고	-10985
▁안되요	-10986
▁알아서	-10987
▁어딘가	-10988
▁어벤져	-10989
▁어색함	-10990
▁어설픔	-10991
▁어울리	-10992
▁영구와	-10993
▁영화죠	-10994
▁와닿는	-10995
▁외로운	-10996
▁웃기지	-10997
▁이은주	-10998
▁잘봤다	-10999
▁잘해서	-11000
▁전도연	-11001
▁전세계	-11002
▁정신을	-11003
▁주고싶	-11004
▁주제로	-11005
▁즐겁다	-11006
▁지대로	-11007
▁찝찝한	-11008
▁추악한	-11009
▁취향은	-11010
▁코믹한	-11011
▁클라스	-11012
▁한계가	-11013
▁한예슬	-11014
라는건지	-11015
볼수있는	-11016
재미있고	-11017
재밌네요	-11018
▁2001	-11019
▁공감되는	-11020
▁꺼버렸다	-11021
▁남자들이	-11022
▁돌아가고	-11023
▁몰입감이	-11024
▁못미치는	-11025
▁묻어나는	-11026
▁미스테리	-11027
▁볼거리가	-11028
▁볼거리도	-11029
▁불러일으	-11030
▁사람으로	-11031
▁솔직하게	-11032
▁스릴러가	-11033
▁신기하다	-11034
▁실망했다	-11035
▁쓰레기들	-11036
▁아이들을	-11037
▁않았으면	-11038
▁알게해준	-11039
▁알바들이	-11040
▁어머니의	-11041
▁어색하다	-11042
▁없었다면	-11043
▁여자들은	-11044
▁영화로서	-11045
▁왠만해선	-11046
▁유치뽕짝	-11047
▁이게뭐야	-11048
▁작위적인	-11049
▁전개되는	-11050
▁좋아지는	-11051
▁짜증나네	-11052
▁서프라이즈	-11053
▁잘만들어진	-11054
▁재밌게봤다	-11055
▁중간중간에	-11056
▁지루하지않고	-11057
▁감동적이었습니다	-11058
..............	-11059
0-	-11060
?'	-11061
▁끓	-11062
▁왈	-11063
▁퉤	-11064
가나	-11065
가수	-11066
거림	-11067
경은	-11068
고를	-11069
권을	-11070
균형	-11071
글고	-11072
깜짝	-11073
끄고	-11074
나를	-11075
드러	-11076
등을	-11077
디젤	-11078
때메	-11079
라구	-11080
란이	-11081
랑이	-11082
로선	-11083
료가	-11084
류가	-11085
만세	-11086
맛에	-11087
무가	-11088
밀리	-11089
바다	-11090
바른	-11091
방법	-11092
보나	-11093
보잡	-11094
본거	-11095
부탁	-11096
소니	-11097
속이	-11098
순위	-11099
씬도	-11100
여름	-11101
오버	-11102
을꺼	-11103
이즈	-11104
입견	-11105
작정	-11106
주니	-11107
죽음	-11108
지와	-11109
추고	-11110
치콕	-11111
타령	-11112
탄탄	-11113
하트	-11114
항상	-11115
행크	-11116
^_^	-11117
ent	-11118
▁//	-11119
▁ᄀᄀ	-11120
▁가자	-11121
▁강조	-11122
▁개떡	-11123
▁거울	-11124
▁건축	-11125
▁게리	-11126
▁고정	-11127
▁귀가	-11128
▁꿈에	-11129
▁끄는	-11130
▁남음	-11131
▁낫지	-11132
▁낮음	-11133
▁너네	-11134
▁넣어	-11135
▁노예	-11136
▁대여	-11137
▁더한	-11138
▁데드	-11139
▁독백	-11140
▁돌이	-11141
▁되새	-11142
▁뚜렷	-11143
▁먼지	-11144
▁미사	-11145
▁미성	-11146
▁박지	-11147
▁별이	-11148
▁볼땐	-11149
▁삼가	-11150
▁성경	-11151
▁승화	-11152
▁시민	-11153
▁썰렁	-11154
▁씨네	-11155
▁아야	-11156
▁안고	-11157
▁어둠	-11158
▁에너	-11159
▁여지	-11160
▁운동	-11161
▁이랬	-11162
▁잇는	-11163
▁잘만	-11164
▁잘보	-11165
▁저녁	-11166
▁적응	-11167
▁정부	-11168
▁지우	-11169
▁진화	-11170
▁창조	-11171
▁청년	-11172
▁호소	-11173
▁활약	-11174
▁훈련	-11175
▁희한	-11176
갔으면	-11177
기보다	-11178
났어요	-11179
년대의	-11180
되면서	-11181
마무리	-11182
마음을	-11183
보다니	-11184
분보고	-11185
성있는	-11186
안타깝	-11187
았다는	-11188
웃기고	-11189
으라고	-11190
이란걸	-11191
이면서	-11192
작가가	-11193
장면을	-11194
재밌는	-11195
죽는줄	-11196
지못한	-11197
oooo	-11198
▁and	-11199
▁가는줄	-11200
▁가만히	-11201
▁같기도	-11202
▁개인의	-11203
▁나온거	-11204
▁넘치고	-11205
▁느끼지	-11206
▁달콤한	-11207
▁당신을	-11208
▁당하고	-11209
▁뒤집어	-11210
▁마누라	-11211
▁말아라	-11212
▁말이지	-11213
▁말할수	-11214
▁무서웠	-11215
▁미국판	-11216
▁민망한	-11217
▁버리는	-11218
▁보기도	-11219
▁봤었던	-11220
▁분노의	-11221
▁비중이	-11222
▁사건을	-11223
▁사다코	-11224
▁신기한	-11225
▁아오이	-11226
▁않는데	-11227
▁영화판	-11228
▁예상치	-11229
▁와닿지	-11230
▁와이프	-11231
▁유머와	-11232
▁이름만	-11233
▁이연희	-11234
▁일이다	-11235
▁있는거	-11236
▁잘했다	-11237
▁전작의	-11238
▁정도껏	-11239
▁졸았다	-11240
▁주려고	-11241
▁죽을뻔	-11242
▁최초로	-11243
▁클린트	-11244
▁프레디	-11245
▁하나님	-11246
▁한다면	-11247
▁한번만	-11248
▁한사람	-11249
▁힘든데	-11250
앞으로도	-11251
이라지만	-11252
?????	-11253
▁1000	-11254
▁가슴으로	-11255
▁너무하다	-11256
▁대작이다	-11257
▁떠올리게	-11258
▁러브라인	-11259
▁무언가를	-11260
▁보았지만	-11261
▁볼만하고	-11262
▁봐야한다	-11263
▁불편하다	-11264
▁브래드피	-11265
▁생각나네	-11266
▁시원하게	-11267
▁신선하다	-11268
▁신선했다	-11269
▁아메리칸	-11270
▁아무래도	-11271
▁아이들도	-11272
▁알수없는	-11273
▁엉망이고	-11274
▁영화처럼	-11275
▁외계인이	-11276
▁작품인데	-11277
▁정신건강	-11278
▁조잡하고	-11279
▁주연으로	-11280
▁중국영화	-11281
▁지루해요	-11282
▁포스터는	-11283
▁휴머니즘	-11284
영화중에서	-11285
▁것만으로도	-11286
▁공포영화를	-11287
▁공포영화의	-11288
▁시나리오는	-11289
▁않았습니다	-11290
▁여주인공은	-11291
ᄏᄏᄏᄏᄏᄏᄏᄏᄏᄏ	-11292
18	-11293
ap	-11294
▁)	-11295
▁*	-11296
가루	-11297
게리	-11298
고요	-11299
깁슨	-11300
끝에	-11301
낮지	-11302
단다	-11303
대서	-11304
드벤	-11305
로봇	-11306
망한	-11307
맨이	-11308
메오	-11309
모니	-11310
바탕	-11311
보비	-11312
본듯	-11313
볼타	-11314
뿐인	-11315
사무	-11316
사상	-11317
색이	-11318
선가	-11319
설명	-11320
아놔	-11321
안함	-11322
애기	-11323
역에	-11324
욕을	-11325
운동	-11326
유쾌	-11327
은혜	-11328
이웃	-11329
재가	-11330
점의	-11331
졌고	-11332
집중	-11333
차고	-11334
터가	-11335
팬더	-11336
편만	-11337
하든	-11338
한심	-11339
회를	-11340
OST	-11341
ery	-11342
▁감당	-11343
▁갑갑	-11344
▁강제	-11345
▁개발	-11346
▁괜춘	-11347
▁김동	-11348
▁꼽을	-11349
▁끝냈	-11350
▁나눠	-11351
▁낳은	-11352
▁눈과	-11353
▁닮은	-11354
▁당최	-11355
▁댄스	-11356
▁동일	-11357
▁땀을	-11358
▁마마	-11359
▁마츠	-11360
▁못지	-11361
▁무덤	-11362
▁미군	-11363
▁믿겨	-11364
▁반개	-11365
▁버티	-11366
▁보나	-11367
▁보호	-11368
▁봐주	-11369
▁부를	-11370
▁비명	-11371
▁비유	-11372
▁사전	-11373
▁사토	-11374
▁서인	-11375
▁선수	-11376
▁소림	-11377
▁스탤	-11378
▁습작	-11379
▁어딨	-11380
▁욕먹	-11381
▁유리	-11382
▁이슈	-11383
▁입고	-11384
▁자존	-11385
▁저의	-11386
▁조쉬	-11387
▁조여	-11388
▁조직	-11389
▁주면	-11390
▁진솔	-11391
▁질투	-11392
▁파란	-11393
▁평은	-11394
▁필모	-11395
▁한물	-11396
▁후기	-11397
녀유혼	-11398
는거임	-11399
다니고	-11400
대사가	-11401
밖에는	-11402
보라고	-11403
빠지는	-11404
씬에서	-11405
아닌듯	-11406
안타까	-11407
에게서	-11408
왜이리	-11409
위에서	-11410
있어야	-11411
자들을	-11412
적이며	-11413
점드림	-11414
줬는데	-11415
하겠지	-11416
하던가	-11417
했어도	-11418
,...	-11419
▁각자의	-11420
▁괴물이	-11421
▁그때는	-11422
▁그랬다	-11423
▁극적인	-11424
▁김강우	-11425
▁김하늘	-11426
▁눈빛이	-11427
▁다니는	-11428
▁다른거	-11429
▁답답함	-11430
▁대사들	-11431
▁만드나	-11432
▁망쳤다	-11433
▁망치는	-11434
▁못생겼	-11435
▁반전과	-11436
▁보여서	-11437
▁볼수가	-11438
▁부끄럽	-11439
▁빨리감	-11440
▁소년의	-11441
▁스릴감	-11442
▁슬픔이	-11443
▁신현준	-11444
▁아쉬워	-11445
▁어느새	-11446
▁어찌나	-11447
▁없을까	-11448
▁역할이	-11449
▁연출한	-11450
▁원맨쇼	-11451
▁위하여	-11452
▁이동욱	-11453
▁이러한	-11454
▁이름값	-11455
▁익숙한	-11456
▁저것도	-11457
▁좋아하	-11458
▁죽이네	-11459
▁중반부	-11460
▁집어넣	-11461
▁짜여진	-11462
▁짧아서	-11463
▁철학적	-11464
▁청춘의	-11465
▁캐서린	-11466
▁틀어주	-11467
▁펑펑울	-11468
▁플레이	-11469
▁하시는	-11470
▁행동이	-11471
▁행복해	-11472
▁흐름을	-11473
▁힘들어	-11474
봤었는데	-11475
이영화를	-11476
재밌는데	-11477
점이라니	-11478
점입니다	-11479
하지않은	-11480
하하하하	-11481
▁감동으로	-11482
▁그나저나	-11483
▁깨달았다	-11484
▁깨알같은	-11485
▁나오는지	-11486
▁드림웍스	-11487
▁들어가는	-11488
▁몇안되는	-11489
▁모르겟다	-11490
▁무척이나	-11491
▁반성해라	-11492
▁별반개도	-11493
▁실화라는	-11494
▁심심할때	-11495
▁아니었음	-11496
▁안되는데	-11497
▁안봤는데	-11498
▁안봤으면	-11499
▁안봤지만	-11500
▁않았는데	-11501
▁액션으로	-11502
▁어땠을까	-11503
▁였습니다	-11504
▁영상으로	-11505
▁영화인거	-11506
▁왜이러지	-11507
▁잔인하게	-11508
▁잔잔하니	-11509
▁중에서도	-11510
▁최곱니다	-11511
▁출연하는	-11512
▁틀림없다	-11513
▁프레데터	-11514
▁하기에는	-11515
보고있어요	-11516
▁개봉했을때	-11517
▁객관적으로	-11518
▁뒤로갈수록	-11519
▁드라마에서	-11520
▁드라마에요	-11521
▁드라마였다	-11522
▁생각나네요	-11523
▁생각하는데	-11524
▁시간아까움	-11525
▁시나리오와	-11526
▁아니었으면	-11527
▁억지스럽다	-11528
▁엑소시스트	-11529
▁오랜만이다	-11530
▁지루하다고	-11531
▁말이필요없는	-11532
.~	-11533
56	-11534
CN	-11535
ul	-11536
▁눌	-11537
▁솜	-11538
▁윈	-11539
▁잣	-11540
▁쭈	-11541
▁텅	-11542
▁팽	-11543
▁흰	-11544
단순	-11545
더의	-11546
도못	-11547
둘이	-11548
란걸	-11549
래야	-11550
려도	-11551
르다	-11552
린거	-11553
마치	-11554
말은	-11555
미녀	-11556
본방	-11557
볼때	-11558
봣음	-11559
봤자	-11560
분히	-11561
선물	-11562
선의	-11563
시걸	-11564
시티	-11565
아담	-11566
아역	-11567
알려	-11568
애를	-11569
약간	-11570
엇던	-11571
엉망	-11572
엉성	-11573
이것	-11574
일체	-11575
잇음	-11576
장님	-11577
짓게	-11578
초등	-11579
태웅	-11580
테니	-11581
트에	-11582
파괴	-11583
해짐	-11584
현우	-11585
현이	-11586
흥행	-11587
1,2	-11588
^^;	-11589
▁1.	-11590
▁경이	-11591
▁교차	-11592
▁기도	-11593
▁기사	-11594
▁나갈	-11595
▁날로	-11596
▁눈만	-11597
▁뉴스	-11598
▁당췌	-11599
▁대책	-11600
▁동정	-11601
▁된게	-11602
▁디아	-11603
▁라면	-11604
▁레드	-11605
▁마사	-11606
▁마크	-11607
▁맛에	-11608
▁매튜	-11609
▁메리	-11610
▁문학	-11611
▁발휘	-11612
▁배틀	-11613
▁보네	-11614
▁볼걸	-11615
▁볼꺼	-11616
▁봐요	-11617
▁봤어	-11618
▁부럽	-11619
▁부자	-11620
▁분은	-11621
▁빨아	-11622
▁빼놓	-11623
▁뽑아	-11624
▁서극	-11625
▁서민	-11626
▁수치	-11627
▁시스	-11628
▁식의	-11629
▁쌍팔	-11630
▁써도	-11631
▁써야	-11632
▁아따	-11633
▁아랫	-11634
▁아키	-11635
▁악의	-11636
▁어의	-11637
▁어줍	-11638
▁언급	-11639
▁에반	-11640
▁옹박	-11641
▁외엔	-11642
▁자라	-11643
▁잠든	-11644
▁장쯔	-11645
▁재주	-11646
▁전무	-11647
▁좌파	-11648
▁지니	-11649
▁차지	-11650
▁창작	-11651
▁채우	-11652
▁총쏘	-11653
▁최저	-11654
▁최종	-11655
▁크고	-11656
▁토이	-11657
▁패턴	-11658
▁표본	-11659
▁합리	-11660
▁흔히	-11661
감동을	-11662
기분이	-11663
년이나	-11664
랍시고	-11665
몰입도	-11666
봅시다	-11667
소재로	-11668
십시오	-11669
안나오	-11670
없으면	-11671
연기잘	-11672
이나마	-11673
일까요	-11674
점수는	-11675
키드먼	-11676
하나는	-11677
하나의	-11678
하라고	-11679
해서는	-11680
▁거리가	-11681
▁그리스	-11682
▁꼭봐라	-11683
▁끝나지	-11684
▁끝으로	-11685
▁나오게	-11686
▁나이트	-11687
▁남자들	-11688
▁더빙도	-11689
▁따듯한	-11690
▁따라한	-11691
▁만점을	-11692
▁몇년이	-11693
▁못하게	-11694
▁뭔가를	-11695
▁배급사	-11696
▁보기전	-11697
▁볼만은	-11698
▁빡쳐서	-11699
▁빵터짐	-11700
▁사로잡	-11701
▁사실에	-11702
▁섹시한	-11703
▁소리를	-11704
▁수준급	-11705
▁슬프게	-11706
▁아마도	-11707
▁아쉽긴	-11708
▁애절한	-11709
▁약간은	-11710
▁어려울	-11711
▁엄마와	-11712
▁열정이	-11713
▁영혼을	-11714
▁영화면	-11715
▁예술을	-11716
▁오로라	-11717
▁유머가	-11718
▁이건머	-11719
▁이나영	-11720
▁자체를	-11721
▁장르에	-11722
▁재해석	-11723
▁저급한	-11724
▁제작된	-11725
▁줄리엣	-11726
▁초반의	-11727
▁크루즈	-11728
▁터무니	-11729
▁톰행크	-11730
▁하고싶	-11731
▁하이킥	-11732
▁한국은	-11733
▁한정된	-11734
▁환상의	-11735
▁흘러도	-11736
▁희망이	-11737
우면서도	-11738
임파서블	-11739
주인공의	-11740
....?	-11741
▁2002	-11742
▁감독님이	-11743
▁거부감이	-11744
▁그래픽도	-11745
▁그런대로	-11746
▁깔끔하게	-11747
▁끝내준다	-11748
▁나오면서	-11749
▁능가하는	-11750
▁드라마임	-11751
▁만드는게	-11752
▁멋있었다	-11753
▁못하지만	-11754
▁못했지만	-11755
▁무서웠음	-11756
▁무섭다고	-11757
▁미치겠다	-11758
▁보기드문	-11759
▁보면서도	-11760
▁분명하다	-11761
▁사랑이란	-11762
▁사실적인	-11763
▁수준이다	-11764
▁스타일이	-11765
▁안됩니다	-11766
▁알고보니	-11767
▁없었지만	-11768
▁영화일뿐	-11769
▁이때까지	-11770
▁이정도는	-11771
▁인내심을	-11772
▁잊을수가	-11773
▁주옥같은	-11774
▁코미디로	-11775
▁후반으로	-11776
점준것중에	-11777
▁기대합니다	-11778
▁나왔습니다	-11779
▁느꼈습니다	-11780
▁모르겠으나	-11781
▁우리나라에	-11782
▁잔잔하면서	-11783
▁지루하지도	-11784
▁최악입니다	-11785
▁캐릭터들의	-11786
▁페이크다큐	-11787
▁무슨내용인지	-11788
ᄏᄏᄏᄏᄏᄏᄏᄏᄏᄏᄏ	-11789
ᄏᄏᄏᄏᄏᄏᄏᄏᄏᄏᄏᄏ	-11790
>_	-11791
us	-11792
ᄀᄀ	-11793
▁꽁	-11794
▁덩	-11795
▁랩	-11796
감각	-11797
개로	-11798
구로	-11799
나머	-11800
날에	-11801
년은	-11802
달러	-11803
대충	-11804
대표	-11805
동엽	-11806
되냐	-11807
됬다	-11808
력과	-11809
리브	-11810
리어	-11811
림을	-11812
마니	-11813
마의	-11814
말에	-11815
물고	-11816
미와	-11817
부대	-11818
부르	-11819
비의	-11820
순례	-11821
슬픔	-11822
시즘	-11823
심과	-11824
아자	-11825
어낸	-11826
연습	-11827
외국	-11828
인기	-11829
장창	-11830
조절	-11831
준이	-11832
지기	-11833
진지	-11834
키의	-11835
탄은	-11836
풀이	-11837
피니	-11838
하듯	-11839
현지	-11840
홍콩	-11841
회의	-11842
히히	-11843
▁+1	-11844
▁95	-11845
▁97	-11846
▁거대	-11847
▁건너	-11848
▁고수	-11849
▁괴작	-11850
▁귀에	-11851
▁껏다	-11852
▁놓친	-11853
▁닌자	-11854
▁다듬	-11855
▁단점	-11856
▁동방	-11857
▁되길	-11858
▁디지	-11859
▁많지	-11860
▁말지	-11861
▁망쳤	-11862
▁맞은	-11863
▁무미	-11864
▁문근	-11865
▁봣다	-11866
▁부인	-11867
▁붙여	-11868
▁빌리	-11869
▁사귀	-11870
▁사막	-11871
▁서세	-11872
▁수애	-11873
▁스탈	-11874
▁싶네	-11875
▁써라	-11876
▁썩은	-11877
▁쏠쏠	-11878
▁씬은	-11879
▁아웃	-11880
▁안달	-11881
▁안됐	-11882
▁안티	-11883
▁어렷	-11884
▁오다	-11885
▁오싹	-11886
▁우수	-11887
▁운운	-11888
▁이길	-11889
▁이라	-11890
▁인연	-11891
▁자칫	-11892
▁작정	-11893
▁잡은	-11894
▁전통	-11895
▁제한	-11896
▁줄은	-11897
▁중구	-11898
▁중세	-11899
▁지도	-11900
▁진주	-11901
▁질문	-11902
▁짧고	-11903
▁찡한	-11904
▁크리	-11905
▁터져	-11906
▁통틀	-11907
▁트루	-11908
▁파멸	-11909
▁픽사	-11910
▁필수	-11911
▁한건	-11912
▁한결	-11913
▁한수	-11914
▁현빈	-11915
▁화해	-11916
▁후유	-11917
년이지	-11918
다보니	-11919
들과는	-11920
렸지만	-11921
리우드	-11922
메이징	-11923
무서운	-11924
버렸네	-11925
상으로	-11926
어야할	-11927
연기와	-11928
예전에	-11929
오히려	-11930
이쁘다	-11931
이없다	-11932
인들은	-11933
인트가	-11934
자마자	-11935
작품이	-11936
지금은	-11937
지않을	-11938
하던지	-11939
해놓은	-11940
했었다	-11941
ᄋᄋᄋᄋ	-11942
▁가운데	-11943
▁각본과	-11944
▁같다는	-11945
▁결론이	-11946
▁고맙다	-11947
▁관계를	-11948
▁그러지	-11949
▁그리운	-11950
▁극장서	-11951
▁기대해	-11952
▁기억은	-11953
▁김태희	-11954
▁나라의	-11955
▁나았다	-11956
▁나한테	-11957
▁놈들이	-11958
▁니들은	-11959
▁단언컨	-11960
▁대단함	-11961
▁들어오	-11962
▁때우기	-11963
▁막장의	-11964
▁몰라서	-11965
▁못된다	-11966
▁무리수	-11967
▁보네요	-11968
▁복수가	-11969
▁봐야함	-11970
▁봤을땐	-11971
▁분노가	-11972
▁사건의	-11973
▁설레는	-11974
▁성유리	-11975
▁순간이	-11976
▁슬픔을	-11977
▁싸우고	-11978
▁안난다	-11979
▁얼굴을	-11980
▁없다면	-11981
▁없을듯	-11982
▁엔딩곡	-11983
▁연기나	-11984
▁영상을	-11985
▁욕하는	-11986
▁웃음도	-11987
▁음악의	-11988
▁이런것	-11989
▁이순신	-11990
▁이해는	-11991
▁일본식	-11992
▁일어난	-11993
▁있었나	-11994
▁작품도	-11995
▁잔혹한	-11996
▁장근석	-11997
▁재밌긴	-11998
▁전편에	-11999
▁제정신	-12000
▁졸려서	-12001
▁죽어서	-12002
▁중국의	-12003
▁지겨운	-12004
▁지저분	-12005
▁진하게	-12006
▁첨본다	-12007
▁추천함	-12008
▁카타르	-12009
▁특히나	-12010
▁하는가	-12011
▁허접함	-12012
▁후회할	-12013
▁히치콕	-12014
스럽지만	-12015
이야기가	-12016
인거같다	-12017
재미있는	-12018
지금까지	-12019
지않았다	-12020
처음부터	-12021
▁love	-12022
▁개연성은	-12023
▁관람불가	-12024
▁관점에서	-12025
▁군대에서	-12026
▁극단적인	-12027
▁말할것도	-12028
▁무언가가	-12029
▁불편하고	-12030
▁사랑스러	-12031
▁사랑하게	-12032
▁상상력을	-12033
▁생각하지	-12034
▁샤론스톤	-12035
▁선생님이	-12036
▁식상하고	-12037
▁싶은건지	-12038
▁아니겠지	-12039
▁안나와서	-12040
▁안하는데	-12041
▁알면서도	-12042
▁여고괴담	-12043
▁욕나오는	-12044
▁욕하면서	-12045
▁용두사미	-12046
▁최고였음	-12047
▁한순간도	-12048
▁허무하다	-12049
▁현실에서	-12050
▁흥미롭다	-12051
▁가면갈수록	-12052
▁드라마보다	-12053
▁몰입하면서	-12054
▁보면볼수록	-12055
▁수작입니다	-12056
▁아름다움을	-12057
▁아름다웠던	-12058
▁영화관가서	-12059
▁영화인데도	-12060
▁이스트우드	-12061
▁이영화에서	-12062
▁지루하네요	-12063
▁처음입니다	-12064
▁평론가들은	-12065
▁행복해지는	-12066
▁애니메이션을	-12067
▁영화보는내내	-12068
▁ᄏᄏᄏᄏᄏᄏᄏᄏᄏᄏᄏᄏᄏ	-12069
ak	-12070
▁겸	-12071
▁밟	-12072
▁뽕	-12073
▁쉣	-12074
▁져	-12075
개월	-12076
게이	-12077
기스	-12078
꺼라	-12079
나왓	-12080
나잇	-12081
남편	-12082
내면	-12083
느님	-12084
대결	-12085
대작	-12086
동석	-12087
동일	-12088
등록	-12089
래원	-12090
렬한	-12091
리얼	-12092
린지	-12093
릴수	-12094
맞음	-12095
메다	-12096
몸매	-12097
반도	-12098
방에	-12099
별점	-12100
빠다	-12101
뻔함	-12102
셔요	-12103
슈퍼	-12104
스텝	-12105
식상	-12106
신지	-12107
실한	-12108
아르	-12109
아팠	-12110
알게	-12111
없구	-12112
영원	-12113
우와	-12114
우울	-12115
은이	-12116
음의	-12117
인칭	-12118
입장	-12119
적일	-12120
절히	-12121
조선	-12122
중인	-12123
지식	-12124
찾기	-12125
처리	-12126
칠때	-12127
코의	-12128
탄을	-12129
태규	-12130
통쾌	-12131
트와	-12132
포로	-12133
포장	-12134
표를	-12135
피의	-12136
필드	-12137
햇음	-12138
허허	-12139
형사	-12140
호는	-12141
환이	-12142
훈이	-12143
..3	-12144
ant	-12145
▁22	-12146
▁35	-12147
▁각인	-12148
▁갈아	-12149
▁갑작	-12150
▁고로	-12151
▁고현	-12152
▁공개	-12153
▁과한	-12154
▁광팬	-12155
▁글구	-12156
▁낚임	-12157
▁날이	-12158
▁낮추	-12159
▁낯선	-12160
▁넘버	-12161
▁달아	-12162
▁당당	-12163
▁대변	-12164
▁동의	-12165
▁등이	-12166
▁똥폼	-12167
▁맞음	-12168
▁매년	-12169
▁메인	-12170
▁명예	-12171
▁못볼	-12172
▁무거	-12173
▁미달	-12174
▁바가	-12175
▁발생	-12176
▁복제	-12177
▁볼껄	-12178
▁불만	-12179
▁사형	-12180
▁삼국	-12181
▁서정	-12182
▁선교	-12183
▁성괴	-12184
▁소방	-12185
▁소비	-12186
▁시덥	-12187
▁신부	-12188
▁신성	-12189
▁실존	-12190
▁안목	-12191
▁안전	-12192
▁안죽	-12193
▁압축	-12194
▁에어	-12195
▁연계	-12196
▁온다	-12197
▁완소	-12198
▁의아	-12199
▁일은	-12200
▁잃지	-12201
▁있죠	-12202
▁자제	-12203
▁잘난	-12204
▁잘된	-12205
▁잘라	-12206
▁재기	-12207
▁재일	-12208
▁정점	-12209
▁줘서	-12210
▁줬다	-12211
▁지닌	-12212
▁칼로	-12213
▁키워	-12214
▁터짐	-12215
▁프렌	-12216
▁한쪽	-12217
▁호감	-12218
▁휴지	-12219
각기동	-12220
간다는	-12221
갔다가	-12222
것같고	-12223
극장판	-12224
날로그	-12225
남자의	-12226
녀석들	-12227
되는거	-12228
몰라도	-12229
뮤지컬	-12230
비슷한	-12231
사랑해	-12232
선생님	-12233
수없다	-12234
슬프고	-12235
아아아	-12236
없다고	-12237
엇지만	-12238
연기자	-12239
였다는	-12240
였다니	-12241
일라잇	-12242
자에게	-12243
장면만	-12244
점이면	-12245
점인데	-12246
정신이	-12247
중인데	-12248
지는데	-12249
치도록	-12250
크리스	-12251
터지는	-12252
할수있	-12253
화부터	-12254
!!^^	-12255
▁OCN	-12256
▁각각의	-12257
▁귀요미	-12258
▁그녀는	-12259
▁그러면	-12260
▁급전개	-12261
▁나라가	-12262
▁나쁘진	-12263
▁나쁜놈	-12264
▁노래만	-12265
▁다같이	-12266
▁더빙을	-12267
▁듣보잡	-12268
▁들었음	-12269
▁러브라	-12270
▁많았다	-12271
▁말이죠	-12272
▁말하지	-12273
▁먹칠을	-12274
▁멋있어	-12275
▁모두다	-12276
▁무식한	-12277
▁방식이	-12278
▁별볼일	-12279
▁보다도	-12280
▁보시는	-12281
▁봤다니	-12282
▁분들께	-12283
▁살인을	-12284
▁새롭고	-12285
▁서서히	-12286
▁성우를	-12287
▁시선을	-12288
▁신세경	-12289
▁아들의	-12290
▁안들어	-12291
▁어떨까	-12292
▁엄마는	-12293
▁없더라	-12294
▁여성의	-12295
▁역부족	-12296
▁역사의	-12297
▁연출로	-12298
▁와진짜	-12299
▁완벽히	-12300
▁완전한	-12301
▁왔어요	-12302
▁왜이럼	-12303
▁요소는	-12304
▁용서가	-12305
▁울었음	-12306
▁유아용	-12307
▁이러니	-12308
▁이리도	-12309
▁이만큼	-12310
▁이모양	-12311
▁이뻐요	-12312
▁인기가	-12313
▁있겠다	-12314
▁자기만	-12315
▁재미난	-12316
▁정치적	-12317
▁죽음의	-12318
▁차가운	-12319
▁처음봄	-12320
▁천재다	-12321
▁철없는	-12322
▁하야오	-12323
▁하여금	-12324
▁한국형	-12325
▁해리슨	-12326
▁했다는	-12327
▁홍진호	-12328
▁후에도	-12329
▁흔적이	-12330
기보다는	-12331
드라마로	-12332
시리즈중	-12333
쓰레기다	-12334
이드라마	-12335
이었는데	-12336
▁개봉하는	-12337
▁거슬린다	-12338
▁기준으로	-12339
▁끊임없이	-12340
▁나온다는	-12341
▁남자배우	-12342
▁내용이나	-12343
▁돌아가는	-12344
▁만들겠다	-12345
▁만들었던	-12346
▁멋지네요	-12347
▁모두에게	-12348
▁무의미한	-12349
▁별로지만	-12350
▁상업영화	-12351
▁생각된다	-12352
▁생각해요	-12353
▁생생하게	-12354
▁생생하다	-12355
▁스릴러는	-12356
▁스포일러	-12357
▁아버지를	-12358
▁안된다는	-12359
▁알았지만	-12360
▁어벤져스	-12361
▁어이없네	-12362
▁어정쩡한	-12363
▁영화니까	-12364
▁영화들을	-12365
▁옴니버스	-12366
▁와닿는다	-12367
▁완성도를	-12368
▁원작보다	-12369
▁이야기와	-12370
▁인상깊은	-12371
▁있는것도	-12372
▁있었어요	-12373
▁있었을까	-12374
▁줄거리에	-12375
▁지금보니	-12376
▁진정으로	-12377
▁질질끌고	-12378
▁촌스럽고	-12379
▁코미디를	-12380
▁크리스틴	-12381
▁필요할까	-12382
▁후회하지	-12383
하지마세요	-12384
;;;;;;	-12385
▁괜찮았어요	-12386
▁대단합니다	-12387
▁더럽게없다	-12388
▁로그인하게	-12389
▁리메이크작	-12390
▁못봐주겠다	-12391
▁볼만하던데	-12392
▁소름돋는다	-12393
▁연기자들의	-12394
▁영화이지만	-12395
▁오그라든다	-12396
▁자연스럽고	-12397
▁정신건강에	-12398
▁좋아했는데	-12399
▁죽여버리고	-12400
▁캐릭터들도	-12401
▁무슨생각으로	-12402
...............	-12403
@@	-12404
lt	-12405
~7	-12406
ᄅᄀ	-12407
▁ᅢ	-12408
▁귓	-12409
▁낄	-12410
▁닐	-12411
▁좁	-12412
▁쬐	-12413
▁쿡	-12414
▁퀸	-12415
겟음	-12416
겟지	-12417
고만	-12418
고에	-12419
관리	-12420
그닥	-12421
길이	-12422
눈에	-12423
돈다	-12424
디에	-12425
러리	-12426
력도	-12427
로얄	-12428
료로	-12429
만원	-12430
못미	-12431
미남	-12432
미달	-12433
바가	-12434
받았	-12435
받지	-12436
밤에	-12437
수님	-12438
어렵	-12439
없냐	-12440
와라	-12441
왠지	-12442
우치	-12443
유미	-12444
이소	-12445
인표	-12446
일도	-12447
전기	-12448
종교	-12449
찍는	-12450
차가	-12451
청춘	-12452
침을	-12453
탈리	-12454
햇던	-12455
▁23	-12456
▁가위	-12457
▁각성	-12458
▁강혜	-12459
▁개빡	-12460
▁걸어	-12461
▁공격	-12462
▁과감	-12463
▁관리	-12464
▁광해	-12465
▁구원	-12466
▁김보	-12467
▁깜찍	-12468
▁꾸준	-12469
▁끌려	-12470
▁낮춰	-12471
▁넘기	-12472
▁네가	-12473
▁녹화	-12474
▁놈이	-12475
▁대리	-12476
▁되었	-12477
▁들을	-12478
▁로긴	-12479
▁마술	-12480
▁맛을	-12481
▁망함	-12482
▁모건	-12483
▁모델	-12484
▁몰래	-12485
▁미워	-12486
▁반가	-12487
▁발랄	-12488
▁방식	-12489
▁분석	-12490
▁불꽃	-12491
▁불사	-12492
▁불우	-12493
▁수업	-12494
▁숨이	-12495
▁스파	-12496
▁싫음	-12497
▁야마	-12498
▁어서	-12499
▁어쩐	-12500
▁여진	-12501
▁역활	-12502
▁오르	-12503
▁옥의	-12504
▁이룬	-12505
▁이뤄	-12506
▁이슬	-12507
▁이요	-12508
▁인공	-12509
▁인식	-12510
▁인줄	-12511
▁작작	-12512
▁장편	-12513
▁정글	-12514
▁조커	-12515
▁쳐다	-12516
▁큰일	-12517
▁클라	-12518
▁튀어	-12519
▁플래	-12520
▁피가	-12521
▁피디	-12522
▁하얀	-12523
▁하필	-12524
▁해적	-12525
▁했네	-12526
▁혹평	-12527
▁희극	-12528
걸까요	-12529
겁니까	-12530
너무낮	-12531
넘치고	-12532
다가도	-12533
라는데	-12534
명이서	-12535
본사람	-12536
분들도	-12537
쓰는데	-12538
아들이	-12539
알바들	-12540
야겠다	-12541
올시다	-12542
요소가	-12543
우주연	-12544
저렇게	-12545
죽이는	-12546
지금도	-12547
픕니다	-12548
할머니	-12549
할영화	-12550
해졌다	-12551
훌륭한	-12552
ight	-12553
▁CGV	-12554
▁가치는	-12555
▁감정의	-12556
▁강호동	-12557
▁개성이	-12558
▁고통을	-12559
▁관객은	-12560
▁그녀를	-12561
▁그러니	-12562
▁그런건	-12563
▁그림이	-12564
▁급하게	-12565
▁김명민	-12566
▁끝나면	-12567
▁끝났다	-12568
▁노래와	-12569
▁당시의	-12570
▁돈아깝	-12571
▁따라가	-12572
▁똑같다	-12573
▁만든것	-12574
▁말한다	-12575
▁멋있음	-12576
▁몸부림	-12577
▁뭐하냐	-12578
▁미국은	-12579
▁미래의	-12580
▁밑에분	-12581
▁바보가	-12582
▁박신혜	-12583
▁배우다	-12584
▁보니깐	-12585
▁본다고	-12586
▁브레이	-12587
▁생각과	-12588
▁서부극	-12589
▁선입견	-12590
▁성격이	-12591
▁스마트	-12592
▁신민아	-12593
▁심했다	-12594
▁아이도	-12595
▁암울한	-12596
▁어드벤	-12597
▁어려서	-12598
▁어쩌고	-12599
▁얼굴도	-12600
▁없구만	-12601
▁없잖아	-12602
▁오늘은	-12603
▁웃기긴	-12604
▁이쁘네	-12605
▁이후의	-12606
▁잔잔함	-12607
▁장난해	-12608
▁장면에	-12609
▁재평가	-12610
▁전설이	-12611
▁좋은거	-12612
▁주말에	-12613
▁죽어도	-12614
▁중구난	-12615
▁중딩때	-12616
▁지구를	-12617
▁최진실	-12618
▁폴워커	-12619
▁프로젝	-12620
▁해놓고	-12621
▁현재의	-12622
▁흥행에	-12623
▁흥행을	-12624
다는건지	-12625
사랑하는	-12626
생각보다	-12627
생각하게	-12628
스토리를	-12629
액션영화	-12630
이라는거	-12631
이야기를	-12632
적으로도	-12633
점이라도	-12634
짜증난다	-12635
할수밖에	-12636
naver	-12637
▁Very	-12638
▁감동감동	-12639
▁괜찮았고	-12640
▁나오길래	-12641
▁내스타일	-12642
▁너무좋다	-12643
▁누구에게	-12644
▁눈물난다	-12645
▁단순하고	-12646
▁드라마틱	-12647
▁리얼하게	-12648
▁명작인데	-12649
▁무서운거	-12650
▁무협영화	-12651
▁미화하는	-12652
▁밋밋하고	-12653
▁배우들로	-12654
▁배우들만	-12655
▁버금가는	-12656
▁보여주지	-12657
▁본영화중	-12658
▁볼거리는	-12659
▁비현실적	-12660
▁사람인데	-12661
▁상황에서	-12662
▁샤를리즈	-12663
▁시리즈로	-12664
▁쓰레기도	-12665
▁아날로그	-12666
▁아니에요	-12667
▁아름다워	-12668
▁안보는데	-12669
▁안쓰는데	-12670
▁안타까울	-12671
▁알수있는	-12672
▁어릴적에	-12673
▁엑스트라	-12674
▁이리저리	-12675
▁인물들이	-12676
▁인상깊다	-12677
▁있어보이	-12678
▁잔잔하다	-12679
▁저평가된	-12680
▁제목부터	-12681
▁줄거리도	-12682
▁짱입니다	-12683
▁천녀유혼	-12684
▁촬영기법	-12685
▁판타지를	-12686
▁풋풋하고	-12687
▁허술하다	-12688
▁화가난다	-12689
▁내용전개가	-12690
▁대단하네요	-12691
▁만들었다면	-12692
▁스토리텔링	-12693
▁쓰레기라고	-12694
▁인상깊었다	-12695
▁작품이라고	-12696
▁재미가없다	-12697
▁조금이나마	-12698
▁해피엔딩이	-12699
인줄알았는데	-12700
▁흥미진진하고	-12701
▁감동적이었어요	-12702
.'	-12703
um	-12704
▁쟁	-12705
▁펑	-12706
걸고	-12707
겁고	-12708
년생	-12709
니잼	-12710
데스	-12711
동물	-12712
돼지	-12713
되었	-12714
들인	-12715
때의	-12716
레드	-12717
레미	-12718
력은	-12719
령이	-12720
론이	-12721
루니	-12722
만옥	-12723
매가	-12724
매의	-12725
면도	-12726
모토	-12727
무라	-12728
뭐임	-12729
봤어	-12730
비밀	-12731
생겼	-12732
선징	-12733
세지	-12734
세한	-12735
셜록	-12736
써서	-12737
아파	-12738
야의	-12739
어보	-12740
어져	-12741
어휴	-12742
여친	-12743
예상	-12744
울고	-12745
웃겼	-12746
유루	-12747
이구	-12748
이더	-12749
자이	-12750
제왕	-12751
주변	-12752
즈를	-12753
증에	-12754
진씨	-12755
짝퉁	-12756
차게	-12757
차기	-12758
크를	-12759
타닉	-12760
평범	-12761
포스	-12762
프다	-12763
희를	-12764
▁->	-12765
▁no	-12766
▁ᄆᄎ	-12767
▁가게	-12768
▁간접	-12769
▁감싸	-12770
▁개쩌	-12771
▁거침	-12772
▁걸레	-12773
▁결투	-12774
▁경기	-12775
▁국뽕	-12776
▁기계	-12777
▁난감	-12778
▁남이	-12779
▁도움	-12780
▁되냐	-12781
▁드립	-12782
▁롯데	-12783
▁리플	-12784
▁마땅	-12785
▁맞고	-12786
▁먹을	-12787
▁며칠	-12788
▁무뇌	-12789
▁무려	-12790
▁미루	-12791
▁밀어	-12792
▁바뀐	-12793
▁발톱	-12794
▁밥먹	-12795
▁배슬	-12796
▁버튼	-12797
▁본적	-12798
▁비가	-12799
▁사나	-12800
▁살기	-12801
▁선전	-12802
▁세트	-12803
▁소문	-12804
▁수퍼	-12805
▁스톤	-12806
▁시기	-12807
▁신앙	-12808
▁씬이	-12809
▁안질	-12810
▁앵글	-12811
▁얄팍	-12812
▁양반	-12813
▁어긋	-12814
▁어깨	-12815
▁연쇄	-12816
▁오덕	-12817
▁오류	-12818
▁외화	-12819
▁원빈	-12820
▁웬만	-12821
▁유작	-12822
▁의존	-12823
▁일드	-12824
▁일방	-12825
▁자빠	-12826
▁작살	-12827
▁잘한	-12828
▁전성	-12829
▁절라	-12830
▁정답	-12831
▁종북	-12832
▁주체	-12833
▁중고	-12834
▁중딩	-12835
▁지리	-12836
▁지원	-12837
▁진자	-12838
▁책도	-12839
▁초콜	-12840
▁택시	-12841
▁투표	-12842
▁해보	-12843
▁향수	-12844
▁홍수	-12845
▁획을	-12846
같지만	-12847
는다면	-12848
리는게	-12849
봤는지	-12850
분들께	-12851
선징악	-12852
소재를	-12853
시간도	-12854
쒸레기	-12855
왔지만	-12856
잔잔한	-12857
정도가	-12858
정도다	-12859
주려고	-12860
줄알고	-12861
척하는	-12862
친구가	-12863
프랑스	-12864
햇지만	-12865
했었던	-12866
▁140	-12867
▁감동에	-12868
▁감정선	-12869
▁개봉작	-12870
▁것들은	-12871
▁곳에서	-12872
▁기괴한	-12873
▁기회를	-12874
▁끔찍한	-12875
▁높네요	-12876
▁눈요기	-12877
▁다가오	-12878
▁다루는	-12879
▁다음에	-12880
▁돋보임	-12881
▁때부터	-12882
▁로버츠	-12883
▁리얼한	-12884
▁매력도	-12885
▁멀쩡한	-12886
▁멋있게	-12887
▁모니터	-12888
▁모처럼	-12889
▁무개념	-12890
▁뭐하러	-12891
▁바라며	-12892
▁박신양	-12893
▁배경을	-12894
▁배우고	-12895
▁보고서	-12896
▁봤으니	-12897
▁빠르고	-12898
▁색감이	-12899
▁생겨서	-12900
▁수작임	-12901
▁수준도	-12902
▁시선이	-12903
▁실망을	-12904
▁안되게	-12905
▁안맞고	-12906
▁알수가	-12907
▁얼굴에	-12908
▁없으며	-12909
▁연결이	-12910
▁와이어	-12911
▁용가리	-12912
▁운명을	-12913
▁이선균	-12914
▁이종석	-12915
▁있기에	-12916
▁작품들	-12917
▁재미업	-12918
▁제목도	-12919
▁조선족	-12920
▁조용한	-12921
▁좋아함	-12922
▁징그러	-12923
▁차원이	-12924
▁철저히	-12925
▁충무로	-12926
▁친구를	-12927
▁티비에	-12928
▁팬인데	-12929
▁평가가	-12930
▁필요는	-12931
▁하나를	-12932
▁했다고	-12933
▁했다면	-12934
▁했어야	-12935
▁허무함	-12936
▁화난다	-12937
▁흥미가	-12938
나왔으면	-12939
무엇보다	-12940
사랑해요	-12941
시리즈는	-12942
아닌가요	-12943
아버지가	-12944
인것같다	-12945
재미없네	-12946
주고싶다	-12947
채널에서	-12948
▁2011	-12949
▁감동까지	-12950
▁계속해서	-12951
▁기억하고	-12952
▁꼭보시길	-12953
▁나오는게	-12954
▁난무하는	-12955
▁난해하다	-12956
▁남는영화	-12957
▁네이버에	-12958
▁다가온다	-12959
▁로드무비	-12960
▁로맨스를	-12961
▁몰입도는	-12962
▁미국에서	-12963
▁벌어지는	-12964
▁보는사람	-12965
▁보다보면	-12966
▁섬세하고	-12967
▁스토리라	-12968
▁스펙타클	-12969
▁시사회로	-12970
▁실화라서	-12971
▁아버지와	-12972
▁아이리스	-12973
▁어디선가	-12974
▁연출력도	-12975
▁영화보면	-12976
▁영화에선	-12977
▁오유에서	-12978
▁이건아니	-12979
▁이미지가	-12980
▁일본애니	-12981
▁있어야지	-12982
▁재밌게봄	-12983
▁재밌었어	-12984
▁재밌지만	-12985
▁좋았네요	-12986
▁줄거리는	-12987
▁줄거리를	-12988
▁집중하게	-12989
▁짱이에요	-12990
▁친구들이	-12991
▁코미디의	-12992
▁하지말고	-12993
▁했었는데	-12994
▁허무하고	-12995
▁확실하게	-12996
▁후회한다	-12997
▁훌륭했다	-12998
보고있는데	-12999
최악의영화	-13000
▁너무좋아요	-13001
▁드라마인데	-13002
▁들었습니다	-13003
▁마이너스는	-13004
▁만들었는데	-13005
▁모든면에서	-13006
▁모르겠어요	-13007
▁뭔내용인지	-13008
▁없었습니다	-13009
▁의심스럽다	-13010
▁인상적이다	-13011
▁잊혀지지가	-13012
▁전달하고자	-13013
▁초등학생때	-13014
▁친구들이랑	-13015
▁킬링타임도	-13016
▁할말이없다	-13017
!!!!!!!!!!!	-13018
!"	-13019
df	-13020
~?	-13021
▁ᅡ	-13022
▁↓	-13023
▁껴	-13024
▁랄	-13025
▁롭	-13026
▁삭	-13027
▁셰	-13028
▁줫	-13029
▁톡	-13030
▁훗	-13031
가끔	-13032
개뿔	-13033
개판	-13034
걸이	-13035
검색	-13036
관에	-13037
금지	-13038
기네	-13039
끝이	-13040
너의	-13041
네용	-13042
네유	-13043
년후	-13044
노키	-13045
느낀	-13046
단이	-13047
대본	-13048
대신	-13049
대인	-13050
대장	-13051
등이	-13052
레쉬	-13053
리뷰	-13054
먼이	-13055
민서	-13056
민을	-13057
비판	-13058
비행	-13059
빠이	-13060
설레	-13061
섹스	-13062
소사	-13063
신듯	-13064
신히	-13065
심리	-13066
씬을	-13067
안이	-13068
않는	-13069
앤딩	-13070
야만	-13071
와요	-13072
우마	-13073
유천	-13074
이연	-13075
입은	-13076
잊혀	-13077
전거	-13078
점임	-13079
중요	-13080
지구	-13081
질만	-13082
찍은	-13083
크는	-13084
행이	-13085
훈훈	-13086
ast	-13087
▁MC	-13088
▁re	-13089
▁ᅮᅲ	-13090
▁강시	-13091
▁강철	-13092
▁고래	-13093
▁고은	-13094
▁곳이	-13095
▁구려	-13096
▁균형	-13097
▁근육	-13098
▁김규	-13099
▁나지	-13100
▁남김	-13101
▁너도	-13102
▁놀람	-13103
▁농구	-13104
▁높냐	-13105
▁눈높	-13106
▁대형	-13107
▁독재	-13108
▁동료	-13109
▁동호	-13110
▁두뇌	-13111
▁드릴	-13112
▁딴짓	-13113
▁똥칠	-13114
▁마저	-13115
▁먹은	-13116
▁명량	-13117
▁몇일	-13118
▁몰려	-13119
▁못된	-13120
▁무방	-13121
▁뭐든	-13122
▁뭣도	-13123
▁반해	-13124
▁발암	-13125
▁밝은	-13126
▁버림	-13127
▁부재	-13128
▁비긴	-13129
▁뻔함	-13130
▁사서	-13131
▁산다	-13132
▁살렸	-13133
▁색다	-13134
▁생겨	-13135
▁서사	-13136
▁선배	-13137
▁소오	-13138
▁속상	-13139
▁수다	-13140
▁시바	-13141
▁신뢰	-13142
▁쓰레	-13143
▁악평	-13144
▁압박	-13145
▁애썼	-13146
▁양산	-13147
▁언어	-13148
▁욕할	-13149
▁유역	-13150
▁으아	-13151
▁이웃	-13152
▁이주	-13153
▁인듯	-13154
▁장치	-13155
▁조디	-13156
▁좋으	-13157
▁좌절	-13158
▁줄줄	-13159
▁지속	-13160
▁짠한	-13161
▁짱나	-13162
▁책이	-13163
▁추상	-13164
▁취급	-13165
▁치곤	-13166
▁타잔	-13167
▁태극	-13168
▁태양	-13169
▁통찰	-13170
▁통한	-13171
▁트와	-13172
▁특집	-13173
▁파리	-13174
▁패스	-13175
▁피어	-13176
▁하차	-13177
▁학원	-13178
▁한때	-13179
▁한표	-13180
▁함정	-13181
▁해학	-13182
▁허준	-13183
▁흠뻑	-13184
▁히트	-13185
♡♡♡	-13186
게스트	-13187
데리고	-13188
되어서	-13189
되어야	-13190
된다고	-13191
라는거	-13192
릅니다	-13193
만드네	-13194
보지말	-13195
본건데	-13196
사람만	-13197
스라엘	-13198
시간은	-13199
안되게	-13200
았다고	-13201
어가고	-13202
어이가	-13203
였는지	-13204
이하도	-13205
지면서	-13206
질않나	-13207
페이지	-13208
했구나	-13209
▁120	-13210
▁7~8	-13211
▁mbc	-13212
▁가슴찡	-13213
▁감독아	-13214
▁괜찮을	-13215
▁구석이	-13216
▁기존의	-13217
▁김남길	-13218
▁끝내주	-13219
▁나와라	-13220
▁남아돌	-13221
▁납득이	-13222
▁내리는	-13223
▁내면의	-13224
▁눈뜨고	-13225
▁다문화	-13226
▁대하여	-13227
▁더빙판	-13228
▁동심을	-13229
▁된다면	-13230
▁로멘틱	-13231
▁마음도	-13232
▁모두를	-13233
▁모를까	-13234
▁무삭제	-13235
▁무작정	-13236
▁뭔내용	-13237
▁미쳤다	-13238
▁배우에	-13239
▁보고있	-13240
▁보내는	-13241
▁본질을	-13242
▁봤어야	-13243
▁부분에	-13244
▁빠르게	-13245
▁사나이	-13246
▁사춘기	-13247
▁사회를	-13248
▁생생한	-13249
▁수밖에	-13250
▁시스템	-13251
▁시시한	-13252
▁시작한	-13253
▁신들린	-13254
▁씹노잼	-13255
▁아들을	-13256
▁안성기	-13257
▁앞뒤가	-13258
▁애니로	-13259
▁약하고	-13260
▁어떨지	-13261
▁엄태웅	-13262
▁여실히	-13263
▁여자와	-13264
▁욕하고	-13265
▁우리도	-13266
▁위로가	-13267
▁음악만	-13268
▁이런데	-13269
▁이성재	-13270
▁인셉션	-13271
▁일상의	-13272
▁있을듯	-13273
▁자체로	-13274
▁잔인함	-13275
▁잘생김	-13276
▁조아요	-13277
▁좋았어	-13278
▁죽었다	-13279
▁진실은	-13280
▁초점을	-13281
▁최강의	-13282
▁최대한	-13283
▁평소에	-13284
▁평점만	-13285
▁표현을	-13286
▁피라냐	-13287
▁피터팬	-13288
▁한번에	-13289
▁합시다	-13290
▁확실한	-13291
▁후속편	-13292
▁힐링이	-13293
★☆★☆	-13294
대단하다	-13295
리의리의	-13296
만으로는	-13297
영화이다	-13298
재밌었다	-13299
하셨어요	-13300
하지않는	-13301
해지네요	-13302
▁-_-;	-13303
▁2009	-13304
▁가족끼리	-13305
▁감성적인	-13306
▁극장개봉	-13307
▁기억속에	-13308
▁기억하는	-13309
▁끝내주는	-13310
▁나비효과	-13311
▁나오지만	-13312
▁나중에는	-13313
▁노잼이다	-13314
▁돋보였던	-13315
▁떠오른다	-13316
▁뛰어나다	-13317
▁롱테이크	-13318
▁망한영화	-13319
▁멋집니다	-13320
▁메시지는	-13321
▁몰입도를	-13322
▁물론이고	-13323
▁반전까지	-13324
▁반전영화	-13325
▁별하나도	-13326
▁보여줬다	-13327
▁생각밖에	-13328
▁섬세하게	-13329
▁스릴러의	-13330
▁신비로운	-13331
▁쌍팔년도	-13332
▁아쉬웠다	-13333
▁어메이징	-13334
▁어울린다	-13335
▁억지웃음	-13336
▁연기들도	-13337
▁유치하기	-13338
▁이름으로	-13339
▁이스라엘	-13340
▁있는영화	-13341
▁작품으로	-13342
▁잼있는데	-13343
▁잼있었음	-13344
▁중요한건	-13345
▁천재적인	-13346
▁캐스팅에	-13347
▁판타스틱	-13348
▁평점테러	-13349
▁화끈하게	-13350
감동적이고	-13351
▁강추입니다	-13352
▁기대하면서	-13353
▁나도모르게	-13354
▁너무재밌게	-13355
▁니콜키드먼	-13356
▁대박입니다	-13357
▁먹먹해지는	-13358
▁사람으로서	-13359
▁사랑과전쟁	-13360
▁스크린으로	-13361
▁스토리라인	-13362
▁재미없는데	-13363
▁정말재밌게	-13364
▁조금이라도	-13365
▁지루합니다	-13366
▁추천해주고	-13367
_+	-13368
ir	-13369
ᄉᄋ	-13370
▁꺄	-13371
▁꽂	-13372
▁닉	-13373
▁돕	-13374
▁밸	-13375
▁벙	-13376
▁쉰	-13377
▁였	-13378
▁펜	-13379
걸린	-13380
과도	-13381
괴물	-13382
그거	-13383
그려	-13384
그지	-13385
기리	-13386
기전	-13387
남이	-13388
니발	-13389
니콜	-13390
닥터	-13391
두개	-13392
디스	-13393
따윈	-13394
락이	-13395
런스	-13396
로이	-13397
론데	-13398
린데	-13399
릴라	-13400
마라	-13401
만나	-13402
맞아	-13403
맨날	-13404
명도	-13405
미드	-13406
바뀌	-13407
방을	-13408
버렷	-13409
보냐	-13410
브로	-13411
블록	-13412
비한	-13413
산이	-13414
쉽게	-13415
스탈	-13416
시노	-13417
인디	-13418
인한	-13419
전부	-13420
전설	-13421
조의	-13422
즈는	-13423
질을	-13424
천국	-13425
천만	-13426
츠의	-13427
카시	-13428
투자	-13429
파리	-13430
퍼스	-13431
피가	-13432
호화	-13433
///	-13434
ome	-13435
uck	-13436
ust	-13437
▁2%	-13438
▁PD	-13439
▁vs	-13440
▁갈릴	-13441
▁강예	-13442
▁경쟁	-13443
▁광기	-13444
▁교도	-13445
▁구할	-13446
▁금지	-13447
▁김창	-13448
▁끼어	-13449
▁남지	-13450
▁놀랄	-13451
▁높음	-13452
▁눈감	-13453
▁다는	-13454
▁덕후	-13455
▁도박	-13456
▁동참	-13457
▁될것	-13458
▁될까	-13459
▁두분	-13460
▁둘러	-13461
▁딸의	-13462
▁리브	-13463
▁못난	-13464
▁박영	-13465
▁발악	-13466
▁밝고	-13467
▁배운	-13468
▁법칙	-13469
▁벗고	-13470
▁별을	-13471
▁보장	-13472
▁사정	-13473
▁삼각	-13474
▁선율	-13475
▁설렘	-13476
▁성냥	-13477
▁성숙	-13478
▁수술	-13479
▁수식	-13480
▁스탭	-13481
▁스틸	-13482
▁쓰잘	-13483
▁쓴다	-13484
▁아르	-13485
▁아휴	-13486
▁안해	-13487
▁알맹	-13488
▁암살	-13489
▁앤딩	-13490
▁어필	-13491
▁없구	-13492
▁에스	-13493
▁오리	-13494
▁왜냐	-13495
▁우마	-13496
▁웅장	-13497
▁원망	-13498
▁윌스	-13499
▁유사	-13500
▁유전	-13501
▁의식	-13502
▁이명	-13503
▁이모	-13504
▁이문	-13505
▁이와	-13506
▁이질	-13507
▁자격	-13508
▁자는	-13509
▁재회	-13510
▁적어	-13511
▁전환	-13512
▁점도	-13513
▁점을	-13514
▁존스	-13515
▁졸립	-13516
▁죄를	-13517
▁죄책	-13518
▁참다	-13519
▁콤비	-13520
▁타짜	-13521
▁터질	-13522
▁팬티	-13523
▁폭파	-13524
▁필립	-13525
▁한달	-13526
▁할듯	-13527
▁합쳐	-13528
▁홀로	-13529
▁회사	-13530
▁휴가	-13531
개연성	-13532
맙소사	-13533
무섭다	-13534
배우를	-13535
보는거	-13536
보았다	-13537
본다면	-13538
사회의	-13539
생각해	-13540
설정이	-13541
스럽네	-13542
실에서	-13543
아깝네	-13544
아무튼	-13545
없는게	-13546
없었던	-13547
역으로	-13548
영상미	-13549
우리가	-13550
원작을	-13551
으므로	-13552
이러스	-13553
일수도	-13554
정말로	-13555
쪽으로	-13556
카메라	-13557
팩트가	-13558
한건가	-13559
1010	-13560
▁가네요	-13561
▁가는데	-13562
▁갔다가	-13563
▁공감은	-13564
▁공포의	-13565
▁구하기	-13566
▁그러고	-13567
▁깨달음	-13568
▁꽃보다	-13569
▁나오길	-13570
▁나오니	-13571
▁나올수	-13572
▁남녀의	-13573
▁내평점	-13574
▁넣어서	-13575
▁노력은	-13576
▁노력한	-13577
▁노출이	-13578
▁당할순	-13579
▁돋보인	-13580
▁되는지	-13581
▁뒷통수	-13582
▁딱봐도	-13583
▁때까지	-13584
▁마시고	-13585
▁만큼의	-13586
▁모두들	-13587
▁몰랐던	-13588
▁무난한	-13589
▁베리굿	-13590
▁보였다	-13591
▁봤으나	-13592
▁빈디젤	-13593
▁생각안	-13594
▁설정도	-13595
▁소설의	-13596
▁슈스케	-13597
▁슬로우	-13598
▁아시는	-13599
▁안드로	-13600
▁않다는	-13601
▁알려주	-13602
▁애매한	-13603
▁애틋한	-13604
▁야동을	-13605
▁약빨고	-13606
▁어렵게	-13607
▁어린애	-13608
▁얼굴은	-13609
▁여고생	-13610
▁여주는	-13611
▁연기들	-13612
▁이걸로	-13613
▁이범수	-13614
▁이정현	-13615
▁이준기	-13616
▁일본판	-13617
▁일점도	-13618
▁장만옥	-13619
▁장애인	-13620
▁재밋네	-13621
▁재밌냐	-13622
▁전쟁은	-13623
▁전편을	-13624
▁조재현	-13625
▁좋다는	-13626
▁좋아라	-13627
▁지독한	-13628
▁진리다	-13629
▁최고작	-13630
▁최고지	-13631
▁평가할	-13632
▁하시길	-13633
▁하여간	-13634
▁해줘서	-13635
▁화면도	-13636
것같아서	-13637
꼭보세요	-13638
노잼노잼	-13639
다고해서	-13640
봣습니다	-13641
아아아아	-13642
이라는데	-13643
하기에는	-13644
하자마자	-13645
한국영화	-13646
,,,,,	-13647
▁2006	-13648
▁2007	-13649
▁가슴따뜻	-13650
▁고마워요	-13651
▁괜찮지만	-13652
▁기대보다	-13653
▁기분이다	-13654
▁들었는데	-13655
▁디테일한	-13656
▁로맨스도	-13657
▁만들었지	-13658
▁먹먹하고	-13659
▁보이네요	-13660
▁비슷하게	-13661
▁상관없이	-13662
▁생각지도	-13663
▁손꼽히는	-13664
▁숨막히는	-13665
▁스케일도	-13666
▁시간여행	-13667
▁알겠으나	-13668
▁액션씬이	-13669
▁어이상실	-13670
▁엔딩까지	-13671
▁엽기적인	-13672
▁영화평점	-13673
▁예고편에	-13674
▁우울하고	-13675
▁으리으리	-13676
▁이야기들	-13677
▁작품성을	-13678
▁제작진이	-13679
▁좋아하면	-13680
▁중구난방	-13681
▁클라이막	-13682
▁토요명화	-13683
▁형편없다	-13684
것도아니고	-13685
보고싶네요	-13686
영화제에서	-13687
재미도없고	-13688
...!!!	-13689
▁내용이지만	-13690
▁다르겠지만	-13691
▁만들어내는	-13692
▁만들었네요	-13693
▁매력적이고	-13694
▁보여줬는데	-13695
▁사랑입니다	-13696
▁실망시키지	-13697
▁아이디어가	-13698
▁알았습니다	-13699
▁여자친구랑	-13700
▁잔인하지도	-13701
▁재미없었던	-13702
▁트와일라잇	-13703
▁미션임파서블	-13704
▁브루스윌리스	-13705
▁애니메이션은	-13706
▁인상적이었다	-13707
▁최고의드라마	-13708
▁ᄏᄏᄏᄏᄏᄏᄏᄏᄏᄏᄏᄏᄏᄏ	-13709
EC	-13710
ab	-13711
ee	-13712
ff	-13713
gt	-13714
▁껄	-13715
▁랭	-13716
▁뤽	-13717
▁뷰	-13718
▁샀	-13719
▁앗	-13720
▁왼	-13721
▁츠	-13722
▁킴	-13723
▁틴	-13724
▁험	-13725
가득	-13726
겁다	-13727
결과	-13728
군데	-13729
껀데	-13730
끝도	-13731
남녀	-13732
넘어	-13733
느꼈	-13734
는것	-13735
다이	-13736
랜든	-13737
리던	-13738
맥스	-13739
면에	-13740
몇번	-13741
모자	-13742
몰라	-13743
무어	-13744
물어	-13745
밖의	-13746
별한	-13747
병이	-13748
봤나	-13749
비하	-13750
사부	-13751
상관	-13752
생크	-13753
세는	-13754
슨은	-13755
시장	-13756
씬만	-13757
안습	-13758
안을	-13759
에효	-13760
연은	-13761
올리	-13762
욕이	-13763
우성	-13764
웃고	-13765
응원	-13766
입이	-13767
잇게	-13768
있었	-13769
자다	-13770
잔데	-13771
잔아	-13772
잤다	-13773
전과	-13774
정씨	-13775
져도	-13776
총사	-13777
축구	-13778
클럽	-13779
토가	-13780
토벤	-13781
프가	-13782
해질	-13783
했냐	-13784
힐링	-13785
-.-	-13786
^.^	-13787
▁AV	-13788
▁av	-13789
▁거리	-13790
▁건드	-13791
▁건진	-13792
▁그룹	-13793
▁극의	-13794
▁근본	-13795
▁급급	-13796
▁긍정	-13797
▁기막	-13798
▁기어	-13799
▁끊어	-13800
▁나나	-13801
▁나두	-13802
▁나았	-13803
▁날카	-13804
▁농락	-13805
▁대다	-13806
▁돋는	-13807
▁동원	-13808
▁되니	-13809
▁디비	-13810
▁딸을	-13811
▁떠난	-13812
▁마련	-13813
▁말길	-13814
▁메릴	-13815
▁명성	-13816
▁무릎	-13817
▁뭐죠	-13818
▁미련	-13819
▁박힌	-13820
▁반항	-13821
▁방어	-13822
▁벅찬	-13823
▁베낀	-13824
▁베르	-13825
▁본후	-13826
▁비비	-13827
▁사례	-13828
▁상당	-13829
▁새드	-13830
▁성지	-13831
▁속지	-13832
▁수호	-13833
▁순위	-13834
▁스며	-13835
▁슬플	-13836
▁아일	-13837
▁야이	-13838
▁역을	-13839
▁완결	-13840
▁왜들	-13841
▁욕설	-13842
▁우베	-13843
▁울었	-13844
▁유니	-13845
▁윤아	-13846
▁잠만	-13847
▁잡을	-13848
▁잼따	-13849
▁저딴	-13850
▁적합	-13851
▁종결	-13852
▁종종	-13853
▁중심	-13854
▁지네	-13855
▁찾게	-13856
▁초라	-13857
▁치닫	-13858
▁쿠엔	-13859
▁평정	-13860
▁포스	-13861
▁한몫	-13862
▁했어	-13863
▁호강	-13864
▁훼손	-13865
▁힘듬	-13866
가치가	-13867
것이지	-13868
겟어요	-13869
끝날때	-13870
남자가	-13871
는건지	-13872
들과의	-13873
들인가	-13874
또봐도	-13875
로써는	-13876
리는거	-13877
만한데	-13878
무서워	-13879
바이벌	-13880
배우도	-13881
버리네	-13882
보니깐	-13883
보이고	-13884
봤을때	-13885
부분만	-13886
빠지고	-13887
뻔하고	-13888
사랑과	-13889
사랑은	-13890
산으로	-13891
시킨다	-13892
액션도	-13893
여년전	-13894
열심히	-13895
을려고	-13896
읍니다	-13897
이기도	-13898
일만에	-13899
일지도	-13900
재밋고	-13901
주고싶	-13902
지는게	-13903
진짜로	-13904
케이블	-13905
편보고	-13906
하네여	-13907
하진않	-13908
한거야	-13909
한거임	-13910
할말이	-13911
회까지	-13912
-_-;	-13913
...)	-13914
..10	-13915
9999	-13916
bbbb	-13917
good	-13918
zzzz	-13919
▁197	-13920
▁간신히	-13921
▁감성에	-13922
▁강하다	-13923
▁개실망	-13924
▁개졸작	-13925
▁고딩때	-13926
▁관계가	-13927
▁구리고	-13928
▁그려진	-13929
▁그치만	-13930
▁기타노	-13931
▁까메오	-13932
▁꺼버림	-13933
▁끝나네	-13934
▁나오나	-13935
▁누구냐	-13936
▁다시보	-13937
▁대박나	-13938
▁돌리도	-13939
▁동생이	-13940
▁되다니	-13941
▁또다시	-13942
▁또한번	-13943
▁마음속	-13944
▁말대로	-13945
▁맞지만	-13946
▁무미건	-13947
▁미국에	-13948
▁범인은	-13949
▁봉태규	-13950
▁새롭다	-13951
▁생각남	-13952
▁속편은	-13953
▁스피드	-13954
▁시절이	-13955
▁시키는	-13956
▁신기할	-13957
▁신선함	-13958
▁실력이	-13959
▁싫어서	-13960
▁심장을	-13961
▁심하네	-13962
▁아팠다	-13963
▁안나올	-13964
▁않았을	-13965
▁앞서간	-13966
▁양조위	-13967
▁어리석	-13968
▁어울릴	-13969
▁엄마를	-13970
▁엉덩이	-13971
▁엉성함	-13972
▁영상물	-13973
▁예술가	-13974
▁올만에	-13975
▁왜이런	-13976
▁외모가	-13977
▁용기를	-13978
▁이러지	-13979
▁이민기	-13980
▁인피니	-13981
▁일반인	-13982
▁잃었다	-13983
▁있는것	-13984
▁있을때	-13985
▁자막이	-13986
▁장난이	-13987
▁잼있고	-13988
▁전개를	-13989
▁전쟁에	-13990
▁제작한	-13991
▁조연들	-13992
▁좋으면	-13993
▁주는데	-13994
▁죽음이	-13995
▁찍어도	-13996
▁찍어라	-13997
▁차인표	-13998
▁첫장면	-13999
▁초반은	-14000
▁최선을	-14001
▁최후의	-14002
▁출연자	-14003
▁충격과	-14004
▁타이밍	-14005
▁투성이	-14006
▁퍼펙트	-14007
▁표현된	-14008
▁행동을	-14009
▁헛소리	-14010
▁흔하디	-14011
나는영화	-14012
났습니다	-14013
봤는데도	-14014
사람들의	-14015
신분들은	-14016
용으로도	-14017
일뿐이다	-14018
잼있어요	-14019
점이상은	-14020
캐릭터가	-14021
하기만한	-14022
했을텐데	-14023
..!!!	-14024
▁감독이나	-14025
▁개봉하지	-14026
▁개성있는	-14027
▁공각기동	-14028
▁관대하다	-14029
▁그러니까	-14030
▁기대하게	-14031
▁기분나쁜	-14032
▁나왔는지	-14033
▁도대체가	-14034
▁따뜻하다	-14035
▁망했는지	-14036
▁맥라이언	-14037
▁맥어보이	-14038
▁무시하고	-14039
▁보지말고	-14040
▁볼까말까	-14041
▁봤는데요	-14042
▁부끄럽다	-14043
▁분위기만	-14044
▁순수함을	-14045
▁아버지는	-14046
▁어색해서	-14047
▁어이없게	-14048
▁어중간한	-14049
▁어찌보면	-14050
▁영화로는	-14051
▁영화로써	-14052
▁예술이다	-14053
▁왔다갔다	-14054
▁유쾌하다	-14055
▁이딴영화	-14056
▁이야기로	-14057
▁재밌겠다	-14058
▁잼있었다	-14059
▁전하고자	-14060
▁주고싶은	-14061
▁즐거웠다	-14062
▁지루함과	-14063
▁추천해요	-14064
▁팬이라서	-14065
▁한국인이	-14066
▁한번보고	-14067
▁해주길래	-14068
▁고등학교때	-14069
▁그렇다치고	-14070
▁너무재미있	-14071
▁너무하네요	-14072
▁떨어지지만	-14073
▁아쉽습니다	-14074
▁안타깝지만	-14075
▁우리나라가	-14076
▁이런쓰레기	-14077
▁일본영화의	-14078
▁있었을텐데	-14079
▁재미있던데	-14080
▁좋은영화다	-14081
▁최악이었다	-14082
쓰레기쓰레기	-14083
▁감사드립니다	-14084
▁말이필요없음	-14085
▁해피엔딩으로	-14086
▁수고하셨습니다	-14087
▁재밌게봤습니다	-14088
+1	-14089
0^	-14090
_=	-14091
th	-14092
ᅳᅮ	-14093
▁믹	-14094
▁숫	-14095
▁챔	-14096
계상	-14097
구여	-14098
국가	-14099
그대	-14100
금이	-14101
긴데	-14102
년들	-14103
놔서	-14104
눈빛	-14105
다메	-14106
당신	-14107
대요	-14108
람이	-14109
려구	-14110
르지	-14111
를린	-14112
리라	-14113
만함	-14114
많아	-14115
멸의	-14116
모루	-14117
뭐니	-14118
미로	-14119
바꿔	-14120
박스	-14121
배가	-14122
백한	-14123
복이	-14124
부부	-14125
분장	-14126
비도	-14127
삶을	-14128
서로	-14129
스톱	-14130
시윤	-14131
신경	-14132
신다	-14133
앓이	-14134
에나	-14135
였군	-14136
우월	-14137
은지	-14138
의사	-14139
이군	-14140
이시	-14141
인형	-14142
일어	-14143
자극	-14144
자유	-14145
제국	-14146
제라	-14147
졌을	-14148
지난	-14149
지로	-14150
진리	-14151
질러	-14152
찍고	-14153
최강	-14154
커스	-14155
클리	-14156
키가	-14157
탐정	-14158
태의	-14159
파는	-14160
포드	-14161
포트	-14162
한이	-14163
해낸	-14164
해여	-14165
헌터	-14166
.25	-14167
▁ᄂᄂ	-14168
▁강박	-14169
▁거임	-14170
▁거친	-14171
▁건달	-14172
▁걸릴	-14173
▁견디	-14174
▁고고	-14175
▁고집	-14176
▁고향	-14177
▁골든	-14178
▁곳에	-14179
▁관광	-14180
▁그중	-14181
▁근거	-14182
▁금치	-14183
▁기원	-14184
▁김상	-14185
▁꼽는	-14186
▁누워	-14187
▁눈은	-14188
▁느꼇	-14189
▁다죽	-14190
▁두렵	-14191
▁따른	-14192
▁면도	-14193
▁명곡	-14194
▁명절	-14195
▁무성	-14196
▁무심	-14197
▁무어	-14198
▁뭘말	-14199
▁바꿀	-14200
▁박상	-14201
▁박용	-14202
▁백만	-14203
▁법한	-14204
▁보물	-14205
▁보인	-14206
▁본드	-14207
▁사냥	-14208
▁산타	-14209
▁성질	-14210
▁손을	-14211
▁쇼킹	-14212
▁수학	-14213
▁스탠	-14214
▁스폰	-14215
▁시네	-14216
▁시킨	-14217
▁썩어	-14218
▁아시	-14219
▁안성	-14220
▁약을	-14221
▁약해	-14222
▁얻은	-14223
▁완존	-14224
▁왕따	-14225
▁왜저	-14226
▁워킹	-14227
▁원초	-14228
▁유년	-14229
▁윤제	-14230
▁이시	-14231
▁잃어	-14232
▁입은	-14233
▁전파	-14234
▁제공	-14235
▁제주	-14236
▁지내	-14237
▁쩔고	-14238
▁찾은	-14239
▁치우	-14240
▁파헤	-14241
▁평작	-14242
▁피로	-14243
▁했고	-14244
▁했지	-14245
▁행운	-14246
▁호평	-14247
▁호프	-14248
가보다	-14249
감으로	-14250
겠구나	-14251
결말도	-14252
귀여워	-14253
그렇지	-14254
급이다	-14255
꼭봐야	-14256
나오게	-14257
나와라	-14258
내용에	-14259
노래도	-14260
놈들아	-14261
달리는	-14262
더이상	-14263
되는게	-14264
로버츠	-14265
많은데	-14266
밖에안	-14267
받아야	-14268
봤을까	-14269
분들의	-14270
분으로	-14271
빠지게	-14272
살짜리	-14273
소재는	-14274
스파이	-14275
아름다	-14276
어릴때	-14277
없었음	-14278
역시나	-14279
왜이래	-14280
요일이	-14281
우면서	-14282
으니깐	-14283
으려나	-14284
이래서	-14285
이어서	-14286
인건가	-14287
있다고	-14288
자신을	-14289
점이야	-14290
제목이	-14291
주의에	-14292
주의자	-14293
코드가	-14294
티비티	-14295
편보단	-14296
필요가	-14297
하려다	-14298
해줘서	-14299
▁(10	-14300
▁개인적	-14301
▁경찰이	-14302
▁과하게	-14303
▁근래에	-14304
▁긴장을	-14305
▁꼽히는	-14306
▁나와는	-14307
▁나왔을	-14308
▁내보내	-14309
▁넘친다	-14310
▁놀래키	-14311
▁눈물샘	-14312
▁대학교	-14313
▁돋는다	-14314
▁듯하다	-14315
▁떠나는	-14316
▁라디오	-14317
▁멋졌다	-14318
▁못되는	-14319
▁못하나	-14320
▁무리가	-14321
▁무한한	-14322
▁문화를	-14323
▁바꿔라	-14324
▁바람에	-14325
▁바보로	-14326
▁발전이	-14327
▁별로네	-14328
▁보내고	-14329
▁보느라	-14330
▁보는건	-14331
▁보시고	-14332
▁비오는	-14333
▁살인자	-14334
▁상상도	-14335
▁세번째	-14336
▁싶다는	-14337
▁싶을때	-14338
▁씨리즈	-14339
▁아픔이	-14340
▁않은가	-14341
▁어쨋든	-14342
▁없는지	-14343
▁엉망인	-14344
▁여자도	-14345
▁왜그러	-14346
▁욕나옴	-14347
▁우리를	-14348
▁이것만	-14349
▁이들의	-14350
▁이러면	-14351
▁이어지	-14352
▁이전에	-14353
▁일본에	-14354
▁임수정	-14355
▁잔잔히	-14356
▁잘모르	-14357
▁잘봤음	-14358
▁잠이나	-14359
▁잼있어	-14360
▁조악한	-14361
▁존나게	-14362
▁존재가	-14363
▁졸작이	-14364
▁지금이	-14365
▁진수를	-14366
▁짧지만	-14367
▁찍었다	-14368
▁찾았다	-14369
▁최민식	-14370
▁충격적	-14371
▁테스트	-14372
▁투자한	-14373
▁하늘을	-14374
▁하니까	-14375
▁한방에	-14376
▁해보고	-14377
▁향수를	-14378
▁화면은	-14379
▁환상을	-14380
▁흐른다	-14381
그레이드	-14382
드라마의	-14383
생각하고	-14384
스토리에	-14385
이라이트	-14386
이었다는	-14387
인줄알고	-14388
ᅲᅲᅲᅲᅲ	-14389
▁괜찮아요	-14390
▁궁금하게	-14391
▁기다리는	-14392
▁남자들은	-14393
▁네이버는	-14394
▁느끼는게	-14395
▁느낄수있	-14396
▁느낌으로	-14397
▁다른사람	-14398
▁달달하고	-14399
▁되어버린	-14400
▁말하려고	-14401
▁머릿속에	-14402
▁목소리도	-14403
▁발연기가	-14404
▁배우들과	-14405
▁보석같은	-14406
▁보이는데	-14407
▁비극적인	-14408
▁사라지고	-14409
▁생각하니	-14410
▁성장영화	-14411
▁수준낮은	-14412
▁시간아까	-14413
▁아저씨가	-14414
▁안가네요	-14415
▁않았다면	-14416
▁어디에도	-14417
▁연기력을	-14418
▁연출력과	-14419
▁연출이나	-14420
▁영상미에	-14421
▁영화까지	-14422
▁오래오래	-14423
▁완성도는	-14424
▁웃기려고	-14425
▁유치하게	-14426
▁있을까요	-14427
▁재밌구만	-14428
▁정신세계	-14429
▁조폭영화	-14430
▁존재한다	-14431
▁지루했던	-14432
▁찍었을까	-14433
▁최소한의	-14434
▁코스트너	-14435
▁타이타닉	-14436
▁하루종일	-14437
▁하루하루	-14438
▁할머니가	-14439
▁흔해빠진	-14440
이런영화가	-14441
이었습니다	-14442
~~~~~~	-14443
▁1,2,3	-14444
▁감동이네요	-14445
▁내용도없고	-14446
▁네이버에서	-14447
▁느낄수있는	-14448
▁다시보기로	-14449
▁대단하다고	-14450
▁되돌아보게	-14451
▁볼만한영화	-14452
▁사랑이라는	-14453
▁생각해보면	-14454
▁어쩔수없이	-14455
▁억지스러움	-14456
▁이건아니다	-14457
▁충격적이다	-14458
▁프로그램이	-14459
▁훌륭합니다	-14460
▁감동적이예요	-14461
▁내인생최고의	-14462
▁등장인물들이	-14463
▁무섭지도않고	-14464
▁아름다운영화	-14465
▁행복했습니다	-14466
▁흥미진진하게	-14467
?.	-14468
SF	-14469
av	-14470
ly	-14471
os	-14472
~3	-14473
▁껍	-14474
▁꾀	-14475
▁밧	-14476
▁얕	-14477
▁헝	-14478
▁힛	-14479
갈수	-14480
감성	-14481
같지	-14482
겹고	-14483
고어	-14484
광수	-14485
길바	-14486
내놔	-14487
내라	-14488
다녀	-14489
단의	-14490
더블	-14491
된거	-14492
둘다	-14493
드니	-14494
드릴	-14495
레터	-14496
르르	-14497
리암	-14498
릿한	-14499
막극	-14500
만치	-14501
문학	-14502
뭉클	-14503
뭐라	-14504
민우	-14505
밀한	-14506
보가	-14507
블리	-14508
산다	-14509
살짝	-14510
상상	-14511
상식	-14512
세번	-14513
세월	-14514
세트	-14515
셨나	-14516
소서	-14517
스테	-14518
슬링	-14519
습니	-14520
시킴	-14521
심심	-14522
씁쓸	-14523
아래	-14524
아씨	-14525
아웃	-14526
안보	-14527
어려	-14528
어준	-14529
어쩜	-14530
연예	-14531
외엔	-14532
의도	-14533
이용	-14534
자니	-14535
장군	-14536
조각	-14537
지경	-14538
지라	-14539
진부	-14540
쯤은	-14541
취급	-14542
코비	-14543
크래	-14544
폭발	-14545
화로	-14546
확인	-14547
황당	-14548
회사	-14549
?;;	-14550
▁-1	-14551
▁1%	-14552
▁No	-14553
▁ᄉᄀ	-14554
▁ᄌᄅ	-14555
▁가물	-14556
▁개도	-14557
▁고루	-14558
▁고만	-14559
▁구림	-14560
▁그레	-14561
▁극을	-14562
▁깨어	-14563
▁낄낄	-14564
▁낮을	-14565
▁놀이	-14566
▁높고	-14567
▁놓칠	-14568
▁누굴	-14569
▁대립	-14570
▁동심	-14571
▁드릅	-14572
▁들었	-14573
▁들은	-14574
▁멈출	-14575
▁못하	-14576
▁무튼	-14577
▁박하	-14578
▁박한	-14579
▁배제	-14580
▁밴드	-14581
▁변명	-14582
▁변함	-14583
▁보편	-14584
▁살릴	-14585
▁생김	-14586
▁소수	-14587
▁손오	-14588
▁송중	-14589
▁수습	-14590
▁수영	-14591
▁쌍욕	-14592
▁안의	-14593
▁않냐	-14594
▁얘네	-14595
▁언더	-14596
▁에디	-14597
▁옷을	-14598
▁요란	-14599
▁우월	-14600
▁운전	-14601
▁위선	-14602
▁으으	-14603
▁은행	-14604
▁이틀	-14605
▁자부	-14606
▁작년	-14607
▁전범	-14608
▁접한	-14609
▁주의	-14610
▁지껄	-14611
▁지능	-14612
▁지식	-14613
▁짜고	-14614
▁찌푸	-14615
▁청순	-14616
▁최수	-14617
▁최신	-14618
▁충족	-14619
▁치면	-14620
▁침몰	-14621
▁파일	-14622
▁프랭	-14623
▁한듯	-14624
▁한회	-14625
▁해군	-14626
▁후려	-14627
▁흡사	-14628
게리온	-14629
굉장히	-14630
귀엽고	-14631
그만큼	-14632
나이에	-14633
남네요	-14634
된영화	-14635
드럽게	-14636
들이여	-14637
라마바	-14638
못한다	-14639
무조건	-14640
새로운	-14641
시기를	-14642
아먹는	-14643
엄마가	-14644
없다는	-14645
여자는	-14646
영환줄	-14647
예쁘고	-14648
으라면	-14649
있는게	-14650
자체는	-14651
잼있게	-14652
점수를	-14653
좋았던	-14654
지가않	-14655
폰으로	-14656
해야만	-14657
----	-14658
▁sbs	-14659
▁가깝다	-14660
▁가난한	-14661
▁가지게	-14662
▁강혜정	-14663
▁개명작	-14664
▁것으로	-14665
▁곳곳에	-14666
▁그래두	-14667
▁극치를	-14668
▁기대됨	-14669
▁김래원	-14670
▁꼬라지	-14671
▁내생의	-14672
▁노무현	-14673
▁놀라고	-14674
▁뇌리에	-14675
▁느낌과	-14676
▁다녀온	-14677
▁담백한	-14678
▁대박임	-14679
▁돌아온	-14680
▁되버린	-14681
▁두려움	-14682
▁뒤통수	-14683
▁따라서	-14684
▁뜬금포	-14685
▁마피아	-14686
▁맛있는	-14687
▁모니카	-14688
▁모여서	-14689
▁묘사가	-14690
▁뭐하자	-14691
▁미개한	-14692
▁미성년	-14693
▁미치지	-14694
▁바뀌고	-14695
▁밖에는	-14696
▁발견한	-14697
▁베토벤	-14698
▁별점은	-14699
▁보라는	-14700
▁본다는	-14701
▁본사람	-14702
▁봤더만	-14703
▁봤어도	-14704
▁부끄러	-14705
▁부성애	-14706
▁비교도	-14707
▁뽀로로	-14708
▁뿐이고	-14709
▁사소한	-14710
▁사실은	-14711
▁사이에	-14712
▁상황과	-14713
▁샌들러	-14714
▁생각날	-14715
▁생뚱맞	-14716
▁성공한	-14717
▁스릴은	-14718
▁시절을	-14719
▁신동엽	-14720
▁아까웠	-14721
▁아깝게	-14722
▁아는데	-14723
▁아직은	-14724
▁안쓰러	-14725
▁어렵고	-14726
▁어쩌구	-14727
▁어쩐지	-14728
▁엉뚱한	-14729
▁여동생	-14730
▁역사는	-14731
▁열연이	-14732
▁였어요	-14733
▁예전의	-14734
▁오드리	-14735
▁오페라	-14736
▁욕심이	-14737
▁울나라	-14738
▁울림이	-14739
▁웨스턴	-14740
▁유머도	-14741
▁유아인	-14742
▁유해진	-14743
▁이감독	-14744
▁이것을	-14745
▁이러냐	-14746
▁이루는	-14747
▁이름에	-14748
▁이용해	-14749
▁이유도	-14750
▁인간에	-14751
▁인내심	-14752
▁있다가	-14753
▁자체의	-14754
▁잠수함	-14755
▁재능이	-14756
▁저지른	-14757
▁정재영	-14758
▁좋은듯	-14759
▁주다니	-14760
▁주연이	-14761
▁주제곡	-14762
▁죽어나	-14763
▁즐거워	-14764
▁지못미	-14765
▁진실이	-14766
▁짜증날	-14767
▁초콜릿	-14768
▁추억돋	-14769
▁추억에	-14770
▁친구와	-14771
▁친일파	-14772
▁코믹도	-14773
▁콘서트	-14774
▁파트너	-14775
▁포스가	-14776
▁풍부한	-14777
▁하고자	-14778
▁하기도	-14779
▁하나다	-14780
▁한국식	-14781
▁한국이	-14782
▁한지민	-14783
▁했네요	-14784
▁호기심	-14785
▁히틀러	-14786
거같아서	-14787
그렇다고	-14788
나오는거	-14789
남는영화	-14790
답답하고	-14791
드라마도	-14792
들에게도	-14793
본방사수	-14794
스타일이	-14795
아무것도	-14796
이었다면	-14797
이영화가	-14798
있었지만	-14799
잘봤어요	-14800
재밌었음	-14801
적이었다	-14802
점준거중	-14803
점줍니다	-14804
좋아해서	-14805
중간중간	-14806
하더군요	-14807
해야하나	-14808
했더라면	-14809
.,.,.	-14810
...10	-14811
▁4000	-14812
▁개나소나	-14813
▁권선징악	-14814
▁기대하며	-14815
▁기발하고	-14816
▁기본적인	-14817
▁늑대인간	-14818
▁늘어지는	-14819
▁돈아까움	-14820
▁말도안돼	-14821
▁매력있고	-14822
▁명작중의	-14823
▁별점테러	-14824
▁보았네요	-14825
▁볼수없는	-14826
▁봤던건데	-14827
▁불가능한	-14828
▁빠져든다	-14829
▁산만하다	-14830
▁생각나고	-14831
▁생각해볼	-14832
▁스타일은	-14833
▁스토리며	-14834
▁식스센스	-14835
▁싶어지는	-14836
▁아쉬운건	-14837
▁아침부터	-14838
▁안나오나	-14839
▁안젤리나	-14840
▁알았네요	-14841
▁암걸리는	-14842
▁압도적인	-14843
▁어이없어	-14844
▁엄마한테	-14845
▁열받아서	-14846
▁올레티비	-14847
▁왜이러냐	-14848
▁유치원생	-14849
▁이거보면	-14850
▁이쁘네요	-14851
▁이정도의	-14852
▁인도영화	-14853
▁임팩트가	-14854
▁있다는걸	-14855
▁정신없이	-14856
▁제목처럼	-14857
▁제외하면	-14858
▁주인공인	-14859
▁처음보는	-14860
▁크리스마	-14861
▁편안하게	-14862
▁포스터를	-14863
▁표정연기	-14864
▁피해자가	-14865
▁필요없고	-14866
▁하는구나	-14867
▁현실성도	-14868
▁흡입력이	-14869
것만으로도	-14870
▁감동이에요	-14871
▁궁금하네요	-14872
▁기대했건만	-14873
▁나았습니다	-14874
▁나홀로집에	-14875
▁드라마중에	-14876
▁사이코패스	-14877
▁시간아까운	-14878
▁실망입니다	-14879
▁싶을정도로	-14880
▁아니더라도	-14881
▁안남기는데	-14882
▁에니메이션	-14883
▁영화보다는	-14884
▁인터스텔라	-14885
▁자극적이고	-14886
▁재미없던데	-14887
▁재밌음ᄏᄏ	-14888
▁주인공으로	-14889
▁스토리전개가	-14890
▁기대안하고봤는데	-14891
ag	-14892
▁ᄁ	-14893
▁★	-14894
▁굵	-14895
▁낡	-14896
▁란	-14897
▁빤	-14898
▁썻	-14899
▁쟤	-14900
▁째	-14901
▁쩜	-14902
▁쫙	-14903
▁퀄	-14904
▁킥	-14905
값이	-14906
갔음	-14907
같애	-14908
걸음	-14909
겁나	-14910
국을	-14911
그걸	-14912
기들	-14913
길을	-14914
꺼임	-14915
났고	-14916
내돈	-14917
노무	-14918
노의	-14919
놓는	-14920
눈을	-14921
단지	-14922
덕환	-14923
드레	-14924
든데	-14925
란게	-14926
러지	-14927
론을	-14928
루요	-14929
마에	-14930
마을	-14931
많네	-14932
먹어	-14933
먼의	-14934
못할	-14935
민정	-14936
발로	-14937
발음	-14938
범이	-14939
변화	-14940
본적	-14941
비로	-14942
비언	-14943
빨로	-14944
상처	-14945
세대	-14946
세용	-14947
슴다	-14948
승리	-14949
시로	-14950
신과	-14951
애씨	-14952
양반	-14953
어찌	-14954
없던	-14955
에여	-14956
오의	-14957
왕짱	-14958
울이	-14959
이럴	-14960
익은	-14961
잭맨	-14962
전투	-14963
제의	-14964
제이	-14965
조가	-14966
조폭	-14967
졸잼	-14968
종의	-14969
좋앗	-14970
줬던	-14971
진한	-14972
짜고	-14973
쩌네	-14974
쩔어	-14975
착한	-14976
찮은	-14977
참나	-14978
칙한	-14979
캐리	-14980
클레	-14981
탄생	-14982
포기	-14983
..)	-14984
..-	-14985
art	-14986
▁26	-14987
▁88	-14988
▁XX	-14989
▁sm	-14990
▁강우	-14991
▁개망	-14992
▁건담	-14993
▁겪는	-14994
▁계시	-14995
▁고쳐	-14996
▁곽지	-14997
▁관점	-14998
▁금성	-14999
▁기반	-15000
▁기절	-15001
▁깔깔	-15002
▁꾸밈	-15003
▁꾸역	-15004
▁끄고	-15005
▁끌지	-15006
▁끝장	-15007
▁낚이	-15008
▁남한	-15009
▁낫네	-15010
▁내놔	-15011
▁네임	-15012
▁노인	-15013
▁님들	-15014
▁당한	-15015
▁두서	-15016
▁등에	-15017
▁따지	-15018
▁똥싸	-15019
▁리더	-15020
▁리부	-15021
▁말까	-15022
▁망상	-15023
▁먹어	-15024
▁멸망	-15025
▁몰고	-15026
▁바램	-15027
▁박철	-15028
▁반짝	-15029
▁배두	-15030
▁베끼	-15031
▁베니	-15032
▁베일	-15033
▁보낼	-15034
▁부패	-15035
▁불교	-15036
▁빌어	-15037
▁빨려	-15038
▁사장	-15039
▁살았	-15040
▁살자	-15041
▁살지	-15042
▁살해	-15043
▁샤말	-15044
▁서른	-15045
▁서우	-15046
▁서유	-15047
▁섞여	-15048
▁세대	-15049
▁소련	-15050
▁소외	-15051
▁숀펜	-15052
▁수목	-15053
▁아리	-15054
▁안경	-15055
▁안내	-15056
▁안듬	-15057
▁안믿	-15058
▁알면	-15059
▁야쿠	-15060
▁연구	-15061
▁영호	-15062
▁오열	-15063
▁오줌	-15064
▁일기	-15065
▁입을	-15066
▁잉여	-15067
▁작업	-15068
▁잠안	-15069
▁장기	-15070
▁장인	-15071
▁장점	-15072
▁재벌	-15073
▁저건	-15074
▁저격	-15075
▁조롱	-15076
▁조명	-15077
▁좋구	-15078
▁좌좀	-15079
▁주구	-15080
▁주장	-15081
▁질이	-15082
▁질주	-15083
▁처벌	-15084
▁최우	-15085
▁추적	-15086
▁침략	-15087
▁탈락	-15088
▁터지	-15089
▁토르	-15090
▁토미	-15091
▁트렌	-15092
▁편히	-15093
▁할일	-15094
▁해소	-15095
▁현장	-15096
▁획기	-15097
▁효민	-15098
▁흘릴	-15099
같았다	-15100
개막장	-15101
것인지	-15102
관람가	-15103
나오지	-15104
다니엘	-15105
대에서	-15106
더구만	-15107
됐지만	-15108
들었다	-15109
따구로	-15110
떄문에	-15111
만해도	-15112
박하고	-15113
반전도	-15114
번이상	-15115
보여주	-15116
본적이	-15117
부분을	-15118
사랑의	-15119
세기에	-15120
소리만	-15121
소설을	-15122
십니까	-15123
아프다	-15124
안보고	-15125
역사상	-15126
연출이	-15127
울었다	-15128
의식이	-15129
이런걸	-15130
인데요	-15131
인생을	-15132
있는듯	-15133
있는지	-15134
자신이	-15135
자체도	-15136
재미로	-15137
전개도	-15138
좋았고	-15139
주는거	-15140
출연진	-15141
치면서	-15142
테스크	-15143
하게만	-15144
한거다	-15145
햇어요	-15146
했기에	-15147
...2	-15148
...;	-15149
▁6.5	-15150
▁개봉할	-15151
▁개짜증	-15152
▁개쩐다	-15153
▁거부감	-15154
▁것일까	-15155
▁결말만	-15156
▁그래요	-15157
▁그정도	-15158
▁극대화	-15159
▁금요일	-15160
▁기분나	-15161
▁긴박감	-15162
▁꽝이다	-15163
▁꾸준히	-15164
▁나같은	-15165
▁나오냐	-15166
▁나타내	-15167
▁남아도	-15168
▁내면을	-15169
▁노출도	-15170
▁놀라움	-15171
▁놀랍고	-15172
▁누구를	-15173
▁단어가	-15174
▁담겨져	-15175
▁대기업	-15176
▁두가지	-15177
▁두려워	-15178
▁뒤돌아	-15179
▁따분한	-15180
▁리스트	-15181
▁마동석	-15182
▁막무가	-15183
▁말이야	-15184
▁말장난	-15185
▁맙소사	-15186
▁명작중	-15187
▁목적이	-15188
▁못한게	-15189
▁무표정	-15190
▁뭉클한	-15191
▁뭐이리	-15192
▁미치게	-15193
▁미친거	-15194
▁믿을수	-15195
▁바람피	-15196
▁보지만	-15197
▁봉준호	-15198
▁봤는대	-15199
▁부실한	-15200
▁불멸의	-15201
▁불쌍함	-15202
▁빌려서	-15203
▁빠지고	-15204
▁뻔뻔한	-15205
▁뻔하디	-15206
▁사랑할	-15207
▁사회가	-15208
▁새로울	-15209
▁색감도	-15210
▁소설이	-15211
▁쇼생크	-15212
▁시걸의	-15213
▁싶었음	-15214
▁쒸레기	-15215
▁쓸쓸한	-15216
▁악역이	-15217
▁안가네	-15218
▁안되지	-15219
▁알게되	-15220
▁어느것	-15221
▁언니가	-15222
▁얼굴만	-15223
▁여름에	-15224
▁여운과	-15225
▁여인의	-15226
▁여태껏	-15227
▁영혼이	-15228
▁오디션	-15229
▁외로움	-15230
▁요즘엔	-15231
▁우정이	-15232
▁원작인	-15233
▁월드컵	-15234
▁이슬람	-15235
▁인물을	-15236
▁인연이	-15237
▁있었지	-15238
▁정서에	-15239
▁제레미	-15240
▁좀비물	-15241
▁주변에	-15242
▁주었다	-15243
▁중국이	-15244
▁줘야지	-15245
▁짠하고	-15246
▁철학이	-15247
▁춤추는	-15248
▁케이스	-15249
▁코믹물	-15250
▁쿠엔틴	-15251
▁파치노	-15252
▁편안한	-15253
▁포장한	-15254
▁폴리스	-15255
▁하더니	-15256
▁합리화	-15257
▁행복은	-15258
▁흥행이	-15259
방송에서	-15260
본영화중	-15261
봐야겠다	-15262
시리즈를	-15263
아니지만	-15264
아이들이	-15265
에서부터	-15266
지도않은	-15267
지루해서	-15268
진심으로	-15269
하긴한데	-15270
▁1980	-15271
▁결혼하고	-15272
▁그럴듯한	-15273
▁그림체도	-15274
▁그립네요	-15275
▁나오지도	-15276
▁남깁니다	-15277
▁녹아있는	-15278
▁느껴져서	-15279
▁대부분의	-15280
▁댓글알바	-15281
▁드러나는	-15282
▁들어가서	-15283
▁만드는데	-15284
▁매끄럽지	-15285
▁메시지도	-15286
▁명작이지	-15287
▁목소리는	-15288
▁밀려오는	-15289
▁반복되는	-15290
▁별로였던	-15291
▁부족했다	-15292
▁불우이웃	-15293
▁브라이언	-15294
▁살아있다	-15295
▁상관없는	-15296
▁서스펜스	-15297
▁소소하게	-15298
▁스릴러도	-15299
▁스토리만	-15300
▁시리즈물	-15301
▁시청자가	-15302
▁실망스러	-15303
▁실화라고	-15304
▁아까운데	-15305
▁안무서움	-15306
▁안무섭다	-15307
▁안주는데	-15308
▁압권이다	-15309
▁영화ᄏᄏ	-15310
▁영화보단	-15311
▁오래도록	-15312
▁오토바이	-15313
▁외국영화	-15314
▁우울할때	-15315
▁음악까지	-15316
▁이유없이	-15317
▁있었으나	-15318
▁재미까지	-15319
▁적절하게	-15320
▁조잡하다	-15321
▁좋아하던	-15322
▁중심으로	-15323
▁쥬라기공	-15324
▁지루했고	-15325
▁진지하고	-15326
▁찾아가는	-15327
▁촌스럽지	-15328
▁최고예요	-15329
▁파격적인	-15330
▁표현하는	-15331
▁풀어가는	-15332
▁프로젝트	-15333
▁흥미롭지	-15334
나다라마바	-15335
스럽습니다	-15336
영화라지만	-15337
재미없어요	-15338
재밌었는데	-15339
재밌었어요	-15340
추천합니다	-15341
하긴하지만	-15342
▁개연성없는	-15343
▁관객들에게	-15344
▁괜찮은영화	-15345
▁느껴지네요	-15346
▁심리묘사가	-15347
▁아담샌들러	-15348
▁안나왔으면	-15349
▁에반게리온	-15350
▁여주인공도	-15351
▁영화였네요	-15352
▁이딴영화가	-15353
▁잔인하기만	-15354
▁잘만든영화	-15355
▁재미없으면	-15356
▁저예산으로	-15357
▁지루하기도	-15358
▁토이스토리	-15359
▁하지마루요	-15360
▁안좋아하는데	-15361
!'	-15362
GM	-15363
OD	-15364
gh	-15365
gm	-15366
ry	-15367
~5	-15368
~6	-15369
ᅩᅩ	-15370
▁v	-15371
▁z	-15372
▁꽥	-15373
▁닦	-15374
▁댓	-15375
▁떳	-15376
▁띠	-15377
▁래	-15378
▁룰	-15379
▁르	-15380
▁몹	-15381
▁뺀	-15382
▁뻑	-15383
▁뻘	-15384
▁엎	-15385
▁텔	-15386
▁펄	-15387
각을	-15388
갈등	-15389
거북	-15390
경씨	-15391
경험	-15392
계에	-15393
공간	-15394
공룡	-15395
관은	-15396
구구	-15397
굳굳	-15398
그가	-15399
꾸역	-15400
나나	-15401
노는	-15402
노쉬	-15403
단말	-15404
대중	-15405
데가	-15406
도현	-15407
됐음	-15408
된게	-15409
된듯	-15410
될까	-15411
디의	-15412
락을	-15413
량이	-15414
레알	-15415
려원	-15416
렸어	-15417
마미	-15418
매일	-15419
모도	-15420
모험	-15421
바꾸	-15422
바에	-15423
발랄	-15424
배를	-15425
봤고	-15426
분투	-15427
생명	-15428
성인	-15429
성장	-15430
세를	-15431
세에	-15432
셨다	-15433
스랑	-15434
스맨	-15435
실제	-15436
싶어	-15437
아픔	-15438
안다	-15439
앤더	-15440
예뻐	-15441
예전	-15442
옥빈	-15443
올려	-15444
와도	-15445
용석	-15446
울수	-15447
워라	-15448
워야	-15449
윤아	-15450
이루	-15451
일드	-15452
자살	-15453
잡이	-15454
잼씀	-15455
전도	-15456
져라	-15457
졌어	-15458
조합	-15459
줬음	-15460
지노	-15461
차드	-15462
춰진	-15463
치에	-15464
카의	-15465
캔들	-15466
쿠삭	-15467
쿼터	-15468
투표	-15469
트랙	-15470
티네	-15471
피해	-15472
한명	-15473
호강	-15474
희망	-15475
▁2.	-15476
▁27	-15477
▁3.	-15478
▁44	-15479
▁93	-15480
▁am	-15481
▁up	-15482
▁ᄉᄉ	-15483
▁가다	-15484
▁개가	-15485
▁개운	-15486
▁것의	-15487
▁곁에	-15488
▁계단	-15489
▁고난	-15490
▁골라	-15491
▁관능	-15492
▁구나	-15493
▁구입	-15494
▁그후	-15495
▁근친	-15496
▁긴급	-15497
▁깊다	-15498
▁나른	-15499
▁남들	-15500
▁니미	-15501
▁대구	-15502
▁대륙	-15503
▁대처	-15504
▁더러	-15505
▁던지	-15506
▁되요	-15507
▁디젤	-15508
▁딸과	-15509
▁뗄수	-15510
▁뜨고	-15511
▁뜻이	-15512
▁말곤	-15513
▁맞을	-15514
▁머니	-15515
▁모래	-15516
▁몸짓	-15517
▁문채	-15518
▁박스	-15519
▁백미	-15520
▁버스	-15521
▁벌레	-15522
▁보냐	-15523
▁보수	-15524
▁브금	-15525
▁브리	-15526
▁서영	-15527
▁서태	-15528
▁세이	-15529
▁셜록	-15530
▁소나	-15531
▁속아	-15532
▁속터	-15533
▁손이	-15534
▁스테	-15535
▁슴가	-15536
▁싶고	-15537
▁싼티	-15538
▁쌍벽	-15539
▁쓰면	-15540
▁안줄	-15541
▁않길	-15542
▁알라	-15543
▁애는	-15544
▁억압	-15545
▁얻을	-15546
▁여정	-15547
▁와나	-15548
▁외에	-15549
▁웃다	-15550
▁웃어	-15551
▁웬지	-15552
▁유도	-15553
▁유튜	-15554
▁이가	-15555
▁이국	-15556
▁이뿌	-15557
▁인과	-15558
▁잃게	-15559
▁작렬	-15560
▁잠재	-15561
▁장백	-15562
▁장선	-15563
▁장화	-15564
▁장황	-15565
▁재료	-15566
▁재연	-15567
▁재판	-15568
▁저능	-15569
▁전의	-15570
▁정경	-15571
▁제맛	-15572
▁조건	-15573
▁조성	-15574
▁좌빨	-15575
▁주네	-15576
▁주저	-15577
▁중견	-15578
▁지날	-15579
▁진출	-15580
▁질러	-15581
▁짙은	-15582
▁책은	-15583
▁추석	-15584
▁춤을	-15585
▁치부	-15586
▁쿠바	-15587
▁클럽	-15588
▁탈을	-15589
▁투입	-15590
▁하실	-15591
▁학예	-15592
▁한게	-15593
▁해설	-15594
▁해운	-15595
▁호화	-15596
▁활동	-15597
감독과	-15598
거같고	-15599
거리며	-15600
거린다	-15601
나는데	-15602
내시간	-15603
드래곤	-15604
따위로	-15605
또보고	-15606
렸을때	-15607
많아서	-15608
무서움	-15609
베스트	-15610
보는중	-15611
보여준	-15612
부르는	-15613
사랑에	-15614
사랑이	-15615
셨어요	-15616
쇼스키	-15617
시네마	-15618
시대가	-15619
시절의	-15620
싸이코	-15621
아닐까	-15622
엇으면	-15623
었을듯	-15624
연기짱	-15625
영화야	-15626
완성도	-15627
으려다	-15628
이구만	-15629
이상한	-15630
작가의	-15631
작품은	-15632
절하게	-15633
점이라	-15634
지모르	-15635
차이가	-15636
초반에	-15637
티스트	-15638
편이나	-15639
할께요	-15640
핵노잼	-15641
했을듯	-15642
*^^*	-15643
▁ᄊᄅᄀ	-15644
▁ᅮᅮᅮ	-15645
▁가족은	-15646
▁감정에	-15647
▁강력한	-15648
▁개망작	-15649
▁갱스터	-15650
▁건질게	-15651
▁공포와	-15652
▁과거에	-15653
▁관람가	-15654
▁그걸로	-15655
▁그러다	-15656
▁기분을	-15657
▁기억남	-15658
▁길들여	-15659
▁김수로	-15660
▁끌리는	-15661
▁나까지	-15662
▁나라는	-15663
▁나온게	-15664
▁나혼자	-15665
▁남자랑	-15666
▁낫다고	-15667
▁높은거	-15668
▁다큐가	-15669
▁다큐로	-15670
▁대단해	-15671
▁대사에	-15672
▁대작이	-15673
▁댓글이	-15674
▁데스노	-15675
▁도가니	-15676
▁돋았다	-15677
▁돌아간	-15678
▁되겠다	-15679
▁드릅게	-15680
▁드리고	-15681
▁마니아	-15682
▁만들까	-15683
▁만화로	-15684
▁많이나	-15685
▁매력과	-15686
▁모아서	-15687
▁못본게	-15688
▁못봤다	-15689
▁못해도	-15690
▁미묘한	-15691
▁박유천	-15692
▁박해일	-15693
▁발전을	-15694
▁보아야	-15695
▁분노를	-15696
▁불끄고	-15697
▁불편함	-15698
▁비교할	-15699
▁빠순이	-15700
▁빠지지	-15701
▁사건이	-15702
▁사랑함	-15703
▁살아갈	-15704
▁설명은	-15705
▁설정을	-15706
▁성폭행	-15707
▁소설로	-15708
▁속시원	-15709
▁순수함	-15710
▁스트레	-15711
▁시청율	-15712
▁싱크로	-15713
▁아픔과	-15714
▁악당이	-15715
▁안보길	-15716
▁안봤다	-15717
▁안하는	-15718
▁않겠다	-15719
▁암걸릴	-15720
▁애들용	-15721
▁애잔한	-15722
▁양심도	-15723
▁어울려	-15724
▁어울림	-15725
▁없는거	-15726
▁없는것	-15727
▁없이도	-15728
▁여행을	-15729
▁역겹고	-15730
▁역량이	-15731
▁열정을	-15732
▁요즘에	-15733
▁우리들	-15734
▁울버린	-15735
▁웃긴데	-15736
▁원작도	-15737
▁은은한	-15738
▁이기는	-15739
▁이들을	-15740
▁이자벨	-15741
▁이하의	-15742
▁일본어	-15743
▁일으킨	-15744
▁입가에	-15745
▁있도록	-15746
▁자연의	-15747
▁잼없어	-15748
▁전부인	-15749
▁좋겠음	-15750
▁주는거	-15751
▁주는건	-15752
▁주셔서	-15753
▁지겹고	-15754
▁지들이	-15755
▁지진희	-15756
▁질질끄	-15757
▁짱인듯	-15758
▁채널을	-15759
▁초호화	-15760
▁최악은	-15761
▁최지우	-15762
▁출연작	-15763
▁토할뻔	-15764
▁포기한	-15765
▁표현은	-15766
▁프리퀄	-15767
▁한국을	-15768
▁한두번	-15769
▁현대판	-15770
겠습니까	-15771
대한민국	-15772
생각나서	-15773
시간가는	-15774
시간짜리	-15775
영화보고	-15776
으로부터	-15777
이나네요	-15778
인들에게	-15779
주인공은	-15780
처음으로	-15781
최악이다	-15782
해피엔딩	-15783
~~!!!	-15784
~~~^^	-15785
▁감안해도	-15786
▁것입니다	-15787
▁관객들이	-15788
▁교훈적인	-15789
▁나에게도	-15790
▁남습니다	-15791
▁내인생의	-15792
▁누군가가	-15793
▁눈물나는	-15794
▁다시보면	-15795
▁다좋은데	-15796
▁되었지만	-15797
▁로드리게	-15798
▁막무가내	-15799
▁만들었음	-15800
▁명작으로	-15801
▁몇년전에	-15802
▁못만드나	-15803
▁바보같은	-15804
▁벗어나지	-15805
▁별로던데	-15806
▁보았어요	-15807
▁볼만했던	-15808
▁빠져들어	-15809
▁성냥팔이	-15810
▁시각으로	-15811
▁시끄럽고	-15812
▁시원시원	-15813
▁시점에서	-15814
▁아깝다고	-15815
▁아련하고	-15816
▁안무섭고	-15817
▁애들한테	-15818
▁어쩌라는	-15819
▁억지스럽	-15820
▁없으면서	-15821
▁영화에는	-15822
▁예상되는	-15823
▁완벽했다	-15824
▁웃기기도	-15825
▁유머러스	-15826
▁이럴수가	-15827
▁있는건지	-15828
▁있었다면	-15829
▁자막으로	-15830
▁잘생겼다	-15831
▁재밌으면	-15832
▁저질영화	-15833
▁제목으로	-15834
▁좋았을걸	-15835
▁짜증났음	-15836
▁팬이지만	-15837
▁해주네요	-15838
▁현실감이	-15839
▁후반부는	-15840
▁후회된다	-15841
▁가족드라마	-15842
▁괜찮았지만	-15843
▁누구에게나	-15844
▁등장인물들	-15845
▁떨어지네요	-15846
▁생각됩니다	-15847
▁소름돋았다	-15848
▁스토리까지	-15849
▁시리즈중에	-15850
▁아름답네요	-15851
▁안드로메다	-15852
▁이런드라마	-15853
▁일본영화가	-15854
▁잘어울리는	-15855
▁재미더럽게	-15856
▁제시카알바	-15857
▁처음이었다	-15858
▁평론가들이	-15859
▁포스터보고	-15860
▁하이라이트	-15861
▁기대안했는데	-15862
▁모르겠습니다	-15863
▁재미없었어요	-15864
▁하나만으로도	-15865
▁좋은영화입니다	-15866
▁ᄏᄏᄏᄏᄏᄏᄏᄏᄏᄏᄏᄏᄏᄏᄏ	-15867
/3	-15868
~.	-15869
~^	-15870
▁Z	-15871
▁ᄎ	-15872
▁뉘	-15873
▁둥	-15874
▁득	-15875
▁랜	-15876
▁료	-15877
▁샬	-15878
▁샹	-15879
▁솟	-15880
▁썅	-15881
▁쯔	-15882
▁촉	-15883
▁훅	-15884
▁휩	-15885
가기	-15886
가물	-15887
거짓	-15888
겠니	-15889
고리	-15890
과연	-15891
관념	-15892
관심	-15893
구멍	-15894
귀가	-15895
그릇	-15896
김기	-15897
깊이	-15898
남친	-15899
났네	-15900
네스	-15901
노동	-15902
느낄	-15903
님과	-15904
댄스	-15905
동의	-15906
돼서	-15907
되니	-15908
되야	-15909
드류	-15910
디다	-15911
딱지	-15912
뜬금	-15913
란의	-15914
랄라	-15915
력의	-15916
렸을	-15917
로게	-15918
마를	-15919
만남	-15920
말투	-15921
먹기	-15922
먹음	-15923
모델	-15924
모어	-15925
무술	-15926
민족	-15927
바퀴	-15928
방울	-15929
백만	-15930
별이	-15931
부들	-15932
분간	-15933
분열	-15934
불패	-15935
빵빵	-15936
사장	-15937
사투	-15938
상업	-15939
성격	-15940
소문	-15941
시각	-15942
신사	-15943
싶음	-15944
쓸데	-15945
아련	-15946
양은	-15947
여성	-15948
연씨	-15949
영혼	-15950
예쁜	-15951
오바	-15952
왜케	-15953
운다	-15954
위는	-15955
으시	-15956
자본	-15957
잘안	-15958
젊은	-15959
조용	-15960
좀더	-15961
주혁	-15962
죽은	-15963
줄도	-15964
즈업	-15965
지던	-15966
지상	-15967
질에	-15968
체류	-15969
최근	-15970
출신	-15971
칠이	-15972
카드	-15973
코난	-15974
크게	-15975
타인	-15976
태가	-15977
터클	-15978
폐지	-15979
피디	-15980
하도	-15981
해줌	-15982
행동	-15983
황후	-15984
히지	-15985
--;	-15986
her	-15987
▁do	-15988
▁go	-15989
▁가요	-15990
▁갖추	-15991
▁개쩔	-15992
▁결제	-15993
▁공식	-15994
▁귀한	-15995
▁깨우	-15996
▁나네	-15997
▁남상	-15998
▁낯설	-15999
▁너의	-16000
▁넣고	-16001
▁놀아	-16002
▁당할	-16003
▁대만	-16004
▁도로	-16005
▁뒤집	-16006
▁똥망	-16007
▁러닝	-16008
▁만듦	-16009
▁매니	-16010
▁멍때	-16011
▁못찾	-16012
▁물리	-16013
▁미남	-16014
▁바둑	-16015
▁박물	-16016
▁배고	-16017
▁병원	-16018
▁비급	-16019
▁비둘	-16020
▁비포	-16021
▁뻔해	-16022
▁사골	-16023
▁서글	-16024
▁세븐	-16025
▁소속	-16026
▁솔찍	-16027
▁스콜	-16028
▁아끼	-16029
▁알앗	-16030
▁양키	-16031
▁얼어	-16032
▁여군	-16033
▁연령	-16034
▁오정	-16035
▁옮겨	-16036
▁용감	-16037
▁용의	-16038
▁울려	-16039
▁유기	-16040
▁육체	-16041
▁으악	-16042
▁이글	-16043
▁인위	-16044
▁자가	-16045
▁잘짜	-16046
▁잡지	-16047
▁잭슨	-16048
▁잼남	-16049
▁저만	-16050
▁저번	-16051
▁정성	-16052
▁주식	-16053
▁주인	-16054
▁죽지	-16055
▁준수	-16056
▁줬어	-16057
▁집합	-16058
▁짓게	-16059
▁짓을	-16060
▁차갑	-16061
▁참내	-16062
▁최선	-16063
▁케미	-16064
▁크라	-16065
▁타는	-16066
▁탐욕	-16067
▁폰부	-16068
▁프랑	-16069
▁해병	-16070
▁향기	-16071
▁헐크	-16072
▁형성	-16073
▁형식	-16074
▁확신	-16075
감정이	-16076
거라곤	-16077
결말은	-16078
그렇다	-16079
나보네	-16080
내인생	-16081
느낌의	-16082
되는지	-16083
되었던	-16084
래이션	-16085
멋있다	-16086
모로우	-16087
미니즘	-16088
보다더	-16089
시켰다	-16090
씁니다	-16091
아이들	-16092
안나옴	-16093
억지로	-16094
여자의	-16095
영화들	-16096
영화와	-16097
오피스	-16098
이구나	-16099
이네여	-16100
인건지	-16101
인이다	-16102
일텐데	-16103
작품을	-16104
잘어울	-16105
준영화	-16106
지마요	-16107
질질끌	-16108
충분히	-16109
칩니다	-16110
하구요	-16111
하도록	-16112
하셔서	-16113
해줬다	-16114
회에서	-16115
3456	-16116
▁0.1	-16117
▁Bad	-16118
▁but	-16119
▁for	-16120
▁not	-16121
▁각본을	-16122
▁갑이다	-16123
▁같았음	-16124
▁같으니	-16125
▁개그는	-16126
▁걸작을	-16127
▁것보다	-16128
▁결혼식	-16129
▁경쾌한	-16130
▁고마워	-16131
▁고스트	-16132
▁공포감	-16133
▁공효진	-16134
▁과언이	-16135
▁교도소	-16136
▁군대가	-16137
▁그런걸	-16138
▁나쁘다	-16139
▁나서도	-16140
▁나았을	-16141
▁나온건	-16142
▁나이를	-16143
▁나지만	-16144
▁나타난	-16145
▁낚였어	-16146
▁남동생	-16147
▁남들이	-16148
▁노다메	-16149
▁놓치지	-16150
▁다있냐	-16151
▁다있어	-16152
▁댓글에	-16153
▁들어요	-16154
▁들었던	-16155
▁들여다	-16156
▁디자인	-16157
▁따스한	-16158
▁때로는	-16159
▁류덕환	-16160
▁리차드	-16161
▁많이들	-16162
▁말처럼	-16163
▁맞나요	-16164
▁몸매는	-16165
▁못보겠	-16166
▁못하면	-16167
▁민주화	-16168
▁바뀌는	-16169
▁베를린	-16170
▁보지않	-16171
▁부모가	-16172
▁부족해	-16173
▁사는게	-16174
▁색다르	-16175
▁성장기	-16176
▁세기의	-16177
▁슬픔과	-16178
▁신은경	-16179
▁심금을	-16180
▁아이는	-16181
▁안만들	-16182
▁알려진	-16183
▁앨리스	-16184
▁엔딩도	-16185
▁여자랑	-16186
▁역사와	-16187
▁영화보	-16188
▁예술적	-16189
▁오늘의	-16190
▁오랫만	-16191
▁올리기	-16192
▁우리와	-16193
▁우리집	-16194
▁울린다	-16195
▁워싱턴	-16196
▁위안부	-16197
▁유오성	-16198
▁의지가	-16199
▁이런류	-16200
▁이렇다	-16201
▁이렇지	-16202
▁이름도	-16203
▁이민정	-16204
▁이민호	-16205
▁이수근	-16206
▁이용한	-16207
▁이제껏	-16208
▁이지만	-16209
▁인디언	-16210
▁있는건	-16211
▁자리를	-16212
▁자식을	-16213
▁자전거	-16214
▁자존심	-16215
▁저에게	-16216
▁전작을	-16217
▁전체를	-16218
▁정점을	-16219
▁제외한	-16220
▁조금더	-16221
▁조화가	-16222
▁졸작을	-16223
▁주지훈	-16224
▁지나고	-16225
▁지나면	-16226
▁지상파	-16227
▁짓거리	-16228
▁짱짱짱	-16229
▁찌질이	-16230
▁찍어서	-16231
▁찍으면	-16232
▁채민서	-16233
▁초월한	-16234
▁총으로	-16235
▁출연료	-16236
▁킹왕짱	-16237
▁탕웨이	-16238
▁평가는	-16239
▁포스트	-16240
▁풍기는	-16241
▁하나씩	-16242
▁하더라	-16243
▁하품만	-16244
▁학생들	-16245
▁함께한	-16246
▁해야할	-16247
▁호러물	-16248
▁화면에	-16249
▁힘들고	-16250
떨어지고	-16251
배우들은	-16252
보지마셈	-16253
스러움이	-16254
영화라는	-16255
영화로는	-16256
영화인지	-16257
왠만하면	-16258
을수없는	-16259
이정도면	-16260
좋겠어요	-16261
좋았는데	-16262
지금봐도	-16263
지못하고	-16264
짜증나서	-16265
한영화다	-16266
해야한다	-16267
-_-;;	-16268
..;;;	-16269
▁this	-16270
▁감안하고	-16271
▁감정표현	-16272
▁귀엽네요	-16273
▁그대로의	-16274
▁그러는데	-16275
▁극장판이	-16276
▁나뿐인가	-16277
▁나오는건	-16278
▁나오니까	-16279
▁나올법한	-16280
▁나이먹고	-16281
▁남자친구	-16282
▁내용이라	-16283
▁내인생에	-16284
▁내취향은	-16285
▁너무했다	-16286
▁넘어가는	-16287
▁놀랍네요	-16288
▁눈물나게	-16289
▁다르지만	-16290
▁담겨있는	-16291
▁당시에도	-16292
▁대단하고	-16293
▁레즈비언	-16294
▁마지막을	-16295
▁만든거지	-16296
▁만큼이나	-16297
▁바이올린	-16298
▁방황하는	-16299
▁별로라고	-16300
▁보는건지	-16301
▁봤던영화	-16302
▁봤을때는	-16303
▁부분들이	-16304
▁부족함이	-16305
▁불법체류	-16306
▁블루레이	-16307
▁비교된다	-16308
▁비디오용	-16309
▁사라지는	-16310
▁사람에겐	-16311
▁생각되는	-16312
▁생각없는	-16313
▁설득력이	-16314
▁섹시하고	-16315
▁순간순간	-16316
▁순수하게	-16317
▁순수함이	-16318
▁슬펐어요	-16319
▁시간때우	-16320
▁시덥잖은	-16321
▁시시하고	-16322
▁시어머니	-16323
▁시작된다	-16324
▁신기하고	-16325
▁씁쓸하다	-16326
▁알고싶다	-16327
▁알수있다	-16328
▁어거지로	-16329
▁어느하나	-16330
▁어렷을때	-16331
▁어른들을	-16332
▁어우러져	-16333
▁여자애가	-16334
▁연기들이	-16335
▁영화군요	-16336
▁영화로만	-16337
▁올라갈때	-16338
▁올리비아	-16339
▁유치하지	-16340
▁이거밖에	-16341
▁이때부터	-16342
▁이영화도	-16343
▁이해안감	-16344
▁있었네요	-16345
▁있었다는	-16346
▁잘하시고	-16347
▁재밌더라	-16348
▁저버리지	-16349
▁전달하는	-16350
▁정신없는	-16351
▁정체성을	-16352
▁조연들의	-16353
▁종교적인	-16354
▁좋겠는데	-16355
▁중요하다	-16356
▁지루한건	-16357
▁질질끄는	-16358
▁추천하는	-16359
▁친구한테	-16360
▁코미디와	-16361
▁쿵푸팬더	-16362
▁평점으로	-16363
▁한마디만	-16364
▁할말없다	-16365
▁할수있는	-16366
뻔한스토리	-16367
영화보면서	-16368
재밌습니다	-16369
최고입니다	-16370
▁다섯손가락	-16371
▁다시보고싶	-16372
▁드라마지만	-16373
▁만들어놓고	-16374
▁만들어주는	-16375
▁무엇보다도	-16376
▁보고나서도	-16377
▁사람으로써	-16378
▁생각한다면	-16379
▁소름끼치게	-16380
▁시사회에서	-16381
▁재미없어도	-16382
▁중반까지는	-16383
▁카리스마가	-16384
▁테러리스트	-16385
▁한국영화를	-16386
▁한국영화에	-16387
▁한국영화중	-16388
나다라마바사	-16389
▁기대이상으로	-16390
▁보게되었는데	-16391
▁어처구니없는	-16392
▁킬링타임으로	-16393
▁흥미진진하다	-16394
00000000	-16395
▁기대하고봤는데	-16396
▁평점조절위원회	-16397
▁시간가는줄모르고	-16398
ᅲᅲᅲᅲᅲᅲᅲᅲᅲᅲᅲᅲᅲᅲᅲᅲ	-16399
-)	-16400
.<	-16401
~♡	-16402
▁@	-16403
▁괘	-16404
▁깬	-16405
▁딜	-16406
▁밨	-16407
▁삘	-16408
▁쌀	-16409
▁쑤	-16410
▁씻	-16411
▁젬	-16412
▁큼	-16413
▁탔	-16414
▁톤	-16415
▁휼	-16416
강력	-16417
거가	-16418
거고	-16419
것과	-16420
고의	-16421
공을	-16422
과거	-16423
관의	-16424
광이	-16425
그로	-16426
끈다	-16427
끈한	-16428
나은	-16429
날뻔	-16430
넬로	-16431
노소	-16432
니는	-16433
다섯	-16434
단계	-16435
당함	-16436
더가	-16437
될지	-16438
두환	-16439
듣는	-16440
들게	-16441
따로	-16442
라며	-16443
란드	-16444
람쥐	-16445
렴풋	-16446
로움	-16447
리냐	-16448
리리	-16449
림의	-16450
망신	-16451
목을	-16452
묘사	-16453
무한	-16454
미야	-16455
미지	-16456
버젼	-16457
벌써	-16458
법을	-16459
벗고	-16460
베일	-16461
보려	-16462
보인	-16463
봣던	-16464
불편	-16465
비씨	-16466
산을	-16467
생긴	-16468
서를	-16469
서사	-16470
세연	-16471
세영	-16472
세의	-16473
시코	-16474
아닙	-16475
안볼	-16476
애의	-16477
여왕	-16478
열에	-16479
였죠	-16480
예모	-16481
오를	-16482
올림	-16483
용을	-16484
우며	-16485
으루	-16486
이정	-16487
이치	-16488
재석	-16489
저의	-16490
정아	-16491
조치	-16492
지좀	-16493
진모	-16494
질뻔	-16495
짧은	-16496
채영	-16497
천히	-16498
치며	-16499
키드	-16500
태어	-16501
토의	-16502
통을	-16503
통이	-16504
툭튀	-16505
파일	-16506
폭탄	-16507
표절	-16508
한숨	-16509
향을	-16510
호크	-16511
흑흑	-16512
흘러	-16513
OOD	-16514
ime	-16515
ᄒᄃᄃ	-16516
▁SM	-16517
▁ch	-16518
▁on	-16519
▁갈망	-16520
▁강수	-16521
▁갖는	-16522
▁같애	-16523
▁걸고	-16524
▁공동	-16525
▁교감	-16526
▁구석	-16527
▁기름	-16528
▁김두	-16529
▁김준	-16530
▁꾸며	-16531
▁나게	-16532
▁넘나	-16533
▁년이	-16534
▁놀랬	-16535
▁높여	-16536
▁느려	-16537
▁늦은	-16538
▁닮아	-16539
▁답습	-16540
▁답을	-16541
▁대로	-16542
▁대세	-16543
▁더해	-16544
▁돈에	-16545
▁동경	-16546
▁되네	-16547
▁될지	-16548
▁등을	-16549
▁디게	-16550
▁딴거	-16551
▁루이	-16552
▁면을	-16553
▁몇명	-16554
▁모리	-16555
▁모지	-16556
▁목을	-16557
▁못잡	-16558
▁무당	-16559
▁무모	-16560
▁무자	-16561
▁묵직	-16562
▁뭘본	-16563
▁밍밍	-16564
▁반의	-16565
▁백번	-16566
▁비약	-16567
▁빠졌	-16568
▁사연	-16569
▁사운	-16570
▁상쾌	-16571
▁생길	-16572
▁서지	-16573
▁세기	-16574
▁수단	-16575
▁식당	-16576
▁신발	-16577
▁아포	-16578
▁안할	-16579
▁안함	-16580
▁애쓰	-16581
▁애쓴	-16582
▁없죠	-16583
▁에혀	-16584
▁여긴	-16585
▁오죽	-16586
▁올인	-16587
▁울음	-16588
▁위기	-16589
▁유준	-16590
▁유희	-16591
▁윤재	-16592
▁윤진	-16593
▁이브	-16594
▁일대	-16595
▁일도	-16596
▁자녀	-16597
▁자매	-16598
▁자폐	-16599
▁잡다	-16600
▁장담	-16601
▁재활	-16602
▁잼게	-16603
▁잼써	-16604
▁잼이	-16605
▁적인	-16606
▁전용	-16607
▁조미	-16608
▁조악	-16609
▁좁은	-16610
▁종말	-16611
▁주려	-16612
▁주민	-16613
▁죽임	-16614
▁지연	-16615
▁지쳐	-16616
▁직원	-16617
▁짐작	-16618
▁집안	-16619
▁쫓아	-16620
▁찐한	-16621
▁차기	-16622
▁청소	-16623
▁축하	-16624
▁치중	-16625
▁캡틴	-16626
▁킬빌	-16627
▁타워	-16628
▁톡톡	-16629
▁퇴마	-16630
▁틀에	-16631
▁편향	-16632
▁포커	-16633
▁한층	-16634
▁함축	-16635
▁허우	-16636
▁형이	-16637
▁홍경	-16638
▁후후	-16639
▁훌쩍	-16640
▁휼륭	-16641
가야지	-16642
가에서	-16643
같다는	-16644
거같은	-16645
것들은	-16646
겟지만	-16647
관계를	-16648
귀여운	-16649
귀엽다	-16650
그래요	-16651
기대를	-16652
나왔다	-16653
났네요	-16654
는지는	-16655
다시는	-16656
대단한	-16657
더라는	-16658
도좋고	-16659
되다니	-16660
들처럼	-16661
라고는	-16662
라는건	-16663
랐는데	-16664
머리가	-16665
박자가	-16666
배우는	-16667
보기로	-16668
보여서	-16669
부리는	-16670
부에서	-16671
분까지	-16672
살면서	-16673
시간의	-16674
시하는	-16675
아프고	-16676
애들도	-16677
었다니	-16678
었으나	-16679
오그라	-16680
유치한	-16681
을정도	-16682
이예요	-16683
주의의	-16684
진부한	-16685
짜증남	-16686
짱짱맨	-16687
편이랑	-16688
프스키	-16689
하는걸	-16690
해버린	-16691
했어야	-16692
OOOO	-16693
▁1~2	-16694
▁^-^	-16695
▁^^*	-16696
▁bgm	-16697
▁bor	-16698
▁가볍지	-16699
▁가족들	-16700
▁가족에	-16701
▁갈리는	-16702
▁감독에	-16703
▁감정과	-16704
▁강우석	-16705
▁개고생	-16706
▁개허접	-16707
▁거의다	-16708
▁결말로	-16709
▁결말의	-16710
▁결혼을	-16711
▁경험이	-16712
▁굿바이	-16713
▁귀엽게	-16714
▁그런게	-16715
▁그림도	-16716
▁그보다	-16717
▁그사람	-16718
▁기묘한	-16719
▁김정은	-16720
▁김창완	-16721
▁꺼버린	-16722
▁나탈리	-16723
▁남아요	-16724
▁느껴야	-16725
▁달라서	-16726
▁담아내	-16727
▁데이트	-16728
▁된장녀	-16729
▁따라올	-16730
▁마디로	-16731
▁만든듯	-16732
▁말기를	-16733
▁말하기	-16734
▁망하는	-16735
▁망했다	-16736
▁맞먹는	-16737
▁모두의	-16738
▁몰입할	-16739
▁몸매가	-16740
▁못알아	-16741
▁무고한	-16742
▁무능력	-16743
▁무슨죄	-16744
▁문제다	-16745
▁뭐이런	-16746
▁뭔지도	-16747
▁바치는	-16748
▁배슬기	-16749
▁배역이	-16750
▁범죄를	-16751
▁보려면	-16752
▁복수는	-16753
▁본인은	-16754
▁볼때는	-16755
▁봤건만	-16756
▁불면증	-16757
▁브로디	-16758
▁비극을	-16759
▁비운의	-16760
▁비참한	-16761
▁설레고	-16762
▁속으로	-16763
▁스러운	-16764
▁아프게	-16765
▁안되냐	-16766
▁알면서	-16767
▁알았지	-16768
▁알지만	-16769
▁애니의	-16770
▁어렴풋	-16771
▁어른을	-16772
▁여진구	-16773
▁역사가	-16774
▁영웅이	-16775
▁영환지	-16776
▁예술로	-16777
▁오마쥬	-16778
▁올해의	-16779
▁욕망을	-16780
▁울트라	-16781
▁웅장한	-16782
▁유익한	-16783
▁의리로	-16784
▁이보단	-16785
▁이상형	-16786
▁이어서	-16787
▁일본을	-16788
▁있을지	-16789
▁있음을	-16790
▁자격이	-16791
▁자체다	-16792
▁잘하시	-16793
▁재미에	-16794
▁재미짐	-16795
▁저렴한	-16796
▁전개로	-16797
▁절실히	-16798
▁정서가	-16799
▁정준호	-16800
▁정체가	-16801
▁정확한	-16802
▁조인성	-16803
▁존쿠삭	-16804
▁존트라	-16805
▁종교를	-16806
▁지금에	-16807
▁지르고	-16808
▁진부함	-16809
▁진실된	-16810
▁짜증을	-16811
▁찝찝함	-16812
▁최고야	-16813
▁최악인	-16814
▁치밀어	-16815
▁케로로	-16816
▁키드먼	-16817
▁토마스	-16818
▁팬이라	-16819
▁평점과	-16820
▁피노키	-16821
▁필요도	-16822
▁하는짓	-16823
▁하여튼	-16824
▁현재를	-16825
▁형제의	-16826
▁호흡이	-16827
▁희생을	-16828
▁히스레	-16829
▁힘들듯	-16830
나오는데	-16831
드라마다	-16832
명작이다	-16833
수준이다	-16834
시리즈의	-16835
영화라니	-16836
왜이렇게	-16837
입장에서	-16838
지지않는	-16839
하는건데	-16840
해보이는	-16841
?....	-16842
▁1990	-16843
▁1998	-16844
▁1999	-16845
▁9~10	-16846
▁ᅮᅮᅮᅮ	-16847
▁가슴속에	-16848
▁거기다가	-16849
▁견자단이	-16850
▁골때리는	-16851
▁공간에서	-16852
▁관객들을	-16853
▁괜찮다고	-16854
▁괜찮을듯	-16855
▁그랬지만	-16856
▁그이하도	-16857
▁깊이있는	-16858
▁꾸역꾸역	-16859
▁끝났으면	-16860
▁나오겠지	-16861
▁나한테는	-16862
▁너무한거	-16863
▁담백하게	-16864
▁답답하게	-16865
▁대리만족	-16866
▁대부분이	-16867
▁돈아깝고	-16868
▁동생이랑	-16869
▁되었어요	-16870
▁되었으면	-16871
▁두번이나	-16872
▁들었어요	-16873
▁떨어져서	-16874
▁또보고싶	-16875
▁마녀사냥	-16876
▁말해준다	-16877
▁맘에든다	-16878
▁맞지않는	-16879
▁머리속에	-16880
▁모습에서	-16881
▁모자이크	-16882
▁무서워요	-16883
▁미화시킨	-16884
▁보셨으면	-16885
▁보여지는	-16886
▁비슷하다	-16887
▁비슷해서	-16888
▁빠짐없이	-16889
▁서정적인	-16890
▁성지순례	-16891
▁수준으로	-16892
▁슈퍼액션	-16893
▁시시하다	-16894
▁신선했고	-16895
▁쓰잘데기	-16896
▁아쉬웠던	-16897
▁아주그냥	-16898
▁않았어요	-16899
▁액션씬은	-16900
▁야한장면	-16901
▁어렸을땐	-16902
▁어색하지	-16903
▁연쇄살인	-16904
▁영화라도	-16905
▁영화사에	-16906
▁영화제작	-16907
▁예고편을	-16908
▁오리지날	-16909
▁원한다면	-16910
▁위대하다	-16911
▁이것밖에	-16912
▁이렇게나	-16913
▁이번에도	-16914
▁이제그만	-16915
▁인간들의	-16916
▁인피니트	-16917
▁일어나서	-16918
▁있는거지	-16919
▁자신에게	-16920
▁작품성도	-16921
▁잔인하다	-16922
▁재밋던데	-16923
▁제작진은	-16924
▁좋은작품	-16925
▁주구장창	-16926
▁중간까지	-16927
▁중학생때	-16928
▁지나가는	-16929
▁지루한데	-16930
▁촌스럽다	-16931
▁최악으로	-16932
▁치밀하고	-16933
▁친구에게	-16934
▁팬으로서	-16935
▁평점조작	-16936
▁하는영화	-16937
▁행복하다	-16938
감동적이다	-16939
본영화중에	-16940
이런영화를	-16941
▁결정적으로	-16942
▁그로테스크	-16943
▁기대되네요	-16944
▁마지막에는	-16945
▁만들어버린	-16946
▁보고싶어서	-16947
▁볼수있어서	-16948
▁스티븐시걸	-16949
▁쓰레기통에	-16950
▁아기자기한	-16951
▁아니었는데	-16952
▁아름다워요	-16953
▁액션영화가	-16954
▁연기때문에	-16955
▁연기력으로	-16956
▁영화인가요	-16957
▁영화임에도	-16958
▁유치하다고	-16959
▁인상깊었던	-16960
▁전달하려는	-16961
▁짜증나네요	-16962
▁찾아봤는데	-16963
▁최악이네요	-16964
▁한쿡영화의	-16965
▁허무맹랑한	-16966
▁흘러나오는	-16967
▁보고있습니다	-16968
▁최고최고최고	-16969
▁처음부터끝까지	-16970
▁~~~~~~~~	-16971
!!!!!!!!!!!!!!	-16972
)/	-16973
2.	-16974
?(	-16975
PD	-16976
bl	-16977
ke	-16978
ᄅᄅ	-16979
▁“	-16980
▁깃	-16981
▁꼼	-16982
▁뱉	-16983
▁쎄	-16984
▁씩	-16985
▁엣	-16986
▁즈	-16987
▁짭	-16988
▁쯧	-16989
▁쳤	-16990
▁칙	-16991
▁틸	-16992
▁펠	-16993
▁햄	-16994
가까	-16995
감만	-16996
강의	-16997
걸륜	-16998
것네	-16999
겄다	-17000
곡이	-17001
광록	-17002
궁창	-17003
그럴	-17004
글구	-17005
기본	-17006
꼬박	-17007
꿈을	-17008
날듯	-17009
다나	-17010
다행	-17011
데드	-17012
되기	-17013
듣기	-17014
디아	-17015
련다	-17016
로소	-17017
리자	-17018
마무	-17019
마부	-17020
맞게	-17021
먹먹	-17022
모독	-17023
민씨	-17024
반의	-17025
본능	-17026
본데	-17027
볼걸	-17028
부른	-17029
부짖	-17030
분쯤	-17031
빙빙	-17032
살의	-17033
성만	-17034
성재	-17035
성형	-17036
세끼	-17037
소라	-17038
슬펐	-17039
시시	-17040
십쇼	-17041
싱어	-17042
악당	-17043
안감	-17044
안한	-17045
애는	-17046
앵글	-17047
었군	-17048
에의	-17049
연결	-17050
오와	-17051
올드	-17052
와닿	-17053
왕자	-17054
우를	-17055
우우	-17056
으실	-17057
이병	-17058
이쁜	-17059
이서	-17060
인터	-17061
자한	-17062
조리	-17063
조심	-17064
조작	-17065
존스	-17066
좋을	-17067
주냐	-17068
죽이	-17069
준비	-17070
진웅	-17071
질로	-17072
쨌든	-17073
카타	-17074
칼립	-17075
컨셉	-17076
크에	-17077
태를	-17078
테고	-17079
통해	-17080
튼의	-17081
티나	-17082
티의	-17083
평해	-17084
풍경	-17085
프라	-17086
프의	-17087
피언	-17088
하심	-17089
학대	-17090
할말	-17091
혹한	-17092
ang	-17093
ive	-17094
▁94	-17095
▁It	-17096
▁Th	-17097
▁tr	-17098
▁we	-17099
▁가려	-17100
▁가질	-17101
▁강남	-17102
▁개미	-17103
▁개척	-17104
▁거참	-17105
▁거칠	-17106
▁걷는	-17107
▁걸려	-17108
▁검사	-17109
▁곤란	-17110
▁과도	-17111
▁관찰	-17112
▁괴기	-17113
▁괴리	-17114
▁교양	-17115
▁구구	-17116
▁구린	-17117
▁길어	-17118
▁김아	-17119
▁낚여	-17120
▁남았	-17121
▁눈시	-17122
▁늙어	-17123
▁다다	-17124
▁다뤄	-17125
▁다뤘	-17126
▁다코	-17127
▁대니	-17128
▁덮어	-17129
▁땜시	-17130
▁떠들	-17131
▁똥꼬	-17132
▁많았	-17133
▁말것	-17134
▁말론	-17135
▁맑은	-17136
▁망침	-17137
▁모범	-17138
▁목표	-17139
▁무명	-17140
▁무신	-17141
▁물결	-17142
▁미지	-17143
▁민간	-17144
▁반미	-17145
▁받쳐	-17146
▁배낀	-17147
▁법을	-17148
▁보낸	-17149
[...]
